[PAD]
[UNK]
[CLS]
[SEP]
[MASK]
!
"
#
$
%
&
'
(
)
*
+
,
-
.
/
0
1
2
3
4
5
6
7
8
9
:
;
<
=
>
?
@
[
\
]
^
_
`
a
b
c
d
e
f
g
h
i
j
k
l
m
n
o
p
q
r
s
t
u
v
w
x
y
z
{
|
}
~
¡
¢
£
¤
¥
¦
§
¨
©
ª
«
¬
®
¯
°
±
²
³
´
µ
¶
·
¸
¹
º
»
¼
½
¾
¿
×
ß
æ
ð
÷
ø
đ
ı
ĳ
ĸ
ł
œ
ƒ
ƭ
ƴ
ƶ
ƻ
ƽ
ɑ
ɔ
ə
ɪ
ɱ
ɹ
ʃ
ʊ
ʒ
ʫ
ʮ
ʰ
ʱ
ʲ
ʴ
ʷ
ʹ
ʼ
ʽ
ʿ
ˈ
ː
˫
ˮ
˼
ͳ
ͷ
ͼ
΢
α
β
γ
δ
ε
η
θ
ι
κ
λ
μ
ν
ξ
ο
π
ρ
ς
σ
τ
υ
φ
χ
ω
ϲ
ϸ
а
б
в
г
д
е
ж
з
и
к
л
м
н
о
п
р
с
т
у
ф
х
ц
ч
ш
щ
ъ
ы
ь
э
ю
я
і
ҹ
һ
ԥ
ա
վ
տ
א
ב
ג
ד
ה
ו
ח
ט
י
כ
ל
ם
מ
ן
נ
ס
ע
פ
צ
ק
ר
ש
ת
׬
׼
،
ء
ا
ب
ة
ت
ث
ج
ح
خ
د
ذ
ر
ز
س
ش
ص
ض
ط
ظ
ع
غ
ـ
ف
ق
ك
ل
م
ن
ه
و
ى
ي
ٱ
ٷ
پ
ک
گ
ڲ
ھ
ہ
ی
ے
۰
۱
۲
۳
۹
अ
आ
ए
क
ख
ग
च
ज
ट
ड
त
द
ध
न
प
ब
भ
म
य
र
ल
व
श
स
ह
ा
ि
ी
ो
।
॥
॰
ং
ঃ
অ
আ
ই
ঈ
উ
ঊ
ঋ
এ
ঐ
ও
ঔ
ক
খ
গ
ঘ
ঙ
চ
ছ
জ
ঝ
ঞ
ট
ঠ
ড
ঢ
ণ
ত
থ
দ
ধ
ন
প
ফ
ব
ভ
ম
য
র
ল
শ
ষ
স
হ
া
ি
ী
ে
ৈ
ৎ
ৗ
৤
০
১
২
৩
৪
৫
৬
৭
৮
৯
ৰ
ৱ
৳
৴
৵
৷
৻
੔
ા
க
த
ப
ம
ி
ு
ക
ന
ാ
ി
ණ
ก
ค
ง
ด
ต
ท
น
บ
ป
พ
ม
ย
ร
ล
ว
ส
ห
อ
ะ
า
เ
แ
ไ
་
ა
ი
ღ
ᄀ
ᄂ
ᄃ
ᄅ
ᄆ
ᄇ
ᄈ
ᄉ
ᄋ
ᄌ
ᄎ
ᄏ
ᄐ
ᄑ
ᄒ
ᅡ
ᅢ
ᅣ
ᅥ
ᅦ
ᅧ
ᅨ
ᅩ
ᅪ
ᅬ
ᅭ
ᅮ
ᅯ
ᅳ
ᅴ
ᅵ
ᆨ
ᆫ
ᆯ
ᆷ
ᆸ
ᆻ
ᆼ
‒
–
—
―
‘
’
‚
“
”
„
†
‡
•
…
′
″
›
€
₹
℃
™
←
↑
→
↓
⇄
⇒
∏
−
√
─
━
┐
├
┤
╕
╖
╛
╝
╢
╣
╨
░
▓
■
▬
▶
►
◆
◈
◌
●
☀
★
☆
☐
☛
☞
♠
♣
♥
♦
✅
✌
✔
✪
❏
❤
➡
➢
➤
➳
ⱥ
、
。
「
」
【
】
あ
い
う
え
お
か
き
く
け
こ
さ
し
す
せ
そ
た
ち
っ
つ
て
と
な
に
の
は
ま
め
も
や
よ
ら
り
る
れ
わ
を
ん
ア
ィ
イ
ウ
エ
オ
カ
キ
ク
コ
サ
シ
ス
セ
タ
チ
ッ
ツ
テ
ト
ナ
ニ
ハ
ヒ
フ
ヘ
ホ
マ
ム
メ
ャ
ュ
ラ
リ
ル
レ
ロ
ン
・
ー
一
万
三
上
下
不
与
专
世
业
东
个
中
为
主
么
之
乐
也
买
了
事
二
于
五
亚
交
产
京
人
什
今
他
代
以
们
件
优
会
位
体
作
使
保
信
倍
值
免
入
全
公
关
其
内
円
册
军
冠
出
分
划
利
到
制
前
力
加
务
动
势
化
北
区
十
华
单
南
博
历
县
及
双
发
口
古
可
台
史
号
司
合
吉
同
名
后
吗
员
和
品
哪
商
器
国
图
在
地
场
址
城
外
多
大
天
奖
女
好
如
娱
子
学
安
官
定
宝
实
客
家
对
将
小
少
就
展
山
川
州
工
巧
市
平
年
广
庆
度
建
开
式
录
彩
影
律
得
微
徽
心
必
快
怎
性
情
意
成
我
户
房
所
手
技
投
报
据
推
提
播
教
数
文
料
新
方
日
时
明
易
星
是
最
月
有
服
期
本
机
杀
来
林
果
查
样
正
比
水
江
河
法
注
活
流
测
海
淨
港
游
湖
源
漏
澳
点
版
牛
物
特
玩
现
理
甘
生
用
电
界
登
百
的
皇
盘
目
直
省
看
県
真
着
码
破
社
神
票
福
程
稳
站
等
算
管
精
系
线
经
结
统
网
美
群
老
者
联
肃
能
自
色
苏
荐
行
表
装
西
要
规
视
解
计
记
论
设
费
资
赌
赚
赛
赢
走
路
车
软
载
过
运
这
进
选
通
速
道
遗
部
都
里
重
量
金
钱
银
长
门
间
际
限
院
集
面
预
频
食
香
高
黑
龙
ﷺ
ﷻ
ﺃ
ﺍ
ﺎ
ﺑ
ﺒ
ﺔ
ﺘ
ﺪ
ﺭ
ﺮ
ﺳ
ﺴ
ﻋ
ﻌ
ﻓ
ﻗ
ﻛ
ﻟ
ﻠ
ﻢ
ﻣ
ﻤ
ﻥ
ﻦ
ﻧ
ﻨ
ﻪ
ﻭ
ﻮ
ﻰ
ﻲ
ﻳ
ﻴ
！
（
）
，
：
👇
👉
👿
💙
💜
😀
😂
😆
😉
😎
😛
😮
😯
🙁
🙂
🙄
##ঙ
##গ
##ে
##া
##ল
##ি
##য
##ব
##স
##ী
##ক
##ধ
##ন
##ত
##র
##ᅥ
##ᆫ
##ᄇ
##ᅵ
##ᄃ
##ᅳ
##ᆯ
##ᄋ
##q
##u
##a
##l
##i
##z
##r
##ড
##ও
##হ
##দ
##o
##e
##m
##c
##k
##ভ
##ই
##প
##শ
##ম
##জ
##ছ
##ট
##ফ
##f
##ৎ
##2
##┤
##1
##0
##3
##খ
##ণ
##g
##চ
##ষ
##9
##6
##7
##ঞ
##অ
##ৈ
##j
##h
##n
##৩
##৮
##t
##আ
##v
##d
##s
##´
##p
##w
##y
##ʱ
##ƽ
##ঐ
##এ
##8
##ر
##س
##ل
##ن
##ك
##ঠ
##ং
##ৗ
##উ
##а
##л
##ы
##е
##ঝ
##থ
##০
##১
##ঢ
##৫
##৪
##৬
##৷
##২
##ঃ
##x
##ৱ
##b
##ঘ
##ラ
##ン
##ト
##ハ
##レ
##シ
##ア
##カ
##コ
##ヒ
##ー
##¼
##৭
##ᅢ
##ᆼ
##ᅩ
##ᅦ
##৯
##©
##4
##5
##ク
##ル
##т
##у
##ж
##ц
##ˮ
##♦
##°
##н
##р
##╛
##м
##▓
##ৰ
##ظ
##ي
##م
##׬
##و
##ذ
##ि
##म
##य
##ا
##ه
##ƒ
##ф
##ð
##ت
##ع
##ب
##ᄉ
##ᅡ
##ᄀ
##ص
##غ
##д
##о
##в
##х
##с
##ь
##👉
##п
##я
##ß
##з
##б
##и
##ı
##ق
##¯
##ح
##æ
##ঋ
##к
##ط
##ঈ
##ᅮ
##ض
##ة
##╣
##╝
##ம
##œ
##ف
##ю
##خ
##る
##よ
##う
##に
##な
##っ
##て
##い
##ま
##す
##░
##┐
##ঊ
##τ
##α
##μ
##η
##σ
##ν
##イ
##チ
##ッ
##מ
##ט
##ב
##ח
##ד
##ו
##נ
##ה
##ͼ
##も
##あ
##り
##ی
##ﻤ
##ﻌ
##ﻨ
##ﺎ
##د
##の
##は
##お
##と
##श
##ो
##ध
##न
##ч
##ท
##น
##า
##ว
##λ
##һ
##β
##א
##כ
##ל
##г
##ш
##đ
##ث
##ʼ
##і
##ᄆ
##ᅧ
##╢
##×
##ز
##ʒ
##¬
##ɑ
##ى
##ج
##ა
##ი
##ר
##ら
##れ
##そ
##ツ
##■
##キ
##ュ
##ա
##ঔ
##ी
##ा
##θ
##ε
##ι
##ρ
##ξ
##ς
##★
##→
##╕
##ᄎ
##ᄂ
##¦
##ᄌ
##ø
##し
##こ
##か
##∏
##ش
##ᄏ
##ᆷ
##ᄑ
##อ
##ง
##ก
##ร
##ย
##ห
##ค
##ไ
##ด
##ม
##ป
##ะ
##ส
##พ
##แ
##ล
##เ
##ต
##ᄒ
##ﻟ
##ﻳ
##ﺮ
##ﻥ
##ᆻ
##ﺪ
##ᅬ
##ﻮ
##ﺍ
##ﻗ
##ہ
##リ
##ス
##タ
##৤
##ﻰ
##ﻓ
##╖
##↓
##ł
##ء
##テ
##フ
##を
##ת
##פ
##ק
##י
##ם
##ʲ
##स
##र
##ƻ
##ﺑ
##ﻠ
##ʫ
##ο
##ͳ
##²
##ᅪ
##ᅨ
##ャ
##せ
##ん
##€
##¤
##ʊ
##ᅯ
##¨
##ﺘ
##ﺴ
##ˈ
##ﺒ
##ウ
##प
##¸
##৴
##щ
##ち
##ﺭ
##ƶ
##❤
##ᄅ
##た
##ﻦ
##¥
##ـ
##ע
##ロ
##¾
##ാ
##ᆨ
##ס
##ﻴ
##ʃ
##ɪ
##½
##¹
##χ
##۱
##®
##υ
##δ
##ʴ
##エ
##ム
##ھ
##ﻣ
##ﺔ
##ƴ
##😂
##−
##ホ
##ɹ
##ٷ
##ィ
##³
##✅
##پ
##ъ
##●
##►
##π
##✔
##ﻪ
##ﻭ
##ﺳ
##ﻢ
##׼
##ᄐ
##ᅴ
##э
##ҹ
##め
##♠
##৻
##ʿ
##ப
##த
##ு
##க
##ி
##บ
##ٱ
##੔
##™
##ʰ
##き
##ĳ
##ĸ
##ख
##ग
##マ
##ᆸ
##ड
##վ
##ज
##द
##ԥ
##ʽ
##ک
##☆
##΢
##ⱥ
##व
##ट
##ͷ
##¢
##ן
##ː
##ﻧ
##µ
##👇
##ल
##ह
##つ
##け
##ʮ
##─
##צ
##ﻛ
##ے
##ƭ
##φ
##ᅭ
##˫
##ڲ
##क
##ヘ
##κ
##ニ
##ɔ
##ᄈ
##ɱ
##☞
##☛
##ા
##ω
##त
##ə
##オ
##ナ
##ϸ
##ש
##ª
##৳
##£
##➢
##や
##˼
##۰
##৵
##ג
##え
##ി
##メ
##ന
##ക
##ﻲ
##ϲ
##÷
##サ
##ᅣ
##♣
##±
##セ
##भ
##ʷ
##گ
##ʹ
##く
##γ
##√
##➤
##च
##さ
##º
##۳
##ﻋ
##տ
##💙
##♥
##😆
##☀
##▶
##😉
##ब
##ए
##ﺃ
##۹
##✌
##😎
##▬
##⇒
##ණ
##💜
##わ
##╨
##🙂
##۲
##😀
##├
##ﷺ
##←
##❏
##आ
##🙄
##℃
##◆
##◈
##अ
##➡
##ღ
##😯
##◌
##👿
##✪
##😛
##↑
##😮
##━
##➳
##₹
##ার
##ের
##ো
##ান
পর
##যে
কর
##যা
##েন
##কে
##িন
##লা
##তি
##তে
##লে
বি
##ায
##ছে
##টি
##বে
##িক
##াম
##াল
নি
##তর
বা
##বা
##দের
##াক
এক
করে
সম
##পর
##িত
##েশ
##িল
##াজ
##াই
##ির
##িযে
##াস
##তা
##নে
##বার
আম
##যার
##রা
সা
না
তার
##কষ
হযে
সে
দে
জন
তা
##টা
##কার
##েকে
##ছেন
##না
##রে
##বি
##ভা
##িস
##ঙগ
থেকে
অন
মা
হয
##োগ
##নের
##িনি
##েল
##ীর
বল
পা
কো
এই
##কর
আর
##নি
সং
##লি
##বর
##যান
নে
জান
করা
পরি
##ওযা
যে
##থা
##াত
পার
##ীয
##দর
বয
##দেশ
##কা
##লো
##বং
##মান
##োর
যা
##ডি
উপ
এবং
##দধ
নির
পরতি
কা
##মন
##মা
সর
কার
কি
##জন
##রি
##ডে
##টে
হযেছে
##ডা
##বস
এর
জনয
##খন
তিনি
##যোগ
রা
##যের
নিযে
হবে
##পা
সব
মো
##গর
##েষ
বাং
আস
বিশ
##কতি
মে
##াকা
##তার
বাংলা
##মে
##ানে
##যন
শর
##টার
গর
##লাম
দিযে
##ষঠ
বলেন
##মি
দেখ
কোন
বলে
##েলা
##দি
একটি
মান
দি
করতে
আগ
##ছিল
##কত
##ধান
মধ
##িযা
বাংলাদেশ
অভ
ছিল
##েস
করেন
দেশ
##চছে
কষ
পে
##ঙগে
##বন
##যাল
##তন
##তরী
##পি
##ষট
সি
তাদের
##নার
##কের
##লের
##িকষ
এস
দর
রাজ
করম
চে
কিন
২০
##পতি
কে
থাক
আপ
##বাস
বযা
ছা
মধযে
##জি
মন
##বাদ
সঙগে
আল
লা
##দা
মত
##দিন
কাজ
##ভাবে
মহ
নাম
যায
ভা
##ারা
##ওযার
বর
সময
গে
সরকার
##ীন
গত
##চার
##েখ
উদ
##ছর
আন
##শন
শিকষ
সহ
##ছি
##তব
দিন
বে
কিনত
দা
কথা
নিরবা
অভি
##টির
##সি
অনে
##াহ
##লিশ
সন
বিষ
##জে
আমা
ইস
তারা
মি
##বল
##কাল
কিছ
বেশ
আই
##বেন
ইউ
অর
##জার
##যো
উপজ
বছর
পলিশ
হা
##োস
##োন
##ংশ
আমি
##থম
পরধান
আহ
##ানা
##ারণ
##চি
##টের
সাম
##ানের
মানষ
ঘট
##তিক
##জা
##ধয
##থে
বিশব
হাস
নিরবাচ
কম
##ীগ
ধর
##বহ
##োধ
কোনো
##দন
##ানি
##িসে
##াপ
বন
তো
##কল
##িনন
এখন
তবে
##সথ
খা
করার
আমার
##তরে
##গলো
হাজ
##ঞজ
অব
##তির
##পার
ভার
আমাদের
##দক
গো
##ীদের
##োক
কারণ
আজ
আমরা
রাখ
কেন
অনেক
হচছে
##লার
##ষণ
##চে
ইসলাম
##শা
রহ
##ালো
সথ
##খানে
##তের
##কি
##শি
রযে
##দল
লি
##দে
##সত
বিভ
আগে
করেছে
##এন
সভা
বযবস
পরথম
শেষ
অধ
সেই
দই
##ারথ
##োট
জানান
আব
##মী
বির
টাকা
আছে
##কষে
অস
এলা
##জঞ
শি
সমপর
##নন
বাস
পরে
চল
ইন
হাজার
##ানত
অনষঠ
পারে
নিজ
কমি
ওই
##েলার
##েলে
করেছেন
২০১
সবা
বিভিনন
মার
পরত
##বী
নয
##দস
হলে
##িম
##তম
দল
##কাশ
পরিচ
মাম
এমন
হিসে
অবস
##টর
##যায
রযেছে
##দার
##সে
##ডার
রো
##ঞচ
হিসেবে
##াকে
বড
নেই
##ৎস
##দযাল
সংস
##নী
##লাই
##যনত
##ধারণ
##থয
তাকে
##ছিলেন
##িকা
##তো
হতে
আলো
##লাহ
সভাপতি
সো
চা
কাছে
##ালের
##নায
অনয
১০
##মনতরী
##হা
বহ
মাস
তিন
রহমান
##পে
জাত
##ামী
দেখা
##মের
##কস
##লেন
হোস
গেছে
##ানো
ডি
##মবর
##ডের
সাথে
নতন
জেলা
##িকার
মনে
##রের
##ণের
##তরা
পরশ
##েনট
সদস
বিষয
উত
##মদ
##পত
গা
জাতীয
মাধয
উপজেলা
বিএন
##ভাগ
বেশি
নার
আদ
ছিলেন
১৯
##মপ
একটা
ভালো
দেশের
তাই
সমপা
##এস
##মার
টর
পরযনত
পডে
দেওযা
আওযা
##টক
##ঠে
মযা
##শে
যদি
হোসেন
##পন
পরা
##যেক
বার
চাল
##ভাব
অভিযোগ
সদসয
##ধর
##সহ
##তযা
দিকে
বযবহ
গণ
করি
জানা
গরাম
মল
##হী
আওযামী
##ছা
##গা
সাং
পরকাশ
##থায
অযা
##বির
ইউনি
রি
ঢাকা
জী
করমকর
মখ
##দী
পরতিষঠ
##থি
জা
##বিত
হার
সমপাদক
##দধে
জি
এসে
সাধারণ
পরস
গিযে
##লপ
অংশ
##মিক
##বয
লীগ
চার
##চিত
এম
##োল
পরায
অরথ
মতো
আপনার
জানিযে
##কারী
##লায
তৈ
বনধ
থাকে
##ডিযে
বযবহার
রে
##মাণ
##রণ
টি
খব
##তরণ
##ভার
ধরে
##ষটি
দিতে
দায
কারণে
##বের
মাধযমে
##যর
আরও
##মযান
তখন
মস
পাল
##ষটর
##গরাম
বিশেষ
বযকতি
কযেক
##তত
যোগ
সথান
##উন
##চচ
উনন
সপ
##পরে
বাংলাদেশের
সালে
##িজ
কল
পরিচাল
##গে
পড
আশ
ছাতর
##পের
সার
##যোজন
##ারথী
##িকি
বৈ
পারেন
##ফল
##ীকষ
##তায
##বিদযাল
গতকাল
বিরদধে
পেযে
##বেশ
##দয
একজন
চেযার
উল
শেখ
##সের
দেন
ঘো
##ীল
তথয
সরব
ভে
##ধা
কযা
##গত
##তান
##er
বিভাগ
কী
##গঞজ
পি
##চনা
বলা
##ভি
##হি
বিশববিদযাল
##াকার
উপজেলার
পাঠ
করমকরতা
##পরি
চাই
##কায
আইন
আবার
ছবি
##রম
##াধ
##তী
পৌ
কলে
হলো
নিরবাচন
যাবে
জাম
আদাল
দলের
##হত
শিশ
বাড
##বারের
দাবি
পাওযা
##বনধ
বযবসথা
##সা
##বাহ
##টো
ছাডা
লাখ
বাডি
##ধি
##লেও
অফ
মকতি
##নিক
##বান
কেউ
এটা
চি
##পোর
কেনদর
লকষ
##তরের
বযাং
চৌ
বিষযে
সকল
করছে
##দান
##in
##কেট
ভি
নেতা
মানষের
##পির
##ময
##an
##গরহ
##তিতে
তৈরি
অপর
পরীকষ
চলে
##ৈতিক
শধ
হাম
শাহ
থান
এসব
সাহ
##সব
##কালে
##ভে
##বাজার
আপনি
লেখ
এতে
ওপর
তাহ
##ফর
বো
ফির
ঘটনা
##েষটা
##িনা
##যারি
রাস
পাচ
##ালি
কষে
##িনে
লোক
নিজের
##ষণা
##উজ
একই
##পক
##তয
##তমান
সেখানে
আবদল
##দিকে
করত
কোটি
খান
##টট
কলেজ
##গঠ
ছেলে
সংবাদ
বিস
সেন
ভাই
##যানড
বরতমান
##যেন
নিশ
##শয
##েক
পরিষ
বিচার
বিপ
##ভব
##িকিৎস
##তেই
সালের
বস
শহ
হওযা
মাল
মিল
এটি
বকত
শিকষা
গরে
ফলে
##নৈতিক
##ীরা
##সট
পরধানমনতরী
১২
##খে
সথানীয
চেযারমযান
রেখ
##হার
যান
##খযা
বছরের
হওযার
চিকিৎস
শতা
দেশে
##কেল
মর
##াইন
##িতা
বাজার
##োযা
আরো
চৌধর
উপসথ
১১
এলাকায
তলে
পদ
##মল
ভারত
এবার
দেয
##ঙগল
বলেছেন
সরকারের
কাম
##গার
পাক
##রল
ঠিক
##ানোর
রেখে
##বেক
##পরণ
##on
যখন
##লোর
চটট
##ালী
দেখে
##করম
আগামী
মাহ
উদধ
##or
##নদ
সড
চটটগরাম
বযাপার
##েশন
##কষি
সামনে
##es
৩০
##যোজ
সমম
##টাই
গরহ
তে
##রথ
অবসথ
অনষঠিত
অতি
##বেদন
ভর
১৫
##াযের
হল
ধরনের
মামলা
##আই
লীগের
##ণড
##গম
কারয
করবে
সমস
ছোট
কষেতরে
ওযা
বের
##েসক
##লেখ
চেযে
নামে
##েনে
মাঝ
ফর
নিজে
##জজ
##যনের
মোহ
##ধীন
পরতিনি
খবর
##যাম
##মবার
ফল
আলম
##en
আলী
সির
##ar
##সং
শিল
পরব
দেযা
##ামমদ
উততর
##চছ
এন
##ীত
সযোগ
##সার
বিএনপির
##পতর
যাচছে
চৌধরী
বিএনপি
সাবেক
সাল
##েরা
##এম
চো
কন
হক
সরকারি
শিকষক
তল
হাত
##াযক
সাই
নিতে
পরয
##ধার
যারা
নিরা
মেযে
বিজঞ
বাই
সতর
যেন
##টায
##টিতে
চেষটা
নারী
তাহলে
করছেন
হন
দশ
উপসথিত
সক
হাতে
##তিহ
যেতে
##ষা
##ঙগা
রাত
দাযিত
সদর
উঠে
##মখ
##বাদিক
গরামের
উদধার
পো
##পকষ
পরশাস
##াদ
সাংবাদিক
রাষটর
লে
সিদধ
##হে
উপর
পানি
পরো
কোর
উই
এখানে
আনদ
##গন
বদধ
ঘোষণা
পরযোজন
তাল
##কম
কষম
কলা
শতাংশ
হযনি
ঘটে
২০০
##at
##াকি
শা
অফিস
##বক
##যম
সবাই
##াযী
আনতর
থাকা
লাগ
হযেছিল
জীবন
সকাল
হতযা
শে
উললেখ
এরপর
##করি
গেল
পান
##কষণ
##াপত
##ফি
পাকিস
##রাহ
ডা
##om
পরশন
মঙগল
কোমপ
পরযা
জায
দিযেছেন
সমাজ
##েই
আনদোল
##পাত
বধ
খেল
বাহ
নিহত
নানা
##বাই
দবিত
##পী
বহস
##ফা
ফট
##ছাডা
##োজ
বহসপতি
কত
##লেট
দিযেছে
উদদিন
বিষযটি
সট
বঝ
##েরে
##চিব
অথ
উঠ
##al
অপ
##জাতিক
##রত
শন
##সন
উচচ
যক
রান
রাজনৈতিক
সেটা
বহসপতিবার
ডেসক
##দদ
##নীতি
নিশচিত
##চছেন
পরতিনিধি
সংগঠ
এগ
সৌ
##াইল
পরেস
##িসা
##০০
সমা
##কেই
শনি
##টন
কখন
করলে
পলিশের
দবিতীয
সোমবার
বধবার
বই
##বরতী
th
আতম
বঙগ
##লীগ
খালে
মযাচ
পরণ
দটি
আললাহ
সমভব
গরতব
পথ
ফে
##বদ
##টিং
করবেন
##জী
##ফিক
অনযায
##চেযে
রাতে
##ষে
আনতরজাতিক
মঙগলবার
শেষে
ভারতের
পরতিষঠান
খে
পরিস
##পাতা
##ভায
আলোচনা
শকর
দাযিতব
রাজধান
নেওযা
১৮
আহমে
সবার
সমযে
এলাকার
করন
নিরদেশ
বরি
সবচেযে
##কষা
দিল
হযেছেন
জীব
থেকেই
ইং
অনষঠানে
##িনী
##কষিণ
মৌ
##খান
গরহণ
সমমেল
সাত
মধয
বকতবয
তদন
##পরের
থানার
আটক
উৎস
থাকবে
##ডিযা
১৪
##ীরঘ
##বো
##গলোর
মাতর
##দরশ
যেমন
মোহামমদ
##জনের
নিরবাচনে
##সম
বিদযাল
আহত
##িদ
যৌ
শনিবার
পাশা
জানিযেছেন
জাহ
ঘটনায
##চা
##লিম
দীরঘ
অবশয
দেখতে
এত
পকষ
রোগ
##শীল
সতয
##শর
২৫
মতয
যার
সমপরকে
পরিবর
ফের
জয
যাওযা
##বাব
##পাশি
সকালে
কমিটির
সমসযা
##িনার
##হের
##জর
##তারা
শো
##ীতে
উননযন
তর
পাশাপাশি
অভিযান
আট
##মো
##াযোগ
সিদধানত
দাম
ওযে
কিং
একট
বিসতার
তত
উদযোগ
##চর
শকরবার
দকষিণ
একস
নেত
হলেও
মিনি
##পাতালে
বিশববিদযালযের
##কট
ভাল
##ীতি
##কদের
হাসপাতালে
সমপ
রায
সবাস
##it
পরকল
গঠ
চাক
##লেই
খেলা
##ডাই
বযাপারে
গান
ঘরে
বান
##ষয
বযাংক
##লাল
ওযার
##িসি
##যাস
সবাধীন
সংশ
জনগ
বিভাগের
সারা
একে
##ডিও
হাই
##বাসী
বাবা
##ারি
##তিহাস
অনযান
##বোধ
বলতে
সী
পরিচালক
শরে
আহমেদ
যাওযার
অনযাযী
শেযার
আমাকে
ভো
##িরা
১৬
গবে
সংসদ
দেওযার
মহান
হিসা
জনম
চলছে
সষটি
##শোর
শরমিক
ধরম
ইউনিযনের
জানতে
মাঝে
আরে
নিরাপত
গোল
আসে
পরারথী
হে
##ামা
##ামি
জে
এছাডা
বিন
##দধা
ডে
মহি
শিকষারথী
রাখা
##করিযা
পশ
##তরণাল
১৩
পতর
##লী
নর
ডাক
নিউজ
জিযা
পালন
সাডে
##শের
মানব
বেডে
বাসতব
হাসান
##পরাপত
উৎ
শকতি
ভোট
কাছ
বৈঠ
শাস
মনতরণাল
বিদয
সডক
বাংলাদেশে
সবাসথয
যকতরা
বিদেশ
##িড
আক
কারযাল
বযস
এলাকা
কেনদরীয
সমরথ
সহযোগ
##শিযা
চিন
এগিযে
যোগাযোগ
##ামান
পরিবার
খালেদা
ফিরে
পৌর
##িকত
বসে
বরা
বিরোধ
ফার
ভাগ
অনযানয
বিমান
মালিক
আযোজ
আপনা
করমস
কাল
নিযন
দিনের
শরী
সতরী
ভাব
আদালত
সংখযা
বিসতারিত
রোব
সনধ
##মর
##ংস
##করানত
পরষ
##থমিক
সপার
##যাত
আশা
পরাথমিক
অক
লো
পরীকষা
মহাস
বিনি
ধারণ
##কো
উপল
##ানতি
##ণয
##কয
পন
##ফতার
পরিবারের
##মাতর
##বনদ
থাকতে
বোর
কষতি
##উল
অবসথান
গাডি
পায
##তরীর
সাজ
##যকত
##বেদ
অবসথায
সভায
বাইরে
পরিক
পরচার
আবেদন
নগর
লাই
বিশবাস
the
ফি
##েনস
##াযন
##খা
বেস
উদদেশ
কমিশ
রাখতে
মারক
ফেস
রিপোর
শীর
নিযম
নামের
গডে
খর
আয
আলা
১৭
##োযার
সবি
কিংবা
তদনত
##জের
পারি
কারা
লেখা
চলা
দরত
জানায
চাপ
ছয
নমবর
ভিত
ঘর
বেলা
##াজিক
##বীর
##গের
##ারথীদের
##পতার
##ভর
কাজে
বেগম
পরসত
##ad
##টস
##শেষ
ময
আরেক
নিরবাহী
##রো
সৈ
নিজেদের
ফা
চান
বরতমানে
##ed
##কোর
মিযা
ফেলে
##ঙগি
##দায
গরেপতার
২৪
##মব
টে
ককস
##ৗশ
সাক
ছে
##ঘা
সনদর
গেলে
পকষে
রোববার
##ছিলাম
নভে
পরাণ
পাশে
নাই
##তানের
##েলি
পল
হত
##াকায
ইনটার
ভরতি
অধযা
খো
সমপরক
মোঃ
জাতি
মোট
ইউনিযন
তারপর
জল
##গরিক
যত
##রোধ
##েলের
পরিসথি
##চল
এখনো
##জয
##কতির
ককসবাজার
##পটে
বরণ
##আর
পরদান
##কারি
পরেসিড
##ew
##ডায
৫০
##ic
রযা
আযোজন
com
পরিকলপ
রোহি
লাল
অপরাধ
জেলার
সতরে
##েনি
সিটি
ঘটনার
in
সামাজিক
##is
##ানির
ইতিহাস
##ঠা
##মত
বিশববিদযালয
অভিন
##িসট
শরেণ
করতপকষ
ওর
##ঘর
চালিযে
##ডির
২২
##ঙক
আছেন
২১
জমি
মামলার
##ছরে
পারবেন
বিশবকা
মির
##ঘট
##তিরিকত
কমার
সপতা
##পরিয
মাঠে
আসা
পরতযা
কঠ
##তবয
হামলা
গরতবপরণ
##ou
বিল
নভেমবর
এসেছে
হাসপাত
##নদর
##জজামান
ধার
পরিবেশ
খল
শিলপ
##বাল
মনোন
পথে
মারচ
জলাই
বাডিতে
##িনীর
##করণ
##ধযে
আগের
##তরাস
কোনও
টা
শহরের
পরিষদের
সাংস
তাতে
ভল
##াকর
##চয
জো
##চিতর
অকটো
ফেল
কোমপানি
অতিরিকত
##ামল
##ষক
টাকার
সবী
গলপ
নৌ
পশচি
কমিটি
নব
লাভ
ভাবে
মযাচে
মারকিন
একা
নিরমাণ
ছাতরলীগ
অধিকার
থাকার
##সর
অত
##াসা
গলি
সিলেট
ভিডিও
##দদিন
##বদধ
অতিথি
কখনো
মলয
##সিং
সনতরাস
ঘণ
তরণ
সংসথা
##বযা
##িনদ
জড
মোবাই
সথা
বঙগবনধ
ডিসে
সমি
মাদক
অনলাই
পরেসিডেনট
সেপটে
এদিকে
সেনা
ফোন
##মাধয
বললেন
মামলায
মাসে
লকষয
##ing
মখে
মারা
বিকরি
নিরাপততা
জর
হাসিনা
আনদোলন
অধযাপক
থানায
নাগরিক
##ইন
তারি
সচিব
ছেডে
উদবোধ
##লিষট
পরিমাণ
গরেফতার
চোখ
##েনার
##ততবে
##মধযে
রাজধানীর
টাই
##ঞচল
লিখ
সহকারী
আহমদ
##িকভাবে
হই
##ফে
হারিযে
##বিষয
পথি
##বত
সিনে
গাজ
##হীন
##টিযে
পেশ
##াতের
নিযোগ
জার
পরসতা
২০১৮
দপরে
দোক
##গল
দিবস
##দরে
বদধি
আদালতে
ঢাকার
##জান
শহী
আসতে
দিনে
ইযা
সনতান
মজি
পলা
সাহায
##সিল
##এফ
পরবরতী
শত
পডা
পরভাব
##ামর
মহিলা
পরমাণ
রোহিঙগা
খাবার
চায
জানিযেছে
মেডি
অকটোবর
করপোর
নিরবাচনের
##দরশন
সংশলিষট
##গরে
বাদ
হযতো
ভারতীয
##মেনট
##ঠি
##েশনের
সমন
##তেন
##শার
টেস
রপ
চরি
সেপটেমবর
মাই
সমপরতি
অবসথা
##ion
বাজারে
##জল
বাণ
##শাহ
##নয
মনতরী
##াসে
##পাল
যেখানে
পরিবরতন
##ষটরের
##দির
৪০
চর
মেযর
বিশবের
রবি
জামা
##োভ
থাকেন
##ews
উপলকষে
ভম
করেছিলেন
অথবা
##নড
##টিকে
অনযতম
আবল
লাশ
দিক
নিযনতরণ
কাউন
দাডিযে
হম
নদী
রকত
অযানড
সমমান
শরীর
##গান
সবর
কমে
সংগরহ
##চছা
বিপকষে
বোঝ
সংগঠন
মাদর
২৩
মাছ
##ফোর
জনপরিয
জানানো
##ণে
ডিসেমবর
সরবো
পরমখ
দলীয
##ধে
সফ
##পনা
##পাডা
##বায
##as
##le
কষি
##হর
##টিক
an
দরঘট
বলি
নেন
##করা
উৎপা
ফরি
##াসট
যাতে
বিযে
ধারা
##কেলে
##েনদর
মহা
বাল
##ভীর
হলেন
গল
উচিত
থাকলে
মেডিকেল
জাযগা
মসলিম
জোর
##যোগয
পেতে
কাপ
শার
##থার
বছরে
যাতরী
##যাট
করছি
কিশোর
গাছ
##গলি
সহায
করেছি
ফেবর
সল
আগেই
পরতিযোগ
রং
##ভকত
##িনের
##উট
পাস
পরতিটি
কযেকটি
দবার
সফল
চলচ
##নাথ
পরিচালনা
ফটবল
আগসট
পরযকতি
নেমে
পরতিবাদ
সথানে
আহবান
ঘা
হিসাবে
সেবা
সমযের
পরতিদিন
গরামে
শিকার
লিখে
##চের
20
ওসি
মোবাইল
##রাষটর
নাস
সবিধা
চাইলে
রাখেন
করিকেট
অফিসার
##মনতরীর
##যাক
অনষঠান
কারযকর
বযাংকের
ভারপরাপত
##re
নিন
ডলার
নেয
মযান
২৮
আলোকে
মনতবয
পাই
##তল
এপর
বযবসায
পরিকলপনা
##গলোতে
##ang
কাজের
##টেড
##হন
বিজঞান
##চক
জমা
জানযারি
##তবে
হোক
বিদযৎ
##লেক
##ঙখ
##সল
আসলে
##গরি
সবপন
##গায
পরকলপ
##উদদিন
পাওযার
##দেহ
মাসের
রকম
দৈ
ততীয
##যেল
পরসকার
যদধ
ইতি
ধরা
##রী
##বাধ
##কতা
সীমান
করমসচি
মহানগর
বাকি
এল
পরের
##কোন
##েনের
ধারণা
পাহা
বেসর
এপরিল
উপা
ফিল
ইতযা
##গরহণ
of
নজ
##শী
পাকিসতান
অরথা
##খালী
##মিন
##বিল
##িকায
ভমিকা
বিপল
##থমে
থানা
##মস
টেলি
##গো
কষমতা
##ষিক
ইংরে
আসছে
পোস
আধ
শিকষারথীদের
##উর
মড
বিনিযোগ
মনোনযন
টেক
হওযায
আমের
##ঙকা
##চাল
পদে
সমার
অভিনে
##কষেপ
পরশিকষ
দরশ
জঙগি
মকতিযো
পরিচয
তমি
সমমেলনে
##মিত
##il
কারযকরম
##াসথ
পরতিবেদন
আসামি
সরবোচচ
দরকার
যাচ
##ষের
ভাষ
##কেরা
##et
##বিক
পরকাশিত
শহীদ
অসতর
দখ
সমভাব
পণয
২৬
ইম
ছি
##নত
চিকিৎসা
বদ
পরযাযে
নিজসব
##ফার
নো
বাণিজ
পেছ
বযবসাযী
কমপ
নিক
তালিকা
কমিশন
নেওযার
পাঠানো
কান
##যদ
ইনস
শির
জিন
খবই
মজ
মসজি
অনেকেই
করলেন
শবদ
পডেছে
নাকি
রাজশাহ
সঠ
##ডাতে
##ণা
নেযা
তিনটি
সেটি
##যাশন
কলেজের
##ভাবিক
##লিযা
##জীবী
##যদধ
পরথমে
অরথাৎ
##বধ
গঠন
হাল
নাজ
##দীর
লোকজন
২৭
##কষম
যৌন
##рж
কামাল
##াধিক
বিরোধী
২০১৭
আরথ
অপে
##ীকে
চিনতা
##গঞজের
##ঘাত
ভয
এভাবে
বাধা
পরিষদ
##শাল
বাঙ
পারবে
চকতি
ডর
ভাঙ
তারিখ
হযা
##টরে
অভিনয
পছ
পরিবহ
##ধব
##গডা
নিযেছে
ঐকয
সেরা
করিকে
রেল
বযাপক
মিযান
##কিং
কবিত
রাম
##বাদী
##িযার
নিরবাচিত
শীরষ
জেনার
হো
মিযানমার
জডিত
নাট
##am
##ৎকার
পদধ
জীবনের
মানে
সাহাযয
##ভয
দো
ইতযাদি
পরকরিযা
##বিদ
সভাপতিতবে
সৌদি
হি
##কালীন
##খার
সটে
সামর
নিজেকে
বক
বেসরকারি
##ঙে
বিজয
অথচ
##সী
সবামী
নিযমিত
##মির
আকতার
শনে
কবির
ইর
৩৫
##lo
তব
১৯৯
যদিও
নেততবে
##মিটার
তোমার
জনের
অনতত
##শাক
জাযগায
নিষ
ঘটন
মসল
##ষঠান
##ডী
পরিসথিতি
বিকেলে
ছবির
ফেবরযারি
##ামের
পযেন
যথ
বাডির
এমনকি
ঢাকায
পিছ
লেন
পরাক
##বাদের
যকত
আফ
সৈযদ
অযাপ
সহজ
হতো
বযবসা
ইউরো
##যাপ
থাকায
২০১৬
আননদ
পরসতাব
##সিক
##শালী
১৯৭
চাকরি
রাখার
ভালোবাস
পরবেশ
আপনাকে
যগম
##কারীদের
কেবল
সকলের
সাহিত
দেযার
##সভা
নন
পনর
উঠেছে
জিযার
মাথা
কযেকজন
##নীতির
##কান
মাহমদ
##ফোন
##টাল
চিতর
রাজনীতি
পরামর
##ভী
গহ
আলোচ
চাম
বাজে
এনে
##ভত
কাউনসিল
একাধিক
##াতার
অবশযই
কবি
##োপ
সাংবাদিকদের
আললাহর
লিমি
##দিষট
অবৈ
অরজন
##কতিক
কমিশনার
এদের
পাবেন
কারাগার
পোশাক
re
##যানডের
অনেকে
কাদের
##পদ
ভবিষয
##পরা
তেমন
##বাডি
##রির
চড
সেক
খেলে
শহর
গাজী
##ভোগ
##গণ
বরং
পরতিষঠা
জিজঞ
বাতি
করেছিল
##টিশ
অনলাইন
আনা
অনতর
##শিযার
##াযণ
আও
মাথায
##la
চলতি
অবৈধ
অনি
ঘটনাসথ
##িতে
নিউ
রব
উদবোধন
টরাম
বলছেন
ছডিযে
পরযোজ
##াযার
বাণিজয
অঞচ
যাযনি
গেছেন
মকতিযোদধা
কাউ
পরিণ
বিবে
##ot
##চেতন
বঝতে
অভিযোগে
কিল
যকতরাষটরের
আদেশ
ভাষা
জরি
অধিন
সঙগ
পরধানমনতরীর
বিপর
##ent
আলাদা
আসার
কাঠ
ছাতরলীগের
বিতর
সংর
##ফিজ
রকষ
গড
##তনতর
বিকষ
আলাই
##কৌশ
##ানস
পঞচ
দঃ
অনমো
উইকেট
অধিদ
রাসতা
ঘন
উদযোগে
##তাস
##উনড
এইচ
একবার
গভীর
মাঠ
তোমা
##াঙগ
বিজঞপতি
দরে
কিছটা
বিদযালয
দয
অভিজঞ
কঠিন
রম
ভেঙে
খারা
খজে
সিরিজ
সই
থাকলেও
সঠিক
বিষযক
##ভিস
জঞ
জেনারেল
মৌল
৩১
বিচারপতি
পরযোজনীয
##নাত
দেবে
শানতি
পেরে
রহমানের
##খয
রযেছেন
ওঠে
শভ
পেযেছে
যেকোন
##ানী
অপার
##বযে
##ংক
সপর
##ফের
##রয
ভিনন
ইউপি
##িযাল
আইনজীবী
##উটার
201
জনগণের
চম
দবারা
বিদযালযের
##যনে
২৯
আযোজিত
ইংরেজি
বাহিনী
চী
##াতন
##জেনট
##বনে
অসটরে
বাধয
ইসলামের
হামলার
খরচ
##ঞজে
পরসততি
আমিন
মিথ
ছাতরী
পরশাসন
##বছর
##ানতর
সমালো
পরবে
##ামে
##st
হঠা
পরামরশ
পৌছে
সবাধীনতা
##ওযে
আসেন
নীতি
##এসই
মেনে
আরথিক
পাকিসতানের
##িতার
নরল
সবাভাবিক
হঠাৎ
কমপি
কযামপ
গন
মডেল
কিছই
ওযান
bang
খাদয
উপজেলায
অনযদিকে
মনতরণালযের
এখনও
খারাপ
##ol
বাহিনীর
মাযের
##তাম
এসময
খেলোযা
ধান
রেকর
##ওযান
কেটে
গবেষণা
##াকিব
চোখে
কযান
পরশনের
##শনের
দজন
পরিচিত
বিতরণ
##ীরে
সবীকার
পেযেছেন
সরে
মাও
দরনীতি
ভিততিতে
পযা
পরিয
দাযের
##ডিং
ভবন
আসন
হিনদ
##পতরের
আকর
করিম
জাতির
যব
##াসরি
বিজে
২০১৫
কারযালযে
##মলক
ফো
ভযা
লডাই
করমী
লকষযে
##ামার
এমপি
সিনি
দশমিক
##সথা
##ফো
সংঘর
সিলে
মনো
##কারের
সমাধান
##পরতি
##যামপি
সরাসরি
হতযার
বষটি
##কেও
ওভার
ঋণ
ছাড
##সির
লাগে
##িং
##টিভ
##তরিক
সেত
মকতিযদধ
গার
দলে
সহাযতা
ঈদ
চালা
##বনধন
মলত
##সতা
##ur
যন
আহব
জটি
পারব
পরতিষঠানের
সিরাজ
করমচার
কমপিউটার
যাদের
##ভো
to
সাব
##েনা
মখো
##ch
##হাজ
##তেও
##পণ
##োমিটার
আবদর
সিনিযর
চযা
আগন
কমান
মনতরণালয
##হল
##েনড
মিনিটে
দেব
##নিং
লেনদ
##ততর
একমাতর
শাম
মসলমান
বৈঠক
জবা
##াহি
আদালতের
##ঙখলা
আসবে
পরকৌশ
##জনয
##মতি
কাটা
সিং
ভোর
##াময
সমমেলন
দষটি
শহরে
##এল
এড
নিচে
করব
##বারে
সংগঠনের
সথাযী
করেই
##সংঘ
রিপোরট
তৎ
অবযা
দিচছে
চলচচিতর
বলছে
ফাই
##োনাল
বিশাল
অঙগ
ইসলামী
বযকতিগত
ধরষণ
দেশটির
দিলে
##দিনের
জীবনে
চডানত
গরাহ
and
সমিতির
##াসহ
পডতে
আকাশ
##াকত
ফলা
আফর
সোহ
##পথ
মানষকে
##যাশনাল
##যামপিযন
মিনিট
ডিজি
##বনের
উৎপাদন
বৈঠকে
কোথা
জেনে
আচ
কীভাবে
হজ
অধিনাযক
ঘটেছে
##বযাপী
মতযর
##el
অশ
নিরযা
মহর
বাচচ
সেনটার
কোমপানির
বযরথ
বাসায
পরতিবেদ
##ষধ
ফোর
দপর
##এসসি
আত
দাবিতে
১০০
রাজশাহী
আদায
দোকান
আওযামীলীগ
ঘণটা
##রাফ
সেখান
দকষ
##জাদ
যাই
সংকরানত
রকষা
ইনটারনে
##জনক
##হাট
##লাললাহ
কালো
##বকে
মহাসচিব
হাট
সমভাবনা
জাতিসংঘ
আপনাদের
আধনিক
##নাম
কাজী
সদসযরা
জানি
আজি
সারভিস
৪৫
পারটির
নদীর
কেমন
সমপরণ
অগর
##বিরোধ
বেশির
##বিতর
গণমাধয
কং
পরচ
সরবরাহ
##গঠনিক
কোচ
সটা
কিনা
করায
##যাণ
টেসট
##গাও
ফেসবক
##বেশে
মকত
মেযের
##সয
বিযের
পরশিকষণ
যেসব
মোটর
##পো
নিযেছেন
আলাইহি
২০১৪
চযামপিযন
আইনের
##ললাহ
##সাই
##খানা
গলো
দিলেন
অরথনৈতিক
৬০
সনধযায
##মনি
মতে
চিঠি
জাপ
কিলোমিটার
সমপনন
##িরে
বিকষোভ
সমারট
পরতিরোধ
পরীকষার
নজরল
আনোযার
দেখিযে
মিশ
৩২
ফাস
নারাযণ
মধযেই
একাডে
সংসথ
উন
টরাক
পারেনি
বেডেছে
সাংগঠনিক
##id
কোথায
করতেন
কারও
সতযি
গরপ
##নো
সেনাবাহ
দখল
তারকা
নিরধারণ
ছাডাও
অতযনত
পালিযে
##েরি
পেছনে
##ইল
হাসপাতাল
হসত
##বসাই
তেল
ভেতরে
##সান
বোরড
সচেতন
পরিবহন
রেকরড
সমাবেশ
আকরম
সকষম
##দেশের
চেযারপার
হাসপাতালের
ঝকি
on
নাটক
ইক
ওযেবসাই
হর
বেরিযে
##ততি
##শিল
চনদর
পছনদ
বিকেল
টার
পবিতর
##নিযা
সাংসকতিক
##ষটির
##িশ
##বাহী
মিস
চযান
##রাট
মম
##কষর
আখ
হাসিনার
অধয
জারমান
বযয
ভাডা
##বিশ
মাহব
##কারে
সমতি
কষমতায
##গীর
ভমি
রঙ
পরতয
রিপোরটার
রাষটরপতি
##দো
পত
টযা
হাইকোর
সত
##ফিকল
পাবে
##নির
কিভাবে
চকর
দাস
##ro
দৌ
##েনটের
ইঞজ
সহযোগিতা
##িনদা
সখ
জররি
আহবাযক
সিনেমা
সমপদ
কমিল
কাগ
নিকট
##বিধান
অনরোধ
মহাসড
কোথাও
দৈনিক
সহজে
নিরমা
লেগে
আনদোলনের
##কিছ
জনগণ
##েষট
ঘোষ
##ia
পরিণত
পরকলপের
চলাচল
যবক
হতা
মিছিল
খেলার
অযাড
##ct
রেস
##িলের
তরি
বযবসথাপনা
সাফল
মিলে
##খযাত
##সভার
অংশগরহণ
উপসথা
বাংলাদেশি
বযকতির
##গরসত
পরদরশন
পযার
news
গোলাম
রবিবার
খেলোযাড
##জির
কাট
ওঠ
আকরানত
সমরথন
কষট
পৌছ
রাই
গোপন
খেযে
পরসঙগে
ঘম
পরশাসক
##মকত
ভোটার
পথিবীর
##ামলক
সাহিতয
সরবশেষ
চাহি
পরতিবে
উৎসব
সংগ
##তনে
জনকে
বীর
##টিটি
তাম
নান
কৌশ
কাউকে
নেততব
মানসিক
খলনা
##লাস
কযামের
ছিলো
##ধিক
পযেনট
কংগরে
টানা
পরেম
পজি
##ালেন
বাক
নীল
গোযেন
দেখার
খলে
পদকষেপ
রাসল
যেকোনো
##কলপ
##ষেধ
কথ
জনযে
তাক
ইংল
##বিরোধী
শিকষারথীরা
একদিন
গরম
##দরশক
মেযা
চিকিৎসক
রাসতায
##ধারিত
##লিং
নিরভর
খাওযা
আমির
নেতারা
সাললাললাহ
##সথান
##দাতা
##মনসিং
সামপর
পোসট
আওতায
##ভিত
##মক
বিকর
সামরিক
সান
উপদ
ঈদের
করণ
নারীর
দী
##দানের
বযসত
##চারয
অসসথ
বাসিনদা
মযমনসিং
নজর
বিজি
##নালে
অবযাহত
##হরণ
##ীগঞজ
##ছডি
মজিবর
##লক
##থর
বিদেশি
##লানা
হাজির
দবি
উননত
মৌস
##টোর
##শবর
##তানতরিক
সডকের
বাধ
কবিতা
##ারথীর
##টরি
##কেটে
ডাকতার
সবাইকে
চাষ
বাবার
বারতা
##দদিক
##ir
অনমোদন
ছবিতে
কারাগারে
করী
মযানে
রস
পরতিবেদক
লেখক
বিশেষজঞ
বিবি
অনষঠানের
বোঝা
আশরয
চিহন
দিনাজ
##বেল
হিসাব
গাই
জিতে
তলনায
মনির
সাকষা
বলেই
রাজধানী
সনধযা
এফ
মশ
##াজয
নিরবাচনী
মনতর
##শেষে
টিভি
যকতরাষটর
##ারে
রেজ
##লস
জিনিস
##হেত
মিরজা
##যযার
চতর
ইউন
সবে
##বলীগ
##গলোকে
যোগয
সংসথার
##মরা
ইতিমধযে
অধি
শিশদের
দেড
পরিশ
##কির
হবেন
##িতায
নিরদিষট
ভেবে
ধীরে
নিরযাতন
বোন
সমসত
পথিবী
কেজি
এবারের
উচ
পররাষটর
ধবং
শরীল
##ণডের
এরই
অবর
তাদেরকে
অলপ
কেনদরে
বিশবকাপ
অনমতি
পরতিবেদনে
বাতিল
মিথযা
নিখ
##কষিত
নী
সথাপন
পশচিম
খেতে
টো
কারো
##মানের
আজকের
পরজন
উদদেশয
বলেও
দশয
চরম
মখয
করমসচ
##দেশে
মিলিযে
বসবাস
মেহের
##ণী
যাচছেন
সমাজের
কমিশনের
একাদ
খন
##ভাবেই
মযাচের
যৌথ
নিরাপদ
##মকে
পাশ
##পনের
##করিয
##তিত
দীরঘদিন
জাহাঙগ
ঘরের
রযাব
সাংসদ
সটাফ
পরীকষায
ch
ফরম
##াজন
আরি
শাখার
##পততি
খোলা
বাসতবাযন
ভগ
##িতি
##ীবর
জামাল
##জাত
##সেল
ইনডি
রাজি
বিদ
নিষেধ
সাদা
গোযেনদা
বলিউ
সনদেহ
##যেনটি
ডিজিটাল
##োনা
উননযনের
সবস
##সক
##িষট
##est
কলক
পরতযেক
ভোগ
##জিত
পরসতত
##জনকে
জবাবে
ইনসটিটি
কলাব
দম
##উনি
মের
##মখি
##iv
হমকি
বায
হোট
এরা
দধ
মহামমদ
ভাষায
##চছি
লিমিটেড
তীবর
যবলীগ
খেলতে
বরাজ
ওষধ
##চালক
করলেও
চটটগরামের
নষট
চির
ভাস
ইমাম
সিস
করো
গযাস
জাহাঙগীর
পয
##মবরে
##লাপ
##ভিততিক
করল
সকলে
রাজয
##বাডী
##জায
৭০
সফর
##ay
শকতিশালী
বোধ
##থির
##ষী
অযান
##ীনদর
সদসযদের
বিশিষট
##টিযা
তোলা
শিলপী
রানে
মিডিযা
সাহে
বাচ
অপেকষা
ফারক
##ঙগের
গৌ
হেল
এছাডাও
করমকরতারা
উভয
##ঘাট
ধারাবাহ
১৯৮
জিজঞাসা
বযসী
পারেননি
মাওলানা
সংসকতি
রানের
নিরধারিত
টরামপ
২০১৩
তালিকায
শরতে
##বলি
কণ
বাঙালি
মিলি
##জিং
##টারি
যাতরা
গতি
সংশোধ
##চছিল
বাসতবায
নিশচয
আসনে
জম
##ীক
মানন
রেজা
##জাহ
##ষণার
হোসেনের
বসত
তেমনি
আনতে
##তনের
বাংলার
এটাই
বিব
##ag
অবসথিত
আনষঠান
চলবে
সিদদিক
আরেকটি
##oo
সপষট
সিন
এযার
ভাইস
পরশাসনের
বেল
##ig
পরিষকার
##পট
বিধ
##হান
##িকাংশ
শব
চাদ
##যাজ
##মণ
বিধান
অধিকাংশ
মখোমখি
আরব
বদলে
জঞান
পারটি
ধনয
দঃখ
পরও
##জনে
আগরহ
নং
রাখে
দারণ
বিকলপ
জোট
বেতন
##বাধিকার
জানেন
বকতবযে
বলল
তোমাদের
##ভাই
টরে
##াসের
আসনের
ভারতে
শারীর
চারটি
নবী
st
মাধযমিক
পাঠিযে
পডার
দেখি
রশি
ফিরিযে
উললেখয
ধরমীয
##ul
পযান
আবেদ
ঐতিহ
সপতাহে
উপায
চীন
তণ
##ut
##তক
এগলো
ভকত
দরঘটনা
শাখা
##im
দেবেন
আপনারা
উদদেশযে
যশোর
ডিএসই
সমরণ
হাবি
##পাধ
নেতাদের
বরিটিশ
আবদললাহ
##তলা
জারি
কট
লেনদেন
মোর
মঠ
বলার
##নদের
জগ
অনসার
পের
পরাই
পরান
##মতো
আদরশ
##দিত
দিযেছিলেন
##শাস
##দরের
গোলে
পদধতি
সঞচ
পরকত
আগর
লিখিত
জাল
বারষিক
সবজ
চাহিদা
##সতর
আবারও
##যাগ
##কারীরা
আলমগীর
পাখ
করপোরেশন
পরেসক
পিতা
##বেগ
পডেন
আচরণ
অসথ
উপদেষটা
চেযারপারসন
সংগরাম
পরেসকলা
রক
##শিষট
##00
টেলিভি
দফ
করমীদের
দার
পাশের
অভিনেতরী
হাও
##বসত
মোসত
সতরক
দাড
পরচর
##জঞান
##িলি
##ইউ
##টাকে
##ore
ফরিদ
লনড
খোজ
জবাব
বযাট
##াব
##নিউজ
অরধ
খাতে
ফাইন
বাডিযে
বাগ
ভেতর
শরীরের
জিম
টরা
এশিযা
অভিজঞতা
জামাযা
অগ
জডিযে
চালক
নামাজ
জযে
বিশববিদযালযে
সমসযার
৮০
বাছ
বী
রিযা
গযা
মেশ
পানির
জনযই
নিমন
ইনটারনেট
ফখ
লাইন
##বাচক
##পোরট
##করমী
##ামত
তথা
তাপ
কলযাণ
বরিশাল
করিযে
খশি
##ারের
জবাল
সসথ
বিসি
আবহ
##গির
##ফিল
##যত
##ানয
##ck
মহরতে
রবীনদর
গরতর
মাটি
আটকে
##তাই
মিজান
করীডা
চলেছে
সষঠ
অনধ
##দানি
এনড
বলেছিলেন
ধনযবাদ
রিক
কারণেই
মেঘ
##দরো
কয
##করে
##ভতি
##সিটি
##এই
লিখেছেন
সপতাহ
আঘাত
শাসতি
নারীদের
চামচ
সাললাম
##দবনদ
রপত
কঠোর
টই
##ীনে
অনেকের
যাবেন
বেচে
বিতরক
##ভোকেট
ইকবাল
কারযালয
থাকবেন
করপোরেশনের
##ডো
##নট
ডিজ
বিজেপি
##ap
মনদির
আবাস
##গতি
বযকতিদের
##েসে
দান
নিঃ
সেদিন
##লিযার
কাউনসিলর
##ভেল
মামন
বিভাগে
পরযোগ
বিসফোর
কষক
আকরষণ
##করো
টাকায
চালানো
সাধারণত
পৌরসভার
##ানড
গরন
ডটক
যিনি
##দম
ঢকে
শযা
##বলিক
সাধ
সবকিছ
পরিন
##াওযা
##az
##ob
##ow
##সাল
নিজেই
ওযারড
কযারি
অদ
যেহেত
ধারাবাহিক
সমান
ওস
সিবি
##োসিযে
উকত
সোনার
হাক
ইচছা
পেশা
সনাম
চযালে
##াজা
এসআই
##বসথা
##বাজারে
##গধ
sh
আড
##মানা
অযাল
##কিযে
বাম
বোরডের
মনের
চতরথ
নক
যথেষট
##বরে
যকতি
রাজা
পরিচালিত
করমীরা
শিবির
ডিম
যাক
মানবাধিকার
##যং
সহযোগী
সামানয
##রধব
তলতে
##ওযযার
সংযোগ
##গরী
শিশর
কখনও
##em
মদ
করতক
অধযকষ
মেলা
আরজেনট
##তবের
##দিক
কথায
ইনটারন
অল
গিযেছে
অধীনে
শরদধা
শী
ওবায
জটিল
দরবল
সাকিব
বিবর
##কাতা
মোড
##বাগ
করেনি
টিম
অবরোধ
জেলায
সবরাষটর
সরকারী
জাক
শারীরিক
নিযেই
নৌকা
বাডছে
ডাকা
ঘিরে
##পল
দরদ
বেশী
পরবাসী
সবরণ
##বলে
কারড
শরর
##ation
বিশলে
যকতর
কিছদিন
একাদশ
শনানি
##বণ
##বাসীর
অধিক
মেযেদের
উততে
শরেণির
বিকাশ
অবা
সবাকষর
##গঞজে
মালযে
সরা
সেলিম
##পিএ
সিসটে
সমালোচনা
ফলাফল
শোনা
##ফট
##যনতর
সহি
ধাক
সোন
মিলনায
##ামো
##যাপন
সেকস
আলীর
##লোড
##থী
দবী
কিনে
##রেট
##ers
সেগলো
সযার
রোহিঙগাদের
মোতা
ভরম
বাছাই
উজজ
৩৬
বারবার
টরনাম
ওযানডে
হযরত
কযানসার
##মবা
##িদধ
গঠিত
শরীরে
সেল
##চন
৩৩
##োগর
নযায
নিযনতর
জেল
##দকের
সালাম
আশঙকা
করিকেটার
নও
##ংসা
বলেছে
তৈরির
তোমরা
গানের
মঞজ
রাশিযা
is
জামিন
##হিত
##কেশন
পকষের
জামাযাত
জযের
নিরদেশনা
শোক
##ঞা
ভট
সংবিধান
##টসমযান
অভিভাব
বযবহত
##জম
বরাদদ
##আন
নযা
হবি
টেকনা
হাউ
সংসকার
##ইযা
বাসা
রংপর
অঞচলের
গরপের
আযোজনে
পাকিসত
ষড
##েনটে
##টরিক
নিষিদধ
যেভাবে
##ab
##শেদ
নেযার
জানে
সীমানত
মিন
উপরে
##াকরমী
হায
কনযা
##ce
ধবংস
সনতরাসী
যাব
পরতযকষ
বিভাগীয
কাহ
for
ছবিটি
দটো
গাযে
খানের
পরতিপকষ
মরযা
ওরা
শীত
সদসযের
পরতিমনতরী
মোটরসাই
করলাম
অসং
আইনে
চীনের
##news
আকরমণ
কলকাতা
টেকস
চোখের
চালায
অতিথির
বযাটসমযান
মাদরাসা
ঐতিহয
মোল
##শাদ
বিনা
সডকে
৫০০
মোকা
মসজিদ
ওবাযদল
পণ
##াসি
যানবাহ
বরষ
পরাকতিক
খাতের
বরণনা
##হারা
তারেক
ঘাট
##ীরণ
গজ
ফেরত
পেল
বেধে
ইলেক
সরিযে
##বনধর
##ঙকার
গিযেছিল
পাহাড
সিলেটের
কষতিগরসত
গলা
সথগ
দাবী
##াপন
মাশ
বাব
আহম
৯০
উৎসাহ
##সারণ
সাধার
অসবী
হোটেল
ফাউনড
দোযা
অবহ
সফট
সমনবয
##সঙগ
##হতযা
##লাইট
মক
সংরকষণ
অতী
আনার
নেট
বযসে
মঠো
বিনো
##টিস
পানিতে
অযাস
আপিল
তথ
করেননি
নিখোজ
আলোচনায
ফখরল
##দলের
কেনদরের
২০১২
পরতিদবনদ
কাগজ
##যেত
উড
শিকষার
পট
বযবহারের
সংকট
ইমর
##জো
পরকৌশলী
##কেনদর
##un
##ৈর
টরেন
ওদের
গোটা
পারিবার
আওযামীলীগের
বরাহ
যথায
ভবনের
মকতিযদধের
সাহা
ইযাবা
পরিদরশন
একেবারে
ছিন
##শনে
হারড
##সফ
বঙগবনধর
##নগর
৫৫
পষঠ
চরিতর
দাখ
##িসহ
উঠতে
bangla
##বেশন
ইউনিভার
অনেকটা
পরতযাহার
##ak
চলতে
বযান
##িলার
##নং
অভিযকত
##দৌ
সযা
জের
কলেজে
আবদস
সিল
মাত
পেলে
পরসঙগ
মাদরাস
##শিযান
কমিউনি
মানিক
যনতর
##ামীর
অসম
পথক
ইউএন
খালি
##তাদের
মিযানমারের
##রাই
সমাবেশে
হামলায
ওরফে
মতি
ওপ
কারযালযের
##খযান
টাঙগ
##টেই
##লাইন
ফেন
##নীতিতে
##মায
রাসতার
ডিগরি
দলকে
##ঞচলিক
সনতানের
##মালা
শামী
দিনাজপর
হাসি
জরিমানা
বকে
বগডা
জিত
##িসের
##বরধ
চযালেঞজ
করমকরতাদের
ইঞজিনি
ধরণের
গেলেন
##কষিতে
আদি
আসাদ
##িকিউ
##বোর
ঘটনাসথলে
আঞচলিক
মরি
##টাও
শতাধিক
##ীব
বোমা
সপরিম
জযা
##শিকষ
##াজিত
করতপকষের
পারলে
##িযাম
অপেকষ
একসঙগে
##ঞচে
এসেছেন
মিলনাযতনে
সজন
##পেকষ
হতযাকা
লাগিযে
৩৪
কারখান
লাগবে
##us
পরফ
সদ
একক
নায
জাহাজ
সতরা
আউট
##াতমক
বিদেশে
৪২
শনয
বঝে
মেরে
ডেকে
পাচার
নামক
শভে
৩৮
পডাশ
সবাধীনতার
রাযের
##াধীন
কমিললা
ইত
শিখ
অপারে
##বেলা
##হিদ
আছি
অজ
ধাপ
রশিদ
আমদানি
মযমনসিংহ
পরোগর
হচছেন
নিষেধাজ
ভযাবহ
##চছিনন
আলোর
সমদধ
##ডেন
নগরীর
##াতে
অভাব
##দিযা
##শান
বিচারক
সাগর
সবীকতি
##েসর
অফিসে
পরতিবাদে
দমন
পারিবারিক
##ঘন
মিযার
করাই
মকতির
তাও
##িসটার
আজাদ
##পাধযায
শতর
পরনো
হযর
ডান
ভমিক
সংগীত
মাসটার
##ঞজন
আমন
নেতাকরমী
খাত
কারাদ
পরাচ
##ফাজ
এরকম
চলমান
সীমা
বাদী
সবেচছ
##জডে
শের
উপহার
গণতনতর
আইনশ
পরই
চৌধরীর
read
পরতিবনধ
আইএস
##চনায
কারখানা
করমকা
##মযে
##জনা
মৌলভী
এজনয
##জেন
ভিততি
সংখ
##মনা
বিবাহ
##ংলা
চিহনিত
পিছিযে
##os
পাতা
ফেসবকে
ডাউন
পরিশোধ
শরি
অলি
বিদায
সামপরতিক
##টল
ডিস
সিক
পরতিষঠিত
সস
শধমাতর
বিশবকাপের
##েশনে
এখান
সংঘ
বিদরো
তালক
খনদ
জাফর
##কাঠ
টরাই
১৯৬
কৌশল
ইতো
সটর
পরযবে
##ঞচিত
বৌ
রাজযের
শটিং
সাধারন
বিশবকাপে
ঐতিহাস
##ধিকার
সতরাং
##um
বাজারের
উর
শভেচছা
জনসং
##ভাবন
সাফলয
##ox
##উনট
বেন
মানববনধন
ডটকম
কানা
##মখী
হাদী
হাতের
টাইমস
আডাই
তাডা
##esh
সথগিত
##বাদে
দিচছেন
##মাতরা
তহ
বাচচা
রানা
হেরে
রফিকল
আফগান
তোলার
৩৭
আবি
রচনা
##পাশে
ফাইনালে
অবদান
টেবিল
##পরয
চযানেল
##এইচ
পডবে
উননযনে
অসংখয
##লগন
হাতি
কষদর
শান
মোসতফা
আতমীয
মোশার
দিযেছিল
শাসন
বনদর
মিটার
তালকদার
কেননা
##ষিত
পতরিকা
##শত
হালকা
##ালির
ইব
পরতিযোগিতা
মৎস
##যোগী
চিকিৎসার
দেখানো
##পিত
হবার
##টনে
বযাখযা
সপোর
বযাটিং
অঞচলে
জোটের
পাট
মাজ
##মাদ
কংগরেস
##তাকে
সরকারকে
উদদেশে
অধিদপতরের
ঠাকর
তাজ
সাডা
##দনের
ফেরার
যথাযথ
মাহম
##পরিচালক
রোড
সাইফল
মেধা
রাননা
একর
পডছে
##োগান
কষমতাস
##যব
##পিএস
##২৪
সৌনদর
সংসদের
##িসত
পলে
উপন
ফেডার
সারবিক
অভিযানে
##শকতি
##ফিজর
শিরোন
কোটা
ভলে
ঐতিহাসিক
##পাশের
নিরমিত
##বিষযক
##eng
ইনটারনযাশনাল
জহ
চোর
উপাদান
ফাযার
লযা
##সিসি
সটেডিযা
জডে
২০১১
বরাহমণ
##চিন
পারবতয
পরতিকরিযা
বযে
কলপ
সেম
৪৮
দফা
মেসি
##বিনি
আসাম
##ফরম
পরচল
আগামীকাল
##লড
বিবেচনা
দরঘটনায
গণতানতরিক
se
মাতরা
##শিলপী
অসবীকার
ইসয
থেকেও
আসি
##ov
সমিতি
ঘটনাটি
খনদকার
রোনাল
ইউরোপ
পরপর
##খযক
অরথনীতি
তিনজন
ছো
অসা
পরোপরি
অনসন
নিরযাত
##যেড
##রাফি
নাসির
কলাস
সংবাদদাতা
more
তামিম
উপাচারয
তালা
##পরযা
সমদর
আলহাজ
blo
এলে
জমির
দাযী
মেহেরপর
বাজেট
##বধানে
অভিনেতা
##আপ
ঝিন
জানাতে
উদা
পরতিবেশ
সাময
তযাগ
সটার
##ter
ওযেব
ভী
আলোচনার
টিকি
পাচছে
অনস
নিযনতরণে
উপসথাপন
##োনো
মিজানর
শরমিকদের
##বনদর
ওসমান
গাজীপর
বিখযাত
আইনশঙখলা
##ামন
বিবতিতে
ইনিং
০১
বরে
ছিলাম
##পস
বললাম
থাকি
##পথে
কযারিযার
ততত
##নিষঠ
রাতের
##গী
গাডির
টন
ইনি
কষণ
al
টান
অজঞ
ওযেবসাইট
ওযেসট
শরণ
তৈরী
অযাকা
২০১০
সবারথ
দেখেন
##বরের
৭৫
ফেলা
দিযেই
মাংস
অভযন
রহিম
সফটওযযার
কামনা
রেখেছে
ভযান
ওজন
তৎপর
সেনাবাহিনী
এদিন
ইমরান
##sb
ওযাল
অনলাইনে
অনা
##গদ
পাচটি
পারলাম
থাকছে
জানালেন
উদযাপন
বযার
নগরের
তফ
কালাম
পরযাযের
গাছের
খোক
জঙগ
পেস
অতযা
সকরিয
মনি
সহিংস
##টারে
ইতোমধযে
অসহ
মযাজ
চলচচি
কতটা
##গি
তাৎ
পাথর
##বাবধ
মাসদ
নারাযণগঞজ
বিরাট
হমাযন
কাপড
বেছে
##মাল
আহসান
ঝল
সটক
খাতন
দষট
সাইট
জাতিসংঘের
##িকের
পরতীক
করবো
##াকারী
দেখন
##ঙগার
সোহেল
বৈধ
বাবল
সশ
অঞচল
অরথমনতরী
উততরা
নেবে
পদতযা
রাজনীতির
রহল
গি
পরেমের
সেঞচ
পাব
উনি
সংক
##করমে
##াকরম
ইচছে
##টাতে
##পিযে
চেক
পশচিমব
শরম
##হতের
মাহবব
মৌসমে
সবজন
##বাসের
##কন
##ওনা
##াকের
মাধযম
ইট
গেলেও
রাষটরীয
##ষকার
ইজ
সফরে
##াইদ
গোষঠ
গোপাল
জনস
শৈ
ভযে
কযামেরা
ভালোবাসা
সাজা
ঘোষণার
নোযা
বিশবে
বিপরীতে
উইকেটে
##শির
##th
তরা
সামনের
con
##ালীর
পিস
ওযারডের
লমবা
পরবরতীতে
কলাবের
যাচাই
##ফাই
সালা
জনাব
বিজিবি
বদধির
মোসতা
সিবিএন
কলিক
হাকিম
সিরিজের
মৎসয
নিরমাণের
##দদীন
সাকষাৎকার
গরহণের
তান
বনদ
সহজেই
##পতরে
বাংলাদেশকে
##িদের
পলি
পাবলিক
##কষেতরে
##িকযাল
পরদ
ধরতে
পাযে
##িকান
এলো
##মপে
সিএন
##াতত
সোনা
কারনে
গম
##হিদল
মেড
##াজযের
##ভাস
মঞচ
অপরি
সংবাদমাধয
নিরাপততার
##টাম
তণমল
ককষে
##ডর
##azar
জমিতে
##গলির
পযসা
বিজযী
বহন
কষমতাসীন
##চাপ
উদযো
পারথ
তাছাডা
টেনে
অবশেষে
শীরষক
বাডতি
দাখিল
ছেলের
ধন
আলোক
সাপ
##যানস
যগ
pr
##ফোনে
##বিন
বনদক
১৯৫
বানিযে
দরজা
শিকষকদের
জাহান
জেলে
কের
পরিদরশক
মতোই
সচ
নিরযাতনের
হযেছিলেন
ধরষণের
##চছেদ
##কালের
নিরম
অবাক
সবাগত
##তঃ
##рз
সপারিশ
সবসময
তখনই
ভোটের
অনপ
অনতরভকত
তি
৬৫
বিদযালযে
ধরেই
গেম
you
ওপরে
করমকরতার
দরশক
##লন
সাহেব
মৌলভীবাজার
যেত
মীর
লাইস
আনিস
সতরীর
##ub
পারছেন
হচছিল
তাকিযে
##ওযারড
শামীম
সমারটফোন
মাটিতে
করমসচির
##ভমি
উদদ
##ণডে
সংসদে
##দারের
ডরাই
খায
৪৩
সভাপতিতব
মিডি
পালটা
##যাতরা
##িযায
ঈশবর
আসনন
##যী
নদীতে
##ষেতরে
ছাডাই
##যারী
পরতার
##বলের
টোযেনটি
উদবোধনী
de
সবলপ
ঐকযফর
ওভারে
শরেষঠ
##রাত
##লেকস
##কটর
শনতে
গগল
ছটি
##engal
করেও
গরামী
যবলীগের
##বাডিযা
সালমান
হরি
তততবাবধ
ইউনিযনে
কষমা
##যনাল
সটেশন
##বাসন
অফিসের
##sbazar
##lad
পতাকা
##oxsbazar
২০০৯
কারি
bengal
সনদ
পরতিশর
গরামীণ
##দত
কণঠ
ভাষণ
অসটরেলিযা
লিগ
##বাসে
গবেষণ
ভাইর
সমাজে
##েনডার
উদাহরণ
উজজবল
হারে
##ষটরে
করমরত
খাল
খাওযার
হাইকোরট
##কসি
রপতানি
যানজ
##যদধে
একসচে
পরযোজনে
কৌ
পজা
করিযা
আনদোলনে
সাকষ
পরকার
ফজল
ছটে
##চনার
##ess
##ততবেও
আউ
এরশাদ
নিষেধাজঞা
এলাকাবাসী
এতো
ফলের
##ডল
নযাশনাল
##পটি
চাদা
আলোচিত
ককসবাজারনিউজ
##oxsbazarnews
ইতিহাসে
পরথমবারের
সপতাহের
আসল
##সকে
কাটিযে
খবরে
জামাযাতের
##গামী
নিবনধ
কই
##ink
ফয
সংঘরষে
অনযদের
ডাউনলোড
ভবিষযতে
অনসারে
উললাহ
##ip
করমচারী
নেটওযার
নিচছে
##েট
দাডিযেছে
রাসলললাহ
##নেল
পরাপত
বিচছিনন
বিডি
আগেও
শানত
গডা
সেসব
সাতকষ
##ডাক
নেতবনদ
উননতি
বযথা
নিরপেকষ
রবীনদরনাথ
দরি
##ra
মতবিনি
রঙের
৩৯
##শব
ভরাময
সতযতা
শরত
##ধন
##বযের
##ladesh
রাজসব
জব
ভাইযের
বরগ
জাকির
##টেলে
##তিতব
অনসরণ
গবেষক
ধাককা
উললেখযোগয
কমেছে
##টেডের
আমেরিকার
ইউনিট
##উললাহ
সঞচাল
##দারি
৩০০
রহসয
আকা
১৯৪
কলকাতার
##তনা
আসছেন
ভবনে
রাখন
##ীম
উততো
##বিধ
জজ
অটোর
আলাপ
সততবেও
##জাহান
বিনোদন
##ঝো
সেনাবাহিনীর
যানবাহন
মহল
আগরহী
সাঈ
##কেটের
##তানা
দিত
করয
সিদধান
আলি
হরত
রিস
অসাধারণ
##পিং
শিব
বিগত
হোযা
সপোরটস
##নর
##পতির
2018
##বাধীন
ইংলযানড
পরবাহ
বেশিরভাগ
ইনিংস
শিরো
বেগ
পরফেসর
রাসেল
আনষঠানিক
ইউএনও
চিক
##tt
পরারথ
মোটরসাইকেল
ষডযনতর
##চারজ
মেহে
রিজ
তালিকাভকত
বহি
##েকটর
##পরযাযে
##বছরের
##ডিতে
গঠনের
বযকতিকে
সনাত
সিসটেম
ফযা
পরতিষঠাতা
পণযের
পডেছেন
##যানট
তৎকালীন
উতত
দেখেছি
##টরো
বযবধানে
bangladesh
শয
##াড
জাদ
##রপ
২০০৮
বৈশিষট
হামিদ
বাজ
০০
রাষটরের
##কারীর
৪১
লেখার
সবেচছাসে
হান
##িযাস
##তনতরের
মরদেহ
পদমা
মরযাদা
ইনসটিটিউট
বদর
জযেষঠ
টেলিভিশন
বিছ
অটোরিক
দাযে
দোকানে
মখযমনতরী
রিযাল
##ist
পালিত
কিনতে
আবহাওযা
##বযবসথা
নিবনধন
কারাদণড
ভইযা
রীতি
বিকাল
খনি
কবর
পলাস
চাওযা
##বাগত
##লামা
রাশিযার
মশফিক
পরিমি
উম
বিএস
##িসটর
পরবা
সিরি
##মাস
পরকাশের
কমানডার
পনরায
10
জিযাকে
সবামীর
গরি
একদল
পঞচম
যেটা
সটেডিযামে
বংশ
##শাখ
একষেতরে
##াজের
be
##োষঠ
পরিবেশন
৭১
খজ
দরনীতির
##পতয
##লির
আমলে
হবিগঞজ
নাজমল
পডন
##ভেন
উপভোগ
##যালি
ইফতার
বিড
সংগরহের
পরোনো
অংশে
বজায
৪৪
মেযাদ
তারই
পরশংসা
অভিযোগের
শরীফ
মতবিনিময
ডাযা
অসটরেলিযার
নিচের
বাসের
ছোটট
##ততব
মেশিন
লাগা
দলটির
মমতা
##ামম
আযের
##দাযের
৫২
দোষ
নিযেও
নেইমার
কমপকষে
আজকে
বগ
মিলিযন
##জিও
টেকনাফ
##বিনদ
বোলিং
শকত
সেমি
যাওযায
হিম
টিকিট
এমনি
পরযটন
##op
ওঠা
চিকিৎসাধীন
মাদরাসার
কলিন
ইলিশ
ধরমের
কোরট
মিনার
৪৭
##পনে
পরজা
##and
সমঝো
চাকমা
ঘণটার
পেন
তারিখে
পরকৌশল
মযানেজার
মানের
যাকে
অবসথার
লকষমী
ভিড
শোভা
পরাচীন
##করের
##টিন
bd
##ail
##মাতে
পরেসকলাবের
চটটগরামে
জনমদিন
একসময
রাঙ
নেতার
মানবিক
লাইসেনস
উলটো
পরারথীর
পারছে
টেসটে
মোললা
পরতযাশা
নেতাকরম
একের
মখের
কষোভ
##ww
সনধান
বাডাতে
##মীর
টের
##বাসীদের
##ীবন
অযাসোসিযে
বিবিসি
##দাযিক
কমিযে
সৌনদরয
বিশলেষণ
ইতিহাসের
##চারের
ফোনে
অভিনন
নগদ
##ment
ভালবাস
চরিতরে
рж
তোর
অগন
মতামত
রণ
সেমিনার
মেল
as
##থের
আবেদনের
মযাজিসট
শক
পরিচালনায
##বনদি
নাক
গণমাধযম
##হাদ
রেখেছেন
দেশকে
সলতান
বাঘ
ii
থে
সমপরদাযের
পরতিযোগিতায
##ওযাত
##করণের
##ঃপর
##ডন
কষমতার
পরচলিত
পাচছেন
দদক
চাপা
সেটাই
বরাজিল
মাহফ
কাছাকা
দিযেছি
জিমবাব
হদ
বযাক
ইতিবাচক
পরষের
মিষটি
কামরল
মও
##ংযের
কাচা
কাছাকাছি
উপসথিতি
আবাসিক
সতযিই
উদধতি
বরাবর
১৯৭১
সেঞচরি
##টিও
ইসলামিক
পির
দযা
##নটের
রিমান
মজম
শঙখলা
ডাল
সমভাবয
সবারথে
গোলা
পাখি
একাত
লট
দজনের
হেড
##কেলের
অসহায
করছিলেন
পরতিশরতি
করিস
##রফ
দরিদর
নিউই
##ইট
সবজি
ফরানস
বাসত
tit
নিয
##িতব
পাকিসতানি
##বারষিক
৪৬
ভাবনা
ইলেকটর
নেতত
##দীপ
শাক
দলটি
পিক
অংশগরহ
পাসপোরট
বকতারা
পরারথীদের
ককষ
সংসার
কারন
##od
সরয
বিচারের
পরযালো
অধিদপতর
রাজজ
পরিবরতনের
টরামপের
দপতর
রাজনীতিতে
তফসিল
##পরেস
##সনের
##জিৎ
বযবসাযীরা
খেযাল
হদয
ঝিনাইদ
সদয
শেযারবাজার
রোজ
টেমপ
হারা
সভার
##মবে
করমসং
সঙগী
##বিদধ
বিকালে
ওকে
আলহাজব
পরাঙগ
আরা
জনপর
##লীল
##২০
##রিযা
সহসভা
পোর
ছিনতাই
ভেসে
জলা
##বলী
বারসেল
করতেই
ঢক
##ind
বাচা
গিযেছিলেন
##ine
মালযেশিযা
পরেই
##24
##পরাধ
হোটেলে
##টকে
##গরা
##বলম
নাশ
##if
জনগোষঠ
##বলিউ
নিশচযই
অনসনধান
##ানায
ইবন
আধা
ইনড
##ঞচি
নিউইযর
দরযোগ
দীপ
আমেরিকা
জবদ
পরবল
মহাসডকের
##ভিল
মিলন
সারব
পরিবরতে
বলগ
সহসভাপতি
##জাল
পলিশকে
১১টার
পরযটক
www
পদধতিতে
সবই
গলায
দেহ
রাহ
সংলগন
রেজাউল
সমপরকের
সমপরকিত
হানি
দফায
##যানা
##গাদ
বযবসাযীদের
ভরমণ
পরতিষঠানে
মাইকরো
নোট
পরযকতির
ভাষার
আজিজ
কায
শপথ
##সিম
ইবনে
ধরেন
মনা
ফরে
মেজর
বিজঞপতিতে
কডি
নেততবাধীন
পরাযই
লিটন
জমে
আপততি
থাম
বীজ
উৎসবের
লিমিটেডের
পাযের
দতা
শট
পেরিযে
ভোরে
জিজঞেস
##িও
নাযক
পরতযকষদরশ
বাডা
##শিং
ইসরা
তোমাকে
##ামনতরী
##রাও
সমপকত
খাগডা
ফাইনাল
হসতানতর
দিলাম
দাযিতবে
রয
রোধ
সনত
রাঃ
বিধি
সরবস
মিশিযে
##বাংলা
ফিলিসত
##পাতর
পাঠানোর
অযাডভোকেট
জানার
করছিল
দাশ
নেবেন
সমভবত
জনতা
অবি
মদর
পাকা
৫৭
##কটি
পরিপরে
যদধে
##ভেট
বানদর
ডিবি
আসামী
বকস
উদদীন
##মনির
কমিউনিটি
কিছকষণ
বিনিমযে
##থান
হোসাইন
সিই
##লযানড
মারধর
##নাল
করলো
নিউজিল
##নিযার
মারাতমক
##টনের
খাবারের
##ণডল
ইসি
##লেস
##িকস
এসএম
জহির
পরিসথিতির
মেযেরা
যাবত
ককসবাজারের
তরাণ
##জীব
গৌর
মেলায
রাজযে
ধারায
আসথা
নিচ
বিবেচনায
ইচছ
উততম
দেখলাম
##েশা
পরেরণ
##ছার
৫১
ইনিংসে
ডিভাই
অভিষ
রেজিসটর
মাদার
##যারিং
সরমা
একপরযাযে
সংঘরষ
link
বঞচিত
সমযই
সংযকত
পরবের
নিহতের
বিপরয
বাডানো
উদযোকতা
##লিতে
ভাবতে
মহাপরিচালক
আসাদজজামান
##োনালড
##িরো
##ীহ
অবসর
ফসল
##যানের
সিংহ
##রিটি
টরানস
আশরা
বাডানোর
পদতযাগ
ভিটাম
##ate
১০টি
কামর
মাননান
চমৎকার
আঙ
দরদানত
বিনামল
এএফ
আমিও
মাশরাফি
##িসির
পথিবীতে
##েজ
নিরমাতা
বোলার
পেযেছি
পরদিন
##রকষ
পৌছা
আগনে
##ককে
মনোনযনপতর
কযামপে
##দণড
বাসে
##টারের
গোস
##পনথী
wh
##ভবনে
দঢ
পরেমিক
জবালানি
তারাই
সিনেমার
চিনি
বৈশাখ
বৌদধ
হযত
মৌলিক
দারি
ফেলতে
পরতিনিধ
আনসার
নযন
খেলায
##ভের
তাস
ঝড
##তরীণ
##ly
অপহরণ
##ারস
মেযেকে
সমারক
মসজিদে
হতাশ
৪৯
নই
সবাদ
ভারী
##কশন
ঠিকানা
সের
লবণ
হলেই
##iz
নেতরী
শাহজা
বিকরে
ওঠার
তললা
তারপরও
আকার
চিৎকার
##কী
বাডবে
টিউ
মোশাররফ
কপি
কেনা
ডবে
মসলমানদের
অনশীল
পঞচা
ঢাক
##বিশবাস
১১টায
##খালীর
টরাফিক
সিম
ঘনটা
কাজটি
মাটির
বইযের
জিযাউর
কোরিযার
হলদ
দেশীয
শিগ
পাডা
পডলে
শলক
বডি
সংরকষিত
মারকেট
ডোনালড
কলম
পৌরসভা
রশ
##ঙকর
চারজ
পরকাশযে
সেট
নেতাকরমীদের
আইনি
মযাজিসটরেট
হাওযা
রাষটরদত
##ort
দরবত
##যারা
পতরিকার
যগে
বিজঞাপন
ডাকাত
দকষতা
##তপর
কখনোই
মাছের
যোগযতা
##কষিপত
##কাজ
বিজ
সেবার
##যানডে
##কমি
##হাব
##পরিদরশক
শিরোপা
করিকেটে
বিনিময
রসল
সংবরধ
পরিসং
উনমকত
টরাইব
ইভ
যদধের
বষটির
ফটে
শিগগির
ভিটামিন
পরযবেকষণ
##টিফি
গবেষণায
কাজেই
হাদ
পললী
নাটয
আবর
##ণি
বযাগ
অনষ
ভাতা
ইনসটিটিউ
পরকতি
##বছরে
পরষদের
মিরপর
ঘটনাসথল
ভাগয
##বাজ
হকের
অনযের
পরদানের
সংশোধন
ভবিষযৎ
বিকরির
পরতিষঠার
গদ
গাডিতে
ছাতরদলের
ইরানের
পরিসথিতিতে
মসজিদের
সষটির
পরবদধ
চালান
ইউনাই
##যেম
নীর
ফরান
পরিসংখযান
##বারেই
##সমহ
টরাসট
##হাই
বিপলব
মজা
আশরাফ
আইডি
মখপাতর
বনযা
পরাকতন
##পষট
##ঞজা
##যেনস
##টিউ
বযকতিরা
মঞচে
জযী
সতরের
ইনদ
উপনযাস
হেফাজ
সেখানেই
পদারথ
ছাডিযে
৫৪
##লেকসে
ভেঙগে
রবেল
শাহজাহান
বিনামলযে
কাতার
বিকরয
পরাইভেট
পরবণ
৬৪
##av
##দলীয
un
সোস
উপযকত
##হতি
বাডতে
ডো
সবযং
উততেজনা
গেলাম
নামিযে
##াসত
যাচছি
কাশ
অনিযম
আতমহতযা
সবচছ
বলছি
রোগী
তদনতের
আজও
##িরদিষট
##গড
বউ
ফটবলার
##se
যাতা
সাভার
##সতত
সাহস
মনতরিস
##ঙগিত
পরমাণিত
দিনবযাপী
রমজান
##ণডা
##নাতদন
##বনদরে
পরিপরেকষিতে
##নদে
##াইজ
##যাযন
নরেনদর
তলা
বাণিজযিক
আরিফ
বৈশিষটয
##ভিড
মযনাতদন
বদল
##গতিক
##ome
বাংলায
বিলি
চক
অম
সোহরা
১০টায
##মমদ
##বহার
অনভব
বাগান
##ছাতরী
##লেম
মজিব
খাই
মাঠের
##গাজ
চারজন
আদা
অপারেশন
এযা
ফাইল
##বিহীন
পরিত
পরাজিত
তবও
জাতীযতা
##পকষের
##মহ
##ttp
সিঙগা
হেলা
বনধদের
লোকের
লিখতে
##কিল
সিরিজে
নাটোর
মজমদার
৫৬
fr
খামার
যাচছিল
ঝাম
বিষযের
ডেভেল
ধানের
অবসথানে
##তিযে
##লিপি
মিনিটের
আইপি
একেবারেই
সেকরে
আপাতত
পছনদের
আপন
বলিউড
##সিড
##গাছ
কিউ
##ফত
he
পারথকয
সমমেলনের
পরযাপত
বাইরের
en
উঠছে
ইহ
শিকষাপরতি
দারিদর
চাকরির
ঊরধব
গেলো
লঙ
বেডা
pro
##ফন
রযাবের
##ীকষা
কানে
পরতিবছর
পালা
বাসতবাযনের
বিদযমান
গরহণযোগয
##কাতে
কাসট
##দেহে
ঐকযবদধ
পরিযা
হিজ
কোড
পারক
সামযিক
পরবনধ
দেখবেন
কেনার
একদম
ইংলযানডের
বযাংকিং
রাজজাক
ইনচারজ
##দনা
অপেকষায
সংলা
অবকাঠ
নিল
অপরাধের
পররাষটরমনতরী
জনি
দাডায
ডাই
##ঞচলের
সমাধ
সবতনতর
বাতাস
ইলেকটরনিক
##গেট
রফিক
থাকন
পশচিমা
দরঘটনার
ঘনিষঠ
ভিতরে
থেমে
##ধী
আশপাশের
হারডকোর
সকর
http
আবেগ
দিবাগত
নিরবি
##টারস
তৌ
লঞচ
##ংকর
আমনতরণ
তীর
একাডেমি
এমনই
পরতিদবনদবিত
সথানীযরা
মোটা
ঘোর
সমমখ
গাইবান
মিউজ
মনোনীত
এসএসসি
জাস
সোযা
মসতি
bengali
মাথার
অগরগতি
কোরটের
পলাতক
টেমপলেট
কচ
বরণিত
##ডিত
ভীষণ
চেপে
সোশ
শাহর
বাশ
দতত
শরেণীর
##টিই
টাঙগাইল
##পাট
সমপরসারণ
কমপলেকসে
##ঘরে
পরিমিযার
##াতায
বনদযো
ইঙগিত
##ততম
যদধা
ভরা
ঝাল
##শাসন
৭২
দরবততরা
অরথবছরের
সহযোগিতায
কাদ
টায
অনভতি
অদভত
##ডাঙগা
##টিভি
রোগের
১০টার
##our
অপারেটর
সোশযাল
মমিন
মঞজর
দাডা
খানিক
সিএনজি
কাক
সাদ
শরেণি
শীরষে
##ইং
চেষ
শহিদল
বলেছি
০০০
মফ
মাননীয
ভিসা
দাও
##বরত
যকতরাষটরে
সেনট
##টেক
অনবাদ
##লোযার
বিজেপির
##দেশিক
সটোর
বযারিসটার
পষটি
অভাবে
##ভিউ
##পরিক
##টাইল
সেতর
যাবার
অরথবছরে
##ভির
উদবেগ
মাকে
৫৩
হেটে
##চিং
##যোজিত
খস
পাঠা
অভযনতরীণ
চালাতে
##যাতর
ইংলিশ
হাদীস
বেকার
কথাও
##বিজঞান
পারছি
সিপি
আফগানিস
রকষণ
পরদরশনী
চালানোর
সলতানা
ওযারলড
##এর
শবাস
কবে
সচিবাল
যৌনসঙগ
পরসঙগত
##সাথে
আরবের
##art
##তাব
ইঞজিনিযার
দণড
পযারামি
ইউসফ
wor
ধরার
পরজনমের
বিরাজ
লাইফ
আতঙক
দেশি
শফি
আখতার
মেন
মেলার
ফাউনডেশন
চলার
হারন
হলি
কযাল
এডি
একথা
করেছিলাম
##ik
##হীত
মজার
ভরে
ওমর
দেখাতে
##ডিযাম
অশলীল
ইউনিভারসিটি
এশিযার
সযাম
সিকিউ
শিকষারথীর
বাগের
রাব
তবক
আবারো
পযারামিটার
বিমানবনদর
এভাবেই
বললে
গভর
রকষার
তবকের
##বিযা
যদধাপরাধ
সভয
we
পৌনে
নমবরে
দবনদ
তোলে
আনষঠানিকভাবে
অরথে
কারখানার
tr
##াইযা
এবারও
tits
দরভোগ
পটযা
##বরণ
যাতরীদের
এশিযান
সদরের
পযেনটে
সাফ
##টেন
পরভাবশালী
কমপলেকস
মহমমদ
শাকিব
##ীপর
##াজনক
শাহজালাল
ঈদল
##ামপর
রোজা
চলাচ
কোহ
উততোলন
ধরন
গরাহক
পরযায
অটো
সটি
##দেব
ভরামযমাণ
উচচার
মাইল
##বারতা
হরতাল
উপকরণ
ধো
১২টার
শানতিপরণ
আনতরিক
অযাম
##মেদ
##কতার
সিভিল
ছযটি
or
কষটিযা
সমমিল
##পরধান
শিক
মেজ
##পারে
অযানডর
এবি
আফরিকার
সাউ
পতরিকায
অসমভব
ইমে
সংবাদের
ধা
করআন
মহেশ
##িতিতে
পরচণড
ঠান
সংখযক
বডো
বযাল
লকষণ
##ld
sp
দশম
##ফোনের
পরতিবেশী
আশরাফল
ভাঙচর
##ষার
হযেছি
তথযপরয
উনার
করিকেটের
সংকষিপত
সমমাননা
দের
পেট
শরতেই
কলো
লক
দিনটি
রোগীর
মিশর
জনক
চকরিযা
##ah
গরর
লযাপ
সরদার
##কসহ
সমরথকদের
সচক
ইউরোপীয
##ive
ঠিকা
ডলারের
বলব
পরিবেশে
মামলাটি
লিও
অনেকটাই
##পরাণ
যৌনসঙগম
বযতি
সাকষয
চেযেও
সংলাপ
ইউনিটের
রাঙামা
উইনড
টাইগার
অতঃপর
পডাশোনা
##ছিলো
নীতিমালা
সপরশ
ডট
চপ
কথাই
নৈতিক
##তোষ
ال
নিলে
##ith
সাকষাৎ
##যোগে
টেন
##ানার
জাপান
নারীরা
পালনের
চাপাইন
তারাও
বিমানবনদরে
##টেল
নিনদা
টক
আকবর
পরশাসনিক
##োতে
sy
##ঘাতে
লজ
সমাপত
নিচছেন
ফস
##টপ
ইউটিউ
এডিযে
খরি
লিগে
বৈষ
##ick
##সভায
বাহা
ওযেবসাইটে
পজিবাজারে
চাপাইনবাব
পারিনি
মরা
সভ
##রাহিম
##কাম
সমপততি
শনাকত
পরভা
যো
##শনার
##উদদীন
অষট
##শীদ
রহমানকে
সঙগীত
শরীলঙকা
এনামল
সৌর
জগন
##পকষে
##বাড
হিল
শফিকল
৪০০
##orn
রাখবেন
সযাটে
দরশন
শযে
আসর
বযাপারটা
আতা
ধানমন
দবীপ
অভিষেক
নৈ
বেড
বিদরোহী
শকতির
ডিজাইন
পিছনে
##সকের
পরাণী
খোকন
ফেসব
শাহাদ
ইবরাহিম
লাগছে
ঠা
ফজ
কাচ
##তাহ
নাচ
আশবাস
সনতানদের
##কলে
##কষণের
##ফির
বযসের
##সটে
সাঈদ
ind
সবরাষটরমনতরী
সরঞজ
অসথাযী
রাখবে
জনযও
##বতত
করতো
পরোট
উৎসবে
গণতনতরের
দেখলে
পরচারণা
জিডি
কাই
অরজনের
মানবতা
পাননি
আকারে
নিরদেশে
মিতর
দষটানত
ঘটিযে
##ud
করলেই
##নীয
সংখযাল
টিকে
##বৈ
##নীতিক
যোগাযোগের
সিদদিকী
তাপমাতরা
২০০৭
##মপনন
নিযকত
কমল
একসচেঞজ
অজঞাত
##তবরে
সিরাজল
তালে
ap
লাগানো
গলিতে
মেহেদী
উপকার
##যেদ
আযাত
ছড
পাপ
ছডে
##oun
নাযিকা
##িট
বিপদ
পরণাঙগ
ঝামেলা
ধারয
সামপরদাযিক
ঘাটতি
ঘষ
সিকিউরিটি
ar
মহাসডকে
বিদেশী
৫৮
মসতা
সংসদীয
ছাযা
মোডে
বিদযতের
তততবাবধাযক
বেঞচ
পযানেল
উঠবে
হাবিবর
পদক
##চনদর
ভিততিক
ওযাশিং
জাহিদ
সাফলযের
ভটটা
হেলাল
it
তহবিল
বলক
পাযনি
গরনথ
ঘোষিত
সশসতর
আমিনল
এসেছি
সমরথক
ad
##ঙকের
te
বাপ
শহীদল
ওযারডে
##েসট
লেখাপ
সঞজ
কপিযে
ফিচার
পরতিষঠানটি
বিহার
দাগ
করমশা
পরতিযোগিতার
নেতাকরমীরা
মহাকা
তন
চলন
##ধারী
সিডি
খাগডাছডি
হাইকোরটের
বযকত
##ামটি
চকতির
দেযনি
বসিযে
৯৯
##াহিত
##ফামার
শিকষকের
জগননাথ
##বলিত
৬২
চকরবরতী
বাংলাদেশী
##ity
পরতযে
ex
তাৎকষণ
##ost
গরহন
by
লতি
গোলের
চামডা
এখনই
le
উততরে
বাডার
সবপনের
অবন
চন
রেলওযে
##ংকার
টযেনটি
এসেছিলেন
##ভাগয
সহাযক
পাঠক
##ue
ঠিকই
সমগর
মানষদের
পাইল
হাযদার
আমেরিকান
ডাযাবে
রিজভী
এজেনট
##টিত
##হাজার
মঠোফোনে
ডিফ
##ht
যানজট
ইনডিযা
##gr
##ণার
খযা
ইউএস
পরতিনিযত
অরধেক
সনামগঞজ
ফেরদৌ
নীলফামার
চট
ফোনের
ডেপটি
পারস
শিশকে
চতবরে
##পাডার
সংখযালঘ
২টি
মগধ
##লোক
বযবসথাপ
নিযোজিত
অসতিতব
লেগেছে
##েদ
বলিউডের
ভদর
সোসাই
অননয
##ডস
কচি
রাগ
সতন
সেনটারে
পাবনা
দরশকদের
##ডেট
মোজ
রোনালদো
সচনা
মাযা
পডল
লোকজনের
কালি
নানান
##ওযাজ
রোগে
সংবরধনা
৮৫
অমান
করমে
বগডার
কলকাতায
মেলে
অতিকরম
##াকস
নারীকে
##িনাকে
বযবসার
নাগরিকদের
##রকম
দেশগলোর
সাজানো
কলপনা
সিআই
##করিযার
দেযাল
বিভর
পরশনে
উখ
মরগে
##ওর
বানা
জানাই
কস
##দধার
সাতকষীরা
এএস
##িতিশীল
আতি
২০০৬
নেতর
পীর
##োনার
বাসার
রেডিও
বযাংকে
যকতরাজয
সাইফ
অনধকার
##সিন
##পালের
##খো
কোমপানিটির
##oc
এখানকার
##যানে
পরিমাণে
বযবসথার
আহমেদের
রকষাকারী
তলনা
চেহারা
লিগের
পেযাজ
##থন
##সটার
নড
##শেম
পাঞজা
নিপী
গনধ
পাহাডের
সারচ
পেলেন
সাহাযযে
অযাকাউনট
দাত
তদনতে
নিম
হাওলা
অভিভাবক
সথল
ছাপ
ইউনাইটেড
কযলা
সাববির
একদিকে
ইঞচি
পরতিবনধী
চেতনা
##াকষ
সমসযায
জযো
ইরান
##হাতে
সোহা
লনডন
মহিউদদিন
##াসটরি
৯৫
আলমের
##বনার
19
##রকষা
ডাঃ
নিযোগের
##তিনি
পারফর
##বোরড
অরডার
চরচা
##পাতে
চযামপিযনস
তেজ
one
গরাহকদের
মমবাই
পাহাডি
রেড
সৎ
##সেবা
সাইকেল
নোটিশ
কডা
##চারী
পরপরই
উঠল
বজর
ফরানসের
রিটার
হস
ঘরণ
উপে
##িলমবে
লাগল
##ীনগর
দিবে
ঠানডা
ঋণের
পডিযে
হানিফ
১৫০
আদাযের
সহাযতায
পরকতির
blog
সমরথিত
দেবী
সেখানকার
##ies
রোডের
শাহীন
সারভিসের
##উনডার
জেগে
অপরদিকে
পরিচি
পাডি
কযেকদিন
অচ
ঢা
এজ
রবিউল
১০টা
##নান
শফিক
ph
##যাংশ
মেগা
অংশের
##িনির
পরেও
##মেন
পরারথনা
রোমান
নথি
##২১
অবিলমবে
খাদ
একজনের
৬৬
বসতর
##দরা
কবিতার
জনে
চাইতে
গাজীপরের
রপানতর
##ib
৬১
পকর
##কষাপ
বযবসথাপক
##জমিনে
রতন
কোরিযা
কংগরেসের
##ook
##মপদ
পাঠান
আকরষণীয
ঝাপ
রকমের
বৈঠকের
বালিকা
উদদিনের
অসথির
আইসি
আমল
অরথায
চাদপর
ঘটছে
সারটিফি
শিগগিরই
বকের
##োলজি
তিনিই
৫৯
টেকন
টেল
হদা
কোযার
সমনবযে
কমাতে
ঈদে
##টেও
গরত
হইতে
নেতি
অফার
কডিগরাম
বটে
শরীলঙকার
সংসকরণ
ভালোবাসার
উডিযে
জোডা
অকষ
সপিকার
রিকশা
বযকতিতব
উচচবিদযাল
জনপরিযতা
##শরে
##চাত
অভিযানের
দিলেও
##রিযার
ছাপা
##ish
জররী
মিঠ
করতব
গারড
নেটওযারক
৬৩
সীমানতে
পরজঞ
কতি
ফেলার
পরবণতা
দরের
দেখেছেন
শিকষিত
একতর
ভিক
পষ
পরেকষাপ
বরধ
নিযেছিলেন
ওব
ভাত
ফেলেছে
##শিপ
দেরি
হতযাকাণডের
ভালোভাবে
শনেছি
##মলের
মালিকানা
##গাহ
ইনডাসটরি
ফরিদপর
পরযালোচনা
নকশা
তম
##লিক
১ম
শিলপের
##ষণের
গরা
পরম
মনোযোগ
আবিষকার
কষতিকর
##যোগাযোগ
করমচারীদের
মলযে
কতজঞ
মহিত
কারিগরি
চেমবার
শাসক
সলোগান
সমমিলিত
উনমো
ইশ
##িপ
যোগদান
এসি
কিড
মরহ
তাহের
##ঝি
ভোটে
সেজনয
লকিযে
মছে
গলপের
##মতে
সনাতক
এসেছিল
২য
##সাললাম
##সথানে
একজনকে
টপ
সজনশীল
নেতিবাচক
বিচ
হাফিজ
##কাঠি
ফকির
##রাতে
ছক
সমপদের
মোসতাফিজর
পরযাত
##ফাযেল
মেধাবী
##থিত
রাশি
কাপর
ছেলেমে
##লাতে
##পাডায
অবহিত
সমঝোতা
পরিচছ
পরচেষটা
৬৮
হাজারের
কথার
একসপরেস
কোরআন
কোরস
##যারে
##িমা
##কতরা
কেউই
##বারষিকী
দেওযান
সথাপনা
##ie
বট
##েনসের
টযাব
অভিননদন
সিলেটে
তথযের
রওনা
পারশব
##ঈন
বকতবযের
রাহল
ইপিএস
চীনা
খেলোযাডদের
গরী
ঊরধবতন
ছেলেকে
আইযব
##ain
অপসারণ
রমে
অলিমপ
ধযে
গযাল
##নেস
পরিবারকে
রনি
মেসে
অনপসথ
তরসকের
মোদি
ধোন
পরিচালনার
শরণারথী
##বেলায
চেতন
ওযাসাললাম
গলিবিদধ
##ষটা
করমসংসথান
৬৭
অং
##বাজি
##হাত
##শায
টরি
সমাপ
##বানী
ফেসবকের
পরদা
পদের
নাগাদ
যাতর
অসবা
বিটি
এখানেই
তললাশি
পেটর
গলশান
##পলে
দশকে
##োত
আমদান
সকোর
বানানো
নিলেন
নরসিং
##াযনিক
##কলা
উপপরিদরশক
আরজেনটিনা
সবেচছাসেবক
নাও
কদ
বহততর
হলের
বলবেন
রাশেদ
থরি
##সথল
২০০১
কমিললার
চলচচিতরের
নাসিম
বিরত
জলবায
সহয
মোকাবি
পরীকষারথী
আসেনি
তই
মেডিকযাল
সাতটি
বিবরণ
##যরত
##বদন
শামসল
লাভের
খনের
গণমাধযমে
তৎপরতা
নাটকের
কনফার
জনগণকে
হাজী
অরথের
শোন
ডায
##িকষে
##াইনের
আমাদেরকে
কালের
চাপে
##যাযের
##বিড
12
##কষট
ঝকিপরণ
##াকরমে
সামগরী
কাহিনী
দদকের
মলযাযন
টাইম
বাসতবাযনে
##যালী
থিযে
##হতযার
ইফ
১৯৩
##িকে
অভযাস
৩টি
##তলী
যবকের
হতেই
পরিচিতি
বকততা
দশকের
ফাউনডেশনের
##ওযের
এমনটা
নিরবাচনকে
নোবেল
রকষায
টিক
রাসাযনিক
বোনের
বহাল
উপলকষ
ফেনী
ওযাই
ডির
যাবতীয
##ant
পরিবারে
উপযোগী
মাসিক
##েনিং
ফলাইট
রশীদ
with
২০১৯
চলের
শাডি
ঐকযফরনটের
##শিত
কষেতর
কলি
ভারস
আফরিকা
##তরিম
১টি
বনধর
ফিরতে
বঝিযে
দিযা
গযাসের
থাইল
##ামমেল
জবান
##ীবী
আযে
করমকান
তথযপরযকতি
৮৮
কিংবদন
##যারির
দৌল
##িরভত
ষষঠ
ফটো
পারফরমযান
জাপানের
তির
ফযাশন
সিসি
আইস
##সচিব
দাদা
##পরিষ
##ard
বরাত
কযামপাসে
অযানটি
পরজে
ইউরোপের
নারাযণগঞজের
ছাতরদের
গণিত
##ীকার
শাহরখ
মালাম
এইসব
সঙগেই
অসবি
##ছির
##ফিন
ফলাই
পাওযায
##যেজ
##ণঠ
সংসকতির
অপরাধে
হইযা
বসা
##শিযাল
আযোজনের
মাইকর
বরযানড
মেমবার
নরম
সবাকষরিত
করানো
হযরানি
সীমাবদধ
টয
##ইস
দশক
মযানেজ
পতন
##খাসত
ঐতিহযবাহী
ভিতর
কবীর
যনতরণ
পরভতি
দরতব
বিলিযন
টযেনটিফোর
লডাইযে
অযালব
বলগার
চমক
সিদধানতের
ডেভেলপ
জিজঞাসাবাদ
পরিবহনের
কাছেই
হিন
শিলপক
রিট
##লয
মেইল
০৫
বাঙালির
নোযাখালী
শও
বসন
অধিবেশ
সনিরদিষট
কাটার
উচছ
##দানে
ওখানে
চলাকালে
গবেষণার
বলবে
ছডা
বৈদেশিক
সফরের
##ill
##পাড
##শিকষা
সারাদেশে
কষয
পরোগরাম
##দিবস
##াযিত
সরেজমিনে
আকাশে
করনেল
11
##তামলক
নাজিম
যকতরাজযের
শবদের
##বদলের
মহিলাদের
বললো
অবৈধভাবে
জামাযাতে
##বরতন
কাগজপতর
##ভাষা
জৈ
মাহফিল
##গলের
##াইলের
অংশী
##end
হযানড
জাগ
##বসথায
##uck
##পালে
বাচাতে
একানত
ঠে
পাচজন
মধযেও
##উড
বনধের
কলযা
চলছিল
সচেতনতা
##ice
##ডিসি
জালাল
তরটি
আসরে
পরাতন
অবাধ
ডিভাইস
নেতরকো
আমান
##সবর
##োদ
ধাপে
সরবনি
টিপ
করমকাণড
মানেই
লিভার
ভমিকমপ
লিংক
বিপরীত
বিতরকিত
ঝিনাইদহ
আতমসম
বিসিএস
##দরি
টরনামেনট
পরবী
বনদযোপাধযায
অনির
ইঞজিন
সংবিধানের
আইনগত
সমভাবন
ফিলম
বাডী
সোজা
সবিধার
আশে
শেষের
##বাহিনী
করতবযরত
৫টি
##শো
রাযে
জসিম
##হো
তাহার
হোসেনকে
বাসতবতা
##লাদ
খাস
গানটি
চেন
##নাহ
বৈদয
অসবাভাবিক
নিতয
দরগা
লৎ
বালয
ফজলল
পরকরিযায
কোহলি
##ঙগী
##যকর
কেডে
সতযিকার
৭৩
##দেক
মানস
বরষের
কাঠামো
৪টি
পলাশ
সতরীকে
##বহল
##াতক
##উদ
##বরষ
সংসকারের
পাড
##িকল
##ঘয
আববাস
দইটি
ইসলামকে
অবকাঠামো
আনে
##আরসি
ভাঙা
সযাটেলাইট
বাডে
আরটি
যেই
কষকদের
পরিশরম
আরিফল
বিজনে
শিবিরের
রেসতে
##শিলপ
জালিযা
বেডাতে
পিরোজ
পরতিরকষা
বরাহমণবাডিযা
সালাহ
পরারথীরা
নওগা
##one
##ডিযার
দেননি
হজরত
রাতেই
অষটম
হরাস
চিকিৎসকের
##তরি
বরাজিলের
##োনন
অরথনীতির
##কলযাণ
সহিংসতা
আদিবাসী
##সাগর
গলশ
বকষ
কযাডার
ফিরোজ
কযাপ
রোগীদের
##ামরিক
রানী
নবম
অতযাচার
পরাপ
সাউথ
ফেরি
পরবদধি
করাতে
বিষযগলো
##ere
নিজেও
কারখানায
সটেট
আননদের
বেলায
আবে
শরীয
##পাক
গোলাপ
জঙগিবাদ
##জীবন
আনিসল
##ংকা
রাজধানীতে
গণয
ঢো
##হাটের
পরিমান
টরেনের
টরেড
মালামাল
ফানড
##িকর
মনোভাব
জলপ
##োলডার
দনিযা
বঝি
পিত
##বধি
সাকষী
হানা
##ালার
হাউস
শওকত
তোলেন
যতন
পরিচছনন
দেখছেন
দেলোযার
লাঠি
এডভোকেট
হাবিব
৬৯
উপকল
মিড
##মারী
পশচিমবঙগের
##দরবয
##ঞচলে
শিকষামনতরী
কালে
কথিত
am
০২
##রাম
ডেই
বৈষময
রকতের
হোম
ঢে
##বারক
অজানা
পরণযন
বোতল
তলন
জারমানির
জোন
পেসার
দালাল
জযেল
শিলপকলা
শাসতির
কারযকরী
জামান
বদধিজ
##তাডি
সমাপনী
কমলা
##ষকত
মোটামটি
আরোপ
##এমপি
দেওযায
##োততর
cont
##মিং
জামাত
জবর
##qu
সারটিফিকেট
আযা
ইঞজিনিযারিং
জোরে
দখলে
ঝর
ফোরাম
##কেন
দিললি
ইতালি
টাওযার
জোরদার
##ভেজ
পেলাম
তলেছেন
##লিযাম
খেলাধ
##পদে
##চরয
সবাগতিক
থাকত
##নিবেশ
মোতাযেন
বিআর
বিসময
গণপর
সরবনিমন
একইভাবে
ভরতির
দামে
##খানি
তরণদের
যাতাযাত
##aj
ফাকা
মধযপরা
শেরপর
ডাটা
পরন
সথাপনের
পরাথমিকভাবে
বিরোধিতা
সোনালী
দিবসের
me
সকলেই
দেখায
করোযে
বাত
কারযকরমের
কিছর
ইতিমধযেই
আরাফ
অযানডরযেড
##মানিক
নামবার
কষেতরেই
ফটবলের
অধযায
গডার
পরকাশনা
পরদরশ
নেপাল
##সঙগে
পিতার
##বাহিনীর
বলন
সাকষাৎকারে
##ানীর
দেই
জিল
##job
শানতির
##সথলে
গবেষ
আহমমেদ
জেরে
বডযা
যাদ
উপেকষা
##ide
দোকানের
বাবর
তাডাতাডি
কিস
মেম
মালেক
হাড
সচি
অবসান
বিনিযোগকারীদের
ডরে
৭৮
সংঘরষের
##বাসথয
##মহা
##বাণ
##উডা
##চযত
সংবাদমাধযম
পরদায
অনরধব
এএফপি
মহরত
যথাকরমে
মেসির
কষবধ
জনপরতিনি
নবাব
নিরমল
চেযেছেন
পেশাদার
রাজশাহীর
পিসি
আসামিদের
জাকার
তলায
২৫০
হোযাইট
চাচা
বযানার
##জনিত
শবশর
একশে
গরভ
##জিযা
সকলকে
নিরমম
##হয
অনশীলন
চলেছেন
আরাম
মোজামমেল
বাঙগ
কমারস
##গাল
##ছো
##টম
##পাস
##ধারা
ককর
পরদেশের
অমর
শোভাযাতরা
ওপেনার
##লিযাস
রাজাকার
সেকরেটারি
দলিল
##ong
আধি
অধীন
ne
ছাতরীদের
বাসতবে
##পাতি
দৌডে
পাকিসতানে
পরজাতির
শযামল
##নেতরী
সোহরাওযার
সনে
শিশরা
ডিসি
বাতিলের
ফাকে
এনজিও
হালিম
হারিযেছে
##পরদ
শরেণী
##পয
##মেলা
যগের
শিরোনামে
টরলার
ঠাকরগাও
আহতদের
নীরব
মরতি
চালাচছে
জোযার
পেশায
##িকো
নবীগঞজ
ছটির
বযানড
যাতরীবাহী
দেখছি
উপসথিতিতে
চলচচিতরে
আশায
##োনেশ
ছাতরছাতরী
জাতীযতাবাদী
জিপিএ
##জোর
ইবাদ
মনস
আটটি
রণবীর
সফি
জোগ
##নেতা
সমবায
শাখ
are
##সথানের
##ধরনের
পিএস
সেকটর
মিউজিক
দরবয
টকরো
পরতিপকষের
নিলাম
মিডিযায
গোষঠী
উচছেদ
পিটিযে
পালটে
সপিনার
সমাধানের
জগতে
বিশেষজঞরা
পারত
৭৭
ধারার
রাজার
চাইছে
বিজনেস
##age
টরাইবযনাল
হট
ইউনিভারসি
খালেদ
বরিজ
সলি
ভৌ
##বিলে
আমীর
##যেস
পেশার
এতদিন
কতরিম
ছট
##িযান
শীতের
মতযতে
বযাটারি
##বততি
জযপর
ভেন
কমবে
মযলা
মোহন
নতয
বালি
ইভি
মেহ
গেট
##সাদ
জরিপ
##ামমাদ
off
বিশববযা
৭৬
পরসতাবিত
গপত
সভাপতির
ঘটনাসথলেই
লালমনির
সমমানিত
১২টা
হাওলাদার
চালের
পাউ
আগষট
সীমিত
শল
ভোটারদের
মগ
পরবীণ
উপরের
ইনসট
পাইলট
মরত
ঈমান
রই
ফেরা
সঞচালনায
##ঙকে
ইসরাযে
যতটা
রিজার
উভ
কযাটা
একাডেমির
যতই
চত
বেসামরিক
কির
মযনাতদনতের
৭৪
নিষঠ
সটরাই
আইসিটি
ধারাবাহিকতায
coxsbazarnews
লোকদের
অটোরিকশা
##পাতের
ছেলেদের
২০০৪
##coxsbazarnews
পরতিষঠানটির
সিবিএনcoxsbazarnews
##গাপ
মদরা
##বিধি
ইসম
সপযান
সেটাও
চারা
মহিলার
ফেলেন
চরির
##িললাহ
জারমানি
তোফাযেল
সাইবার
রাজনীতিবিদ
হাদিস
২০০০
বলছিলেন
শতভাগ
গরেনে
পরানতি
ভিকষ
কথাটা
জাননা
##সীমা
তিনিও
সেরে
ইনদোনেশ
নকল
টেলিযোগাযোগ
কৈ
##তাল
সরবাধ
জামে
শামস
পরশাসকের
পরতিদবনদবী
মালা
পরজনম
একসাথে
দবাই
##শরী
বিসিবি
##কিট
সথানানতর
##ha
পিন
সৈকত
আরজেনটিনার
ফিলিপ
শাহরিযার
মজরি
##up
রাযহান
##তেমা
##рж╛
##bs
টরফি
##দাস
মাদকের
মনিরল
দাডাতে
উইনডোজ
নিযেছি
আদর
৯৬
জারসি
লনডনে
মালটি
পনঃ
হতাশা
নজির
সমপরদায
একেক
অসতরোপ
ফরাসি
##যানো
##কাশন
do
খানিকটা
বাকয
কাবয
লযাপটপ
পরেকষিতে
##ast
মযমনসিংহের
অযাপলি
করমসচিতে
মযাক
##গলিতে
মাইকরোস
পরকলপে
মনতরণালযে
মারকে
##ঞছ
জেস
খার
কোরবান
চালিযেছে
qu
মনদ
নযনতম
অযাসোসিযেশন
সাইন
রাখাইন
মেযেটি
ভিজি
বযব
গহীত
১২টি
উগর
##পনন
##ওযাল
বিমানের
বাবাকে
##শবিক
##বিজঞ
ওঠেন
লঙঘন
সয
##ঢয
##সাম
দেশটিতে
শনানির
##গোষঠ
সমনবিত
হাটতে
নস
##েও
মিউ
সাজিযে
বিগ
##লাভ
কিশোরগঞজ
পরাঙগণে
এলেন
পরিকলপিত
মতযদণড
বাসস
এখ
অভিযোগপতর
বোল
বইটি
ধাওযা
অনিশ
সরকষা
কযামপের
তরণী
ভালোই
২০০৫
home
বারের
##াজযে
সিরাজগঞজ
১১টা
এসোসিযে
মানববনধ
##টিযার
পাতায
খসডা
চেযেছিলেন
উততীরণ
আজকাল
শিখে
নিকষে
সেকষেতরে
সোহাগ
কোচিং
বেই
##ঙগিক
অযাট
অনপর
৬০০
##সতার
সীমানা
##ans
##ভাবিকভাবে
লালন
বসানো
##ীকরণ
কতটক
সনি
৮১
বিদযা
এটাও
আডডা
ফেরদৌস
নগন
দেবার
সষট
ভোলা
আলাম
##াজে
##ডেনট
জনিযর
##াযান
##মযের
##সাধারণ
উপমহা
##িদল
বিধবসত
উদযাপ
##বলমবন
ওপেন
মনাফা
পাঠাতে
at
তলেছে
কিছতেই
কাশেম
##বানধব
মলযের
এহ
##ass
##সেন
থাকতেন
গরেপতারের
বযাটালি
সেতমনতরী
বহততম
শাল
মরিচ
করতাম
খতিযে
বনধতব
শেযারের
রাউনড
চলাচলের
ফেই
##০টি
##ver
##ঙা
আডা
##ac
দিচছি
সিরিযার
পরাধান
রোহিঙগ
পরথমেই
গানে
অধিকারী
##wjob
এইচএসসি
##বনদী
দলগলোর
##াবে
##ight
##পান
ফারম
ভান
কলার
টেসটের
##ধযকষ
কমিটিতে
০৮
একমত
সপতম
কীর
ফরহাদ
কনট
আসছিল
ঘরোযা
গজব
##own
রপি
কষেতরেও
হেকটর
আসিফ
ফাহ
##গতির
ভাষয
##জঞা
##াসতর
চিঠিতে
মভি
মাঝারি
কোযারটার
##যাসে
উননীত
18
০৩
ডেভেলপমেনট
বযবহারকারী
বরজয
লাইনে
##ওযালা
লাগাতে
##বনির
ছযে
মিশন
##োজা
জানানোর
##পিড
জবানবনদি
গরেনেড
##কসের
##ভিযে
##দবী
লতিফ
আগাম
সোহরাওযারদী
সমর
সযামসা
বেঙগল
##all
##হাল
##দসহ
এমনটাই
উডে
মতদেহ
ঐক
পযাকে
আঃ
##ষটান
##গারে
৮৪
আজম
##ভবন
মালযেশিযার
বযবসাযিক
ঝা
মাইন
বযসক
ঘমিযে
এটাকে
ডিরেকটর
বরখাসত
ইসলামি
হাফে
পেযেছিলেন
ঘরণি
গাজা
বনধরা
বিচারিক
অঙগীকার
বযতিকরম
##িসং
দজনকে
##তীত
##নাই
গহবধ
সিরিযা
উঠেছিল
ভাসকর
সরল
ঢেলে
মণ
উদভাবন
মোদী
দলাল
বিশববযাপী
হসতকষেপ
ঘটতে
##কামী
গোসল
বণ
ভযাট
##টরনি
##গোল
##শালের
সনদরী
##এব
##জানের
কষতির
মঈন
রও
##ect
হননি
৯১
##ষটার
নাহিদ
##এমই
মকতিযোদধাদের
বিসতত
##মিট
পেটে
##মলয
লিপত
##াকালে
রেসটর
গেযে
##কমিশনার
টেকসই
বিরল
তিত
মেটর
##চালিত
অবলমবন
জনমগরহণ
করেতা
লেনদেনের
মেঘনা
সনধযার
করিতে
##নাট
##ডিট
##ীকষিত
অনেকগলো
জিততে
তেলের
বিবতি
মযাগাজ
উদধারের
মৌসম
সমমখীন
বারসেলোনা
অপরাজিত
তিস
জযনাল
##পরকাশ
##পাঠ
ডেম
কাজল
গতিতে
অংশীদার
##ংযে
##করমীদের
আসলেই
##সময
জখ
যবককে
সঠিকভাবে
ভঙগ
ভরসা
পাথ
রাজীব
সপেশ
ফিন
বেলাল
চেযারপারসনের
কফি
সবভাব
সিনেমায
ঘরতে
ধনী
করিনি
##পততির
সও
মনডল
মনতরি
বযবধান
মসা
৮৩
বনদি
##খিত
পরচারিত
লকষযমাতরা
লং
রহমত
বাণী
পরাধানয
পরাজয
বিষযটা
খলনার
অতএব
বিসফোরণ
##পটেন
মাহমদল
দিনই
সথির
বিভকত
বাজেটে
পারভেজ
সাহিতযের
পরিদরশ
পাডার
শরমিকের
ভটটাচারয
সনতানকে
##মভ
##উটি
##জঞানিক
করমকরতাকে
হিউ
ভমিকায
##কেত
রিমানড
আজিজল
রীতিমতো
এযারলাইন
শরো
বেনাপ
জিমবাবযে
জলে
##ial
পরতিদবনদবিতা
৮৬
##ঘরের
##চছিলেন
##োপলি
ইসযতে
##িযেল
ডেন
টইট
ডেভিড
০৬
ডিপ
এলি
পেপার
রেশ
হযেই
শরমা
কমানোর
অবনতি
ভাবা
##গরন
লেক
উতথা
কমন
##ষঠানিক
টরাস
বহৎ
বরিট
##উস
গারমেনট
কযেকবার
##ust
হেফাজতে
##ঙগন
##ণায
আসবেন
মযাচটি
##ভাজন
মতিন
নশ
গণসং
অধিবেশনে
পিপি
বততি
পরতিফল
নিঃশ
ডরাইভার
হেসে
০৯
লোকে
দিই
মলযবান
##নাশ
উচচারণ
কমিউন
ফেডারেশনের
##নাজ
সটেশনে
জানিযেছিলেন
##মরতি
কাউনসিলের
রিপন
শযামা
উপার
মনসর
##খের
সনতরাসীদের
##যমের
এডাতে
ডিভি
হিসেবেই
গণমাধযমের
পলিশে
উপলবধি
লোকেরা
##het
শতাংশের
cl
নযাপ
##দনে
এনবি
##হাম
জীবিত
সমপরচার
বযবহারে
শাও
কটনৈতিক
বলযাক
শিশটির
পরসার
জনসংখযা
পরানতে
সবাভাবিকভাবে
ডিএন
##পরিষদ
ভারসাময
বিনিযোগের
মকতিযদধে
মহাসডক
##দরোগ
সরি
আশর
##াকিবের
বাহার
গভরনর
##চিৎ
##বাজারের
মনসি
যমনা
ফোরামের
অনপরবেশ
##কষী
সায
পরিপরণ
নামতে
দেহের
তরিপরা
##নিরবা
অসবিধা
দিবেন
ঠিকাদার
খোর
দৌড
মইন
##যেদের
সটরি
কিশোরী
সারাদিন
from
##sh
বানদরবান
সরবতর
উপলকষযে
সবগলো
সৈনিক
পরতিরোধে
একটাই
অভিনযের
বরাহমণবাডি
বনদী
সহযোগিতার
মেযাদে
সাইটে
০৭
সপেস
অতীত
আধিপতয
কতব
উপাযে
তণমলের
দমপতি
ঠেলে
জডো
##লামে
বসতে
গাইবানধা
৬টি
চিত
লিঙগের
নীচে
##জাতন
ফারসট
খযাতি
হদরোগ
চিং
মিশে
হাসিনাকে
##যালা
পাওনা
মৌখ
৮২
টরাকের
blowjob
মতিউর
দাযিতবশীল
শারমিন
200
সনতষট
সাহিতযিক
বাদে
ইসট
রিভিউ
সটযাট
ab
নাছির
লস
ঢেকে
ইনডিজ
ইলিযাস
দাফন
##বিযান
জাতের
সদসযকে
##বানের
কণঠে
সেভাবে
অনমান
দাযরা
##শিম
পটযাখালী
##ফাত
পরোযানা
রাঙামাটি
রাউজ
আইসিসি
মযানেজমেনট
০৪
করমসচী
নিউইযরক
##যাতরী
দজনে
মকল
লেখাপডা
সমালোচনার
জবল
৭৯
##ঘাতী
পরযোজয
গরিব
##নিযায
মাঝখানে
কব
করমা
যৌথভাবে
আগমন
##োজাহ
কমিউনিসট
##বরষের
আনমানিক
সথাপিত
রাষটরপতির
দইজন
সফলতা
ডাকাতি
মামা
কথাগলো
খজতে
বরডার
কানতি
##ওযেল
পরথা
ঠেকাতে
সারি
##বানি
##কাটা
আননদে
পারট
##েশবর
##মাণবিক
৮০০
গানধী
জট
একাধিকবার
আইটি
বৈচিতর
খযাত
হারাম
৯৮
অবিশবাস
নেপালের
অমিত
সপরি
সমাধানে
রাখি
দপরের
##load
সংকটের
সৈনয
পডেছিল
টরেনে
মসতিষ
ঔষধ
উৎপাদনের
পোসটার
ফলযা
বিজঞানী
চকরের
কাজটা
হব
পষঠা
পরীতি
বারন
জনগোষঠীর
হাউজ
##শরমিক
টরনামেনটে
পরেমে
##াকী
লোহা
ভযাল
ঠেক
ডেসকঃ
দেশটি
অসটরেলি
নামা
##ভিন
জটিলতা
সাযেনস
কযামপাস
মেটরোপলি
পারবো
তলনামলক
কোনটি
উৎসাহিত
সনতরাসীরা
লাইভ
বরজন
শফিউল
মনতব
আধার
পারমাণবিক
খেলেছেন
ফেডারেশন
##ছডা
পারা
##লেখা
একাংশ
রচিত
ac
আবেদীন
রট
হতযাকাণড
##ber
পারতেন
ফলাফ
পশর
দাবির
রাঙগ
syl
নিত
##টিকযাল
সঞচয
পরতযকষদরশী
গলোবাল
অগরা
##নিতে
##িযেছেন
বিজঞানীরা
##যাযিত
হাইওযে
##ংরা
আইফোন
বহল
##লিমা
দিতেন
হারট
মাদকদরবয
বনযার
বসতি
পরিবেশের
শিরোনাম
বিআই
নমনা
##োড
শরা
##বলমব
মালিকদের
দপতরের
১৯৯৬
ইসমাইল
জিবি
ইনসযর
ভকতভোগ
হাসানের
টরনামেনটের
করক
আশচরয
অযাটরনি
সাপতাহ
১২০
চিনতার
##াহান
us
পাচছি
লাগলো
রেফার
##যনতরের
##india
শাহিন
১৯১
জাজ
##ঞজার
কনটর
##বিডি
বৈজঞানিক
শরেণিতে
রিপা
নজরে
বসার
বাবদ
পরকরিযার
দিনাজপরের
সরঞজাম
গরিন
ভাইরাস
##মেযা
যবদলের
মিডিযার
বকর
ছাডার
লকষমীপর
মানবতাবিরোধী
রেখেই
ছর
নাটকে
অযাকশন
সেকেনড
পথের
সিনডি
সিকদার
ঘরণিঝ
##line
##ge
not
বারান
এদেশের
জাপানি
##আউট
সকষমতা
অঙক
পরভাবিত
অধিদফ
বেগমের
উৎপাদিত
চাকরিতে
##থযের
আরবি
ডাকে
পরতযাখযান
অগরাধিকার
ইদর
##বই
ফান
##চেস
ফেলন
৯২
অনযানযের
##ach
লড
##ডবলিউ
সংঘটিত
আবততি
কাপের
কোনোভাবেই
কাধে
তারপরে
চোট
##নাকে
জামালপর
মাহববর
tim
রফত
এনেছে
sylhet
কাশমীর
পেলেও
গণহতযা
উনমোচন
পেরেছে
জহিরল
রফতানি
লেখেন
পরচেষ
বনদকযদধে
লিঙগ
পরবেশের
জখম
oneindia
আসলাম
কও
নাঈ
দেখছে
##পরবে
মণডল
শবদটি
নামায
নিউজিলযানড
আকস
বাগেরহাট
ধারে
মালি
সাপতাহিক
দগধ
দশচিন
নৌকার
ওযাশিংটন
ধমপ
বযাকতি
আওযাজ
গালি
কক
সাহেবের
##পরারথী
ধীর
মরে
ছাতরীর
##সথানীয
অবহেলা
রোডে
করণীয
কষকের
ফাসির
লজজা
মারকেটিং
ইযার
##াজি
man
উদভি
৮৭
হারের
বযরো
##ous
মাধব
বাশার
বিষণ
গোলরকষ
কলাবে
ভাবেই
টারগেট
মেতে
ছাডতে
অভিনীত
iii
লিঙক
খবরের
বিপা
আমরাও
আসামির
মী
জনমের
ভাং
সামগরিক
অগনি
টহল
ঢকতে
বৈদযতিক
পাশেই
মানববনধনে
পাইপ
পদোনন
##দশ
comment
সচিবালযে
ইভিএম
মঠোফোন
উডোজাহ
পাঠায
বরিশালের
টযাবলেট
বদলি
ঘেরা
সেনটারের
pre
জগতের
ছবিটির
##াযনের
এজাহ
মোবাইলে
রজ
শরীম
আছ
কিংবদনতি
মোটেও
ছোযা
দৈর
তাহা
সানি
##ৈরয
যনতরপাতি
জানাচছি
করপোরেট
##ততা
টরেনিং
কৌত
কেনাকা
সিএসই
মাদরিদ
ইনডিযান
down
চিকিত
বসতা
হযেছিলো
মেটরোপলিটন
##হারে
পরগতি
সথিতিশীল
কযার
জিমবাবযের
হারানো
আশাবাদী
##কানদি
##তলায
জেএম
পাখির
##ite
কোতো
##গলোও
##বিতত
##াইর
সংকরম
যশোরের
অভয
ছাতরদল
বিরকত
##মিনি
ধাককায
##রাগ
##সমমত
ধোযা
ডিসেমবরে
টারমিন
নিযনতরক
##বাদি
৯৩
সেদিকে
##পড
পরষদ
##কিন
পরতিনিধিঃ
##নোর
##দোর
নামার
নিযেছিল
শাখায
বিএনপিকে
বৈশবিক
পলযাট
##সংখযক
গঞজন
জলের
##বিধানিক
##ঞজি
টাঙগাইলের
শরিফ
খি
কেযার
ডাযাবেটিস
##াজাহান
বহিষকার
##গাছা
নিষপততি
অনদান
এমপিও
নিজাম
চাইছেন
##উনডে
বিএসএফ
মফতি
সঙ
অপমান
দনিযার
মসত
কসম
00
দিলো
বিশেষভাবে
##কেনদরে
আলাউদদিন
##বাডির
মলযবোধ
সারজন
জযন
গলাস
মোতাবেক
পরতযাহারের
ইনসটিটিউটের
মহাজ
গরপে
vi
##ave
##কমার
2017
পরানত
সেমিফাই
##সংকরানত
ইল
মনতরীর
##рзз
তততব
১১টি
সংযোজন
পরশনপতর
app
বিআরটি
কলযাণে
দত
##জজিত
অসতরের
পাম
15
চেযারমযানের
মিলিত
বঙগোপ
ছিনিযে
লর
##টটা
##পডা
রকতে
ভকতদের
অপারেটিং
৮৯
সংলাপে
শধই
পরাণের
বরহ
আলোয
ফড
পরিকলপনার
খেলোযাডের
মনিরজজামান
গোবিনদ
যাও
দিললির
যাচছিলেন
দষটিভ
শাহাদাত
রিজারভ
কষতিপরণ
বিশবাসের
পষঠপো
সপেশাল
সপেন
##জমা
মযদানে
নৌকায
অনিচছ
৯৭
##কারস
##ure
পরোডাক
পরিযাঙকা
সাতার
ধরিযে
পাগল
এজেন
ধারালো
গডিযে
##ary
নশংস
আঘাতে
অপরের
##বরগ
ইউনস
##দনড
নিকষেপ
পোল
গাধা
পরযোজনা
বাটা
টিন
পরভ
তৈরিতে
তদার
করমাগত
ইনভ
কযে
চাযের
নেতাকে
আশার
সাবধান
অনমোদিত
##ততবিক
##ঙকষিত
উখিযা
##ঞচার
নদ
মমত
##বাসীরা
সঙগেও
রসন
##বাহিত
##মিযা
লাউ
আপডেট
কযাপটেন
বিদরোহ
##শাকে
মাঝামা
মেযেটির
তেমনই
##চায
মিরাজ
##জজীবন
রিসার
হমকির
##ষম
পেরেছি
সজীব
শতকরা
জনতার
জানযারী
##বাসীকে
হাননান
বলতেন
জিতেছে
##সরা
কাটাতে
দিবসে
এলজি
জনসাধারণ
##যাযী
উচিৎ
বিএম
চটটো
##ঙকায
যেটি
ইযর
ককট
##কযা
মিযানমারে
পেছনের
জঙগিদের
রিটারনিং
উইলিযাম
পরকাশে
##চী
ছাগল
শেরে
##ছল
থাকক
শারট
শিকষাপরতিষঠ
সবসতি
##গরামে
অযাপলিকেশন
আহমদের
গেছি
বযযে
লেগ
হাজারো
খলিল
##যানডার
##ালা
she
কাত
##থীদের
##খী
সামরথয
##শনয
সাহসী
##জরি
বাচচাদের
##আইযের
২০০৩
কোলে
এগলোর
ফজলে
তীরে
শরিক
##কষমতা
মাধযমেই
লনডনের
পারশববরতী
অসবস
ঘোষনা
ঐকযফরনট
অরজিত
ফেলেছেন
দতাবাস
পেছন
হযরানির
সবজনদের
শপিং
পাতার
জালে
##গলা
মোরশেদ
##vi
পাহাডে
দবনদব
পরেকষাপটে
তারকার
ডাযের
সাজে
আবাহ
##are
##চছেদের
আকাশের
##ধের
পরিতযকত
আরবে
im
##দসয
জডি
হেলিক
##যনির
পরযটকদের
##একস
চাপাইনবাবগঞজ
গডতে
লিটার
বেনাপোল
সেমিফাইনালে
চরিতরের
##পাশ
##рж░
মওদদ
নবীন
সমবনধ
কিম
তখনো
##সমহের
বরণা
কালী
পোডা
##oy
জনপরতিনিধি
চারপাশে
পাতর
##াকান
কাঠের
বনে
ওটা
গির
##ian
##টারী
অলরা
আচছা
পিঠ
আতমসমর
goo
পডি
হাফেজ
উলটে
সমমানের
পেনাল
##যাহ
বরবর
##লযানডের
বিনদ
কাননা
মেরামত
##ামনি
নীলফামারী
অতর
মারচের
জাগর
বারতায
রপে
সেলস
ভাগে
রটে
কাসে
সঞজয
সরযের
##ack
দারিদরয
ইসরাই
অতীতে
হলাম
এগো
নিজেরা
পরদতত
gr
খেলবে
টইটারে
গিযাস
##পরবক
এরপরই
কিতা
কেক
##দাযক
চিল
দবিগণ
ফাক
মানতে
ভাইরাল
ওবামা
খালেক
আমানত
সীমানতের
##যাতরার
একশ
সমরাট
##িসটরি
রকি
গোলড
রিযাজ
অভিজঞতার
##িযেছে
জোরালো
all
মাতা
হেলিকপ
ধৈরয
জলাবদধ
ভোক
##লর
অনযরা
বরিগে
##পরিবহ
##গরসথ
কোমপানিটি
সাকষাত
১২টায
বলেছিল
গাছে
##পাধযাযের
অরণ
ডেটা
##খযার
কারযদিবস
যাবজজীবন
হাফ
পানীয
যেগলো
অহ
সেলফি
ফলন
কাপে
##টমেনট
##তেজ
24
পেযেছিল
মজিদ
দেশপরে
বিলডিং
না৷
বাসসট
হোটেলের
আতাউর
রংপরের
ছাতরীকে
ইযাহ
মশফিকর
যাতরীরা
আডালে
ঈদগাহ
উদদী
ডাবল
পাসের
বিবেক
একাততরের
চডা
খণড
শম
শীতল
সিদধানতে
অভিহিত
দাওযা
শিকষারথীকে
গলির
ডার
জমিদার
সালাউদদিন
সেমিনারে
##দেরকে
সরবাধিক
বাদশা
##জিন
##পিট
ঘাটে
নিঃসন
কিডনি
মানি
বললেই
পরিনস
##হাস
পাডে
গোপনে
নডাইল
পাইনি
##ডিএফ
বাধযতামলক
রিপাবলিক
এসবের
উদবদধ
##চযাল
রেহ
সনদরবন
##ভন
করমশ
##শল
লাইট
এমনিতেই
আরেকটা
বযতীত
নামাজের
##ভেদ
রোকে
সবিধ
কানাডার
মাহমদউললাহ
অগনিকা
ইউনিভারসিটির
no
##ছিলে
রযালি
এতটাই
porn
কযারিযারের
lat
উদার
সপযানিশ
##সটের
##ঙগিনী
ডিআই
২০টি
ডিএমপি
এফবি
হিরো
হিট
ছিটকে
বরষা
এতি
রইল
বযাযাম
সটেডিযাম
পরথমবার
সনা
সসপষট
খনন
অবয
এমডি
সমযটা
খরিসট
বিজঞাপ
পলযান
অভিবাসন
হারানোর
##বরাজ
##হানি
নিরীকষা
মডেলের
টমে
তের
পরভাষক
##যাসের
ভিযে
##ংকের
##বযসত
পেরেছেন
##ডিস
কেলে
চাকরী
সংখযাগরি
আযোজক
আযকর
##৩০
সরবা
ঘটবে
সংশোধনী
মারকেটে
আফগানিসতান
ধসে
৭০০
##উক
নিরব
কষেপণ
বরণাঢয
ফলযাট
বিকরেতা
##রিন
##ানট
মৌখিক
ঘণটায
ওনার
কপ
মিটিং
এরশা
দষটিতে
সটেশনের
রন
আউযাল
সামরাজয
কোরবানির
ভারতকে
##দীতে
পরিষে
হাইকোরটে
##aper
সমাবেশের
পরভাবে
ধারনা
ডেইলি
##ানতির
করতপকষকে
তরসক
চমকে
খোদ
বিজঞানের
পোশাকের
গযালারি
মধযম
তারও
##দিনে
মোরগ
বযবহারকারীদের
মহেশখালী
লেখকের
কোচের
পরযোজক
সযামসাং
খানে
দরশকের
নেততবের
সেটার
টেলিভিশনের
##xt
লাখের
কৌশলে
ইমি
বোঝার
##সেট
চেনা
আযার
পরতিশ
অপহর
নল
দরবতত
ধরমঘট
শবে
লভ
##কষেপে
##টিকস
মাগরা
ঘমের
মললিক
আদৌ
৯৪
পরতিদিনই
ঢকিযে
##যেট
টইটার
##ভান
আচর
কোষা
রোল
পদধতির
অতীতের
জববার
বানধ
##ামানয
##ঞজের
জিও
আকারের
##ace
##ইযে
কাগজে
সিইসি
##তিযার
অযাওযারড
মেগাওযা
অলরাউনডার
পরতিদিনের
চিফ
পরাতি
ঋত
জতা
দপতরে
##গারের
##ডান
বিছানায
বিপি
##যানি
##োকত
পশচিমবঙগ
নিরভরশীল
##ism
কযেকটা
লার
বনদরের
##বাডিতে
পরেসকলাব
রিযাদ
মনতরিপরিষদ
##এসপি
তখনও
মেটরিক
ডিগরী
৯টা
বাকস
##িনিউজ
সিঙগাপর
সকালের
সাপে
বিচারে
##কষন
বাকী
পরবাহিত
ভিজ
শাজাহান
নিবেদন
শরমিকরা
সখী
##ঘাটে
নিরমাণে
##ree
গিযেছেন
##edia
##পযা
##ছান
##বিগন
##িনিকে
বছরই
পরধানমনতরীকে
গোপালগঞজ
তলিযে
চালকের
এযাড
করতবয
##মেট
হযেও
মহরতের
মালিকের
ডেমোক
##বরষে
দেশবযাপী
##der
লোভ
অযাকাউন
হয৷
##ভিং
##যদধের
ঝাড
##ধরা
লগ
করমশালা
টেকনিক
শকিযে
মাখ
জেমস
চডে
##াইনে
বেদ
কোমল
ঝালকাঠি
বাচতে
ভযংকর
ওসমানী
হিনদি
এএসআই
লৎফর
এটিকে
জেন
##ীতা
পরদীপ
জানযারির
বিশদধ
পজো
##কীয
যাপন
খেলনা
রোধে
শযাম
অনরপ
##কষক
##মারি
##দদের
কোট
পারল
##বাং
শাহবাগ
লিযা
অনষদের
##গলোয
সংখযাগরিষঠ
##ীপ
সংকেত
গণভবনে
গাইড
শরট
sc
বিলপত
##যেব
বযবসথাপনায
##মখে
ইনসটল
কতজঞতা
পাঠিযেছে
##ell
সিটির
আরাফাত
আজহার
দেখানোর
উচচতা
কানাডা
রেজি
download
বেপর
up
পাঠয
##ংগ
খাযরল
ফযসাল
##চরা
ঐকযের
বশ
হোন
অনন
এনটার
সবীকারো
আটকা
অনিযমের
তানভীর
আঙল
##েননি
আগনের
ঝগডা
ডব
ঠাণডা
বখার
##ঝে
রেজিসটরার
সেগলোর
লেখালেখ
অকস
বরাহমণবাডিযার
এটিই
উদবিগন
তিনজনকে
পরচারের
মাঝামাঝি
##কলার
##ory
নেশা
সৌময
ততকষণ
নিহতদের
ঘোডা
কমানো
##টেজ
##আনের
অনপরের
আললামা
এনডি
পরদেশ
নত
নেযনি
দশযমান
চৈ
শযামাঙগিনী
লিওনেল
অগরসর
মেমোর
16
কযাটাগরি
পারফরমযানস
ওযাজে
বারষিকী
বারো
টিভির
ভাজ
##ইডি
আলেম
দোষী
সংশয
শিকষাপরতিষঠান
কযামেরার
##10
বনধে
মতের
জবাবদি
নিযনতরিত
লভযাংশ
##ry
##ংখ
ইনডিজের
##২৫
পেজ
এমনভাবে
ফৌ
লাভবান
চনদন
গৌরব
ওযেল
পোষণ
##বরা
অধিনায
উষণ
##লেশন
কযাচ
ছেল
মনসীগঞজ
নানাভাবে
অধিবেশন
পরী
খালাস
মহাকাশ
করমীকে
নিই
বিশেষত
##জারি
কারাগারের
##ষন
ভালবাসা
বেতার
১৫টি
গোষঠীর
##ction
ইইউ
##ata
সততা
তাকা
বরাউ
অকসি
কষযকষ
খাওযান
##বিবাহ
সহীহ
বনদরে
দেখেই
যোগাযোগমাধয
##এসএস
ভাইকে
পরাস
ভাঙন
পরদকষিণ
বিশবস
বাগানের
২০০২
পেটের
আবির
##ঘাটা
বযবসথায
টরযা
চিকিৎসকদের
নেমেছে
১৯৭৫
অডিও
ঘটনাকে
এনা
##বারগ
চিকিৎসকরা
পরশিকষণের
বিপরযয
##বীন
this
##িটি
দীরঘদিনের
##ভৌ
দিনাজপর২৪
##ধারার
দলগলো
ভরাট
দিকের
##ash
পরজেকট
##ভাল
##ফেল
br
করেতাদের
বদধিজীবী
গরাহকের
ফরোযার
##াকাল
গিযেছিলাম
কোরটে
লেখায
##লাও
##বিতে
ঘডি
##খবর
ঘোষণ
##চারে
চারদিকে
অডি
সবাদে
মশি
সহকরমী
বনয
বাসিনদ
শিখতে
মাতরায
মেক
বিজিবির
অযাপল
##ডোর
হরম
মাইকেল
নিউজিলযানডের
##ানতরের
আশঙক
নবজাত
টেকনোলজি
ভেতরের
থিযেটার
কাছের
ডাকতারের
বোরডে
টেবিলে
ঠিকমতো
আসরের
সাথেই
আলোকিত
কাস
রকতচাপ
মাসম
##৭১
অনেকেরই
হারায
নবনির
দফতর
পিপ
পরশংস
মাং
রযটারস
লাফ
গরেফতারের
কনসটে
ডেলি
নাগরিকতব
ছতর
অপরাধী
##২২
পৌছাতে
৮টি
বষটিতে
##বিসতার
##দিনা
বাইক
বিশবাসী
ইউটিউব
জনবল
কাহিনি
রিসারচ
পরাপতি
##িয
অযাসোসিযেশনের
ছরিকা
জনসভায
পলাসটিক
অনধকারে
মকতা
বরো
নিস
দষণ
##জযী
খারিজ
আতমঘাতী
চাষের
বাতাসে
ইনতে
সাগরে
##ননদিন
শকনো
হের
তরফ
##বনদরের
সপেনের
##বসথার
অরফ
বাদল
নাগ
কযাশ
##লীর
সাতকষীর
বিপদে
সোসাইটি
বেপরোযা
##বাসহ
চযাডাঙগা
পরতিনিধিতব
চাট
মোকাবিলা
পিটি
খাম
কামার
নযাযয
পারফরম
সেনটর
কেশ
শিশন
রঙিন
বানাতে
পরানতিক
বিপলবী
আসত
উপকারী
একাই
ফিটনে
আওতা
খালা
##her
গরযানড
আগত
new
ঠোট
কথাবারতা
ফাসি
আসামিরা
সীত
##পরায
বিবেচিত
নিরবাচনকালীন
সংলাপের
সজা
##াইড
এমবি
পাইকারি
মোকাবেলা
হাটে
যেদিন
নওযাজ
ইননা
মানা
কতো
ইবরা
##লাব
online
##খি
ঢেউ
পেই
সালেহ
কাঠাল
ঘাম
ভাবছেন
অমিতা
##কারীকে
##রোর
##ানেজ
দীরঘমেযা
গডো
আতমসমরপণ
ইজারা
অবসথানের
অননত
পিসতল
হযনা
জানালা
জলিল
বিদাযী
রোদ
তথযমনতরী
##বযবহার
শাশ
রিসোর
উস
১৯০
গাযের
##কোপ
সহিংসতার
##du
মনদিরে
কাউনটার
##মাত
লোকাল
পারসপরিক
বিজযের
##টিকের
comp
মতই
উতপা
##নকে
আইনজীবীরা
হইবে
মারফ
মিলবে
আচার
##যিক
কলাসে
##গণের
আলে
নিজেরাই
##জেট
লোকসান
মাঝেমধযে
ওযানডেতে
সভানে
পরিনট
চোরা
মরাদ
চযানেলে
নীতির
অনেকদিন
##ডক
সবীকত
##out
##কষেপের
সইজার
বখ
##ঞচলীয
দৈননদিন
res
##ee
##ভাগে
অনত
মধযপরাচ
তাৎকষণিক
চাপের
বযাহত
সীতাক
বরধিত
আকরাম
পরাতিষঠানিক
আপলোড
দটির
টযাকস
বাসিনদারা
পরথমার
ফিলিসতিনি
ডিসপলে
পিরোজপর
নিরীহ
ককটেল
কদর
কাকে
যখনই
সনদেহভাজন
অযাক
ইংরেজ
##ানীগঞজ
অরফানেজ
সমযেই
নাইজের
মরহম
হাতির
বযবসাযীকে
অবমান
##মানে
ডযা
লেস
শাহা
ইসলামীর
রোকেযা
ইযেম
টাইপ
বিশরাম
সংকল
সনদেহে
মিশরণ
##যেই
মমতাজ
##যেনট
বলবল
পরণে
শিলপীদের
##ug
হাটা
আবশয
তরফে
লী
হিসেব
https
##ফান
ইফতে
লালমনিরহাট
ঘটেনি
মাহমদর
that
##িকাকে
##যিং
সামাদ
সবীকারোকতি
##ফোরড
সারকিট
শিলপীর
ষা
আনতঃ
পলিশি
mar
সেনসর
বসেছে
ছেলেরা
হাওর
আহমাদ
রাশে
মযানচেস
ভাষণে
নরথ
##থেকে
##যারের
সমহ
তাআ
সনতোষ
বনযায
ভিস
নেব
কারযকরমে
রকতাকত
রিমানডে
আফগানিসতানের
দরবলতা
##োসা
মৌলভীবাজারের
সবাসথযের
নিশচযতা
বিক
ছযজন
পরিণতি
পরবর
সংঘাত
##মেল
বরযাক
সনামগঞজের
পরশনোততর
অনষঠানটি
দবিধা
উসক
##ণডিত
লেভেল
শঙকা
গোর
##মনত
গেই
সবযংকরিয
মইনল
14
বযাবহার
কামরজজামান
তিনবার
সংগরামের
##চরের
সতীর
পারকে
ফিরেছেন
আকসমিক
##ামানের
কযানসারের
পেশাগত
##ok
##ভৌম
সমাজতানতরিক
দেশেই
হাযদরা
সহকারি
বলিউডে
আদম
ঠো
টারমিনাল
কলাম
##টাব
চকতিতে
এরশাদের
বিএসই
শোধ
বাজেটের
নযাপল
ভাগা
টিআই
অপশন
একাডেমী
রোহিঙগারা
মারকেটের
করমীর
বরাবরই
সাংবিধানিক
নাইট
##দিল
আকরমণের
মযনা
কোষ
##উই
পকরে
অভিভাবকদের
পরতারণা
নাশকতার
আংশ
পরখযাত
রেজিসটরেশন
নোংরা
আবাসন
একইসঙগে
পরতিষঠানকে
বিদেশের
নিদরশন
ননদ
সপন
ans
লিন
খানকে
খরিস
পরতযেকের
##ফাজজল
সমরণে
বিসফোরক
একসচেঞজে
খিল
দেশগলো
রেফ
পারভ
##করমের
সোম
নিঃসনদেহে
কলানত
##সবরপ
তথাক
was
ভত
সংগঠিত
অংশগরহণের
##ms
##পরব
পরতিনিধিদের
জিরো
17
বেসরকারী
ইউপির
বোরো
নিরাপদে
##মনে
মসলিমদের
আদেশের
হিউমযান
আগরাস
নাহার
##ালিশ
অয
কলিনিক
##ষি
ভযঙকর
হির
##দেহের
পরেসিডেনটের
ডিএসইতে
ওযালটন
##ডনের
যৌকতিক
##মণডল
সমমতি
একাডেমিক
অগনিসং
আমায
##মপির
শতাব
ফটবলে
##সনে
মাদরাসায
সমারকলিপি
ইযাসম
কেস
খালের
নজরদারি
জযোতি
চারটার
তালিকার
##বিযার
বযরথতা
india
খেজর
পোসটে
বযানারে
রোনালদোর
কটনীতিক
##বদীর
জানাজা
৩টায
##জীবীদের
তথাকথিত
ভাবি
বিকাশের
অবদানের
সাপেকষে
যতকষণ
অরথাযনে
দরশনার
মৈ
জং
##pt
মযাচেই
কদদস
ওযাজেদ
শিমল
পোষট
ইহদি
সমবনধে
পরতে
সেলি
পরিমা
সেখানেও
মনদিরের
##ii
পালনে
সবরপ
পারলেও
আরোহী
দখলের
কবিতায
পেশাজ
রেসতোর
tag
##েনসি
25
জামিনের
রাজনীতিক
হোল
দিযেও
বাডায
সবারই
সনীল
ইজি
সসতা
বলগে
লাশটি
##ওভার
##গারেট
এলাকাবাসীর
রোমা
লাশের
##াইযের
##নিরবাচ
ফাডির
হইল
বহির
গাডী
অলিমপিক
৮টা
রল
শায
সোবহ
##লিখিত
অবিশবাসয
বদি
ইকোন
সংকটে
পরতিমা
নাগরিকের
সেনটরাল
##wer
ভবিষযতের
##পণয
ফাকি
ওভারের
কনসটেবল
পঞচাযেত
##বনদের
মোটেই
বেদনা
কথাটি
ফিক
##port
এদেশে
##ধানে
পাতলা
পারটনার
ডাকাতির
অযালবাম
নেতরকোনা
পরকাশক
বিতরকের
পরিবরতিত
খোজে
##বারট
মধযকার
ইমরল
বোধহয
##খোলা
এসএমএস
13
খাদি
ইবরাহী
ইনসটা
শোনার
##ামতের
লিপি
গঠনে
বকতা
##গপত
বনধন
##িনিউ
আজিম
চেষটার
বাউ
##শিবির
বিলাস
পরিষদে
বখারী
পডায
ইউনিটে
পরযাযকরমে
টম
সটিভ
গরীব
জনসংযোগ
পরকাশন
বরিফি
নমবরের
৭টি
##উততর
অনশন
১৯৯৮
গোলরকষক
##রীর
##ঝিল
হেলথ
##ঙগাল
থিম
সালমা
##সাজ
ফেটে
##পালা
ককসবাজারে
শাপ
##জিল
অগনিসংযোগ
মারতে
বিদবে
সাপোরট
##মোহন
আমেরিকায
ধারাবাহিকতা
লাঞছ
কযালি
কনসার
##দেশীয
##যালের
তদনতকারী
সশীল
##বাক
রসলললাহ
যনতরণা
এটির
##বতী
নামকরণ
তততবাবধানে
##গডি
বানানোর
সারবভৌম
পারায
মৌসমী
রযালী
উপকলীয
দতাবাসের
fuck
পরার
কানন
ফেনসিড
##ংসার
দকষিণা
ইনটারনেটে
কোল
দেখবে
ইযাস
so
সরবসতরের
রাখছে
পিঠে
যতটক
ছাদে
সাংবাদিকতা
তাৎপরয
পৌছেছে
লটপাট
##টান
অসতরোপচার
##ঘি
হতযাকান
তিনজনের
যাবো
##টেবল
বাগানে
রবীনদরনাথের
মেকস
সংবাদপতর
শিশটিকে
world
##ঘাতের
কারযত
শরটা
01
১৯৯০
##৫টি
জিমমি
##েশাদার
মচ
##রগ
পরেসকলাবে
কষত
ছরি
চাঞচল
আকতি
টেকসটাইল
রোযা
পরতিভা
সোপরদ
রোক
তষার
আইজি
সেচ
আতমহতযার
আমজাদ
বিচারপতির
দীপিকা
উদভিদ
my
শবদে
সিনহা
কালিযা
চারি
সাততার
আরট
মরতজা
শাকিল
বালা
মযাগাজিন
সংশলিষটরা
##ীতির
##ank
কষেপণাসতর
আদাযে
খসর
অবধি
মেগাওযাট
অযোগয
পরমান
ফাসট
অবযাহতি
চালর
খনিজ
উদযোগের
মোবারক
দিবসটি
##ঠাক
চলাকালীন
##ডিযান
post
শিকদার
সনাতন
আলতা
ইনসযরেনস
বাদশাহ
বিশবনাথ
সাইটের
নিবিড
সবদেশ
২০২১
পী
ঝরে
মানসিকতা
ইতালির
##ence
##লাত
বিচিতর
পাসওযারড
##াযতত
মোদির
জামিনে
সথানীযদের
tw
##েনটাল
বাডীতে
ভিন
লাইনের
মহসিন
সাধন
গতির
আটটার
শতকের
নযটার
মাইকরোসফট
জরিপে
করাইম
দিকেই
হজম
পরণের
ভৈর
শিকষকরা
১৯৯১
তরণের
ইফতেখার
বিরোধের
রওশন
সবামীকে
মাদারীপর
##নাটয
কাচাম
##রপে
এইচডি
co
বিদযৎকেনদর
পারভীন
কমতে
তাৎকষণিকভাবে
##বললাহ
মলধন
জাতিকে
পরকলপটি
মনড
##শিযারি
মখর
পোরট
অসীম
শদধ
পাডায
##জনীন
মানবতার
##ame
বোনাস
নরসিংদী
চটটোপাধযায
হাবী
inter
এজি
ফোরস
##рзн
অবকাশ
তেলে
##িসমপদ
##চছনন
করমচারীরা
বাসতবাযিত
##রেড
অপপর
ঠাক
##ical
আনি
ছাদ
সাও
দঃখজনক
##োসট
ফেইসব
বিট
##মনড
চেযেছে
পদোননতি
পিএইচ
আঙগ
মেসেজ
জিজঞাসাবাদের
করান
রাখলে
দেখান
সিড
আতমার
বকেযা
##করতা
পরতিহত
সকযার
লেবর
৯টি
দেখেছে
গায
পেটরল
তরল
মযার
চিকিৎসকেরা
##রেস
##ile
রাজবাডী
বযাপকভাবে
আযেশা
##ঝা
অযামবল
করমসথলে
হারাতে
হিসেবেও
##per
##ফেক
পৌছায
মৌসমের
পরতযকষদরশীরা
রাজপথে
##কারয
উৎপাদনে
বালক
কনটেনট
মিছিলে
দলই
জীবনকে
সেকেন
##চচার
সতরকতা
মাগ
কবল
##তিহীন
সাদিক
পারতাম
রোবট
##লাক
সংগঠক
আবদ
চাহিদার
কখনই
ভাগই
কবলে
##ছডির
মিনট
##ামিং
আলিযা
ঘণা
কোসট
শিবগঞজ
ডিফেনডার
ঘরণিঝড
ছাই
##চির
গলপে
সংসথাটি
এগার
বিশবজডে
বসেন
লকষে
পতরের
গরব
বৈশাখী
শরমিকেরা
মেটরো
ডেমোকরে
সালাত
টমেটো
##াহিদ
সংসারে
কনটরোল
কারযনির
বযাকটের
পরহর
তামাক
বারসেলোনার
মালদবী
সিইও
##nal
মারমা
তমল
পরসপর
নিরযাতিত
করস
বালযবিবাহ
১০০০
চৌধরীকে
ইনটারনেটের
চনদ
##বাদীদের
সদরে
বইযে
খলনায
বসনত
ফযান
মানবস
করমকানড
সাশর
দেখিযেছেন
অপহরণের
ফরনট
##ve
দিব
ধানমনডি
মধর
দাবীতে
মণড
মাসেই
##ষটিত
সতরপাত
ঝলিযে
হতযায
##টোরিযা
##বলমবী
##জজামানের
আটকের
বিকত
আতমস
সিরাজগঞজের
কতিপয
কোতোযালি
আজা
##দিযে
দিতেই
সিরিযায
আতমবিশবাস
অরজনে
অবশিষট
##man
মেট
টাক
চিংডি
বিপলবের
##ult
রাউজান
কনভেন
বরযানডের
মযানচেসটার
রকষণাবে
ইমন
পারলেন
##মিল
বিপণ
উপপরিচালক
শিশটি
একযোগে
পাঠকের
অঙকের
দৌলত
করেডিট
পরতিবেদনের
##পরথম
লোড
সাকিবের
##ধরমী
নারস
টল
##৫০
রঞজন
পরিচর
অরথনীতিতে
খলতে
পরচনড
নাফ
##গরের
কীট
##রাইল
আজীবন
মতন
ইবাদত
##নাহার
##জানা
পেনালটি
##বিসতারিত
ঝাপিযে
আসামিকে
কমপিউটারের
কাভার
##ফটি
ফৌজ
টোযেন
ভাবমরতি
##হোর
##চডা
বকততায
খেলাধলা
১৪টি
দরগন
কাও
ছিডে
আরেকজন
আফজাল
বযরথতার
মলক
ঘেষ
কষটের
অমিতাভ
পরথমত
##ানতে
##জাম
##ft
দরদশা
বাণিজযমনতরী
বিলে
ফেবরযারী
মহার
##চীন
উসকানি
মণি
দজনই
সেবন
পরিসকার
বচচ
পরারথীকে
কিবর
ফসলের
##পিযান
দাডানোর
তামিল
ভাবন
ধরমা
ইংরেজিতে
##শরেষঠ
##শরম
১৪৪
সমরথকেরা
আবদধ
এমএ
আমলা
মানষই
করমকাণডের
sex
পোষ
চালিত
##ঙগো
মিত
৩য
শতাবদীর
উইকি
পরতিনিধিরা
##মনের
ফিটনেস
জনপরশাসন
মনতরিসভার
ভিডিওতে
ভিযেতন
##যানী
৯টার
কাসটম
সনদরবনের
চেযেছিল
থাকছেন
##সকার
পিচ
ডিসেমবরের
মালযেশিযায
খাতা
বিশলেষক
কারযনিরবাহী
গগলের
##বাচিত
##বযবসথাপক
দামের
রেখেছিলেন
##ফটের
##সরগ
সটযাটাস
সতীরথ
এরপরও
ঘনটার
ডরি
করিকেটারদের
গৌতম
পেলেই
অপেশাদার
সাজজাদ
নভেমবরে
ফরোযারড
কপালে
##মৈ
বিবরত
আইপিএ
##তাসহ
১৯৭২
##ভেনট
কষকরা
গারমেনটস
ফেনসিডিল
##সংগঠ
ফিফা
নগরী
পরামা
মিডফিল
পরজঞাপন
যবরাজ
পিল
নোমান
ওজনের
অনিচছক
##ডাম
থাকতো
সকরিন
খাদে
পরিষেবা
পযানট
পনরবাসন
গৌরী
এতটা
##সতক
ইলেকটরিক
পরতযনত
##বাডীর
আশপাশে
জনসংখযার
পাশচাত
লাগার
ঘাতক
নীত
বরষণ
সবকিছই
##াতারা
vide
এরমধযে
উডোজাহাজ
##ire
খোজা
ভাবেন
সৌরভ
##ঙকিং
চাষা
জরজ
করানোর
কাযে
উততেজিত
বাসভবনে
বিঘা
ওযারক
বখা
can
হাতিযে
##রমে
##ঠির
তিসতা
কাটতে
বোঝাতে
ডিএস
চিকিৎসায
##পায
রোজার
##সকল
অনভ
##ংশে
##চো
সডকটি
ইযাবাসহ
অনযতর
সনাতকো
জযপরহাট
মিলাদ
##টরের
col
পরদেশে
আসবাব
##েনসে
সংগী
এখনকার
কনস
কতিতব
তালাক
রেসি
##ৈল
অনযরকম
অভযত
##িসন
সখের
##ডিপি
পাবনার
শিকষিকা
ফেলবে
##ৈরা
শষক
সটাডি
##িরেই
সিমেনট
জবলে
##ডারের
খানম
রউ
##সচি
বাশের
মতযবরণ
এনএ
##able
##ফাইন
মারকস
##ডম
পরতিপা
বাসটি
##ডানো
মহামমাদ
জঞানের
আযর
করেতারা
##গরামের
জঙগিরা
ফরিল
একটার
আমীন
বরগনা
চিতরনায
আবাদ
মাক
গলশানের
##mail
ছটিতে
##বিদের
পাথরের
ঘি
রানার
##ake
ধম
খোলার
পাচারের
##bd
পারাপ
##১০
দধের
আকষট
##og
##рж╛рж
আইনমনতরী
খরচে
মঞচের
শহিদ
##ধনিক
গোযাল
নিবনধিত
আশঙকাজনক
বিলীন
কোমপানী
বযবসাযীর
ভবিষযত
ভরমণের
##জারের
হশিযারি
গোডা
##২টি
বিমানে
উপারজন
মাহফজ
সসম
##সিস
বযাপী
##দানী
##সথাযী
চেষটায
নিষঠর
হেন
মমিনল
বিসফোরণের
বযবহারকারীর
ঘটা
আগামীতে
দিলীপ
করমশালায
##বিশিষট
latest
##দাদল
##গাত
বাসিনদাদের
নিযা
পরিকল
##ff
##ীগণ
পরবাভাস
উননতির
সবৈরা
##চিযে
2016
আসায
টযাগ
বিশেষজঞদের
##টেম
মনোযার
বেচ
মনতবযের
লিযাকত
হদযে
gov
##কষার
জেএসসি
ডবলিউ
##জজনক
সিগারেট
ফাতেমা
তরক
এবারে
অকটোবরে
রিপাবলিকান
দৈরঘয
নাঈম
এসপি
নাসতিক
ঠিকঠাক
##হানির
##হারয
সংগঠনটির
করমেই
বরজ
##জেম
পরতগ
মোক
চাকা
আংশিক
জাসট
শিকষককে
কাণড
##ালয
কালীগঞজ
ইপি
ইমিগর
##টিসি
রাক
বিএ
বলবো
##ফেরা
##att
মাতভাষা
##েখা
ফরা
বিডিনিউজ
গাল
জানাজ
ফতল
##াননদ
পজার
ইনিংসের
মনতরিসভা
বাযো
খচরা
##ওডা
মিনারে
জবালিযে
সামনেই
##ঙখল
সপট
শিবিরে
সাতজন
সাখা
উচচবিদযালয
নকষ
সমনবযক
আকাঙ
বিষাকত
অভিবাসী
বিজিএমই
##তরিত
সমরথনে
সযোগে
বিরতি
jour
অসাধ
অভযসত
ঊর
উতথান
খেলাপি
পাঠিযেছেন
অংশগরহণে
মোযাজ
পরদরশিত
গেমস
উননযনশীল
30
টানে
নযাদিল
লোকজনকে
##ভাষ
অপরিহারয
বাধার
সাহিতযে
হোযাটস
মাননা
আলীকে
যানবাহনের
##ফাক
##োগয
মসতাফিজ
ইটভা
বিপাকে
ধমপান
চেহার
জগৎ
তিনটার
বরিটেনের
##সেরা
মাজার
পেটরো
সমিথ
সহাযতার
নিবেদ
সৈযদপর
দারন
পরিকলপন
কষটিযার
ঘরিযে
সকোযা
শাসনের
ফটিযে
ফাল
##কিতে
##োলো
##চযযাল
ভাগের
যথারথ
ননদী
চাপিযে
বহিরা
১৩টি
মরণ
ঝক
পরসতাবে
পরিজন
জেতার
আতিক
ওষধের
বিপজজনক
##বদল
##ভাগের
সমমত
থা
ছিনন
মহলের
সেভ
##খানায
উদযানে
ঘরবাডি
মশিউর
তেজগাও
সটরাইকার
টেলিফোন
নিযনতরণের
ঘটাতে
অনতঃ
ইনতেকাল
সবজনের
ফরেনড
জারনাল
পরবাসীদের
মারার
৯টায
বরাদার
পরতিশোধ
এটার
##খানেক
দাযিতবপরাপত
আসছি
kh
##এনএস
##ond
##পকষীয
গলোর
দেশী
নওগার
এরপরে
##ঘো
বারী
পডযা
দাডানো
জবাই
হাসানল
সভযতার
শিকষায
পরিচালকের
##মেই
চতবর
পরতিফলন
চরবি
বিষযটিকে
ভোটা
অনিশচয
কমেনট
টোক
দেহে
হাসতে
১৯৯৯
এনবিআর
বনাম
পঞচগড
গণসংযোগ
##খল
##সংবাদ
তাগ
মিলেছে
রেখা
হবিগঞজের
শিম
বিবিসির
##irl
বাহাদর
দইটা
##বিদযা
##াইতে
ভোগানতি
জনসম
জাসদ
##ৎসর
##তলার
দেযায
থাকল
গেলেই
বিলের
করেনা
##দহ
ধরেছেন
মাহববল
cit
জাদঘর
জাযগার
জানযারিতে
##শাসনের
রমি
##শকতির
নাশকতা
মতা
সোভিযে
##বাগান
পরিচযপতর
জীবাণ
কমপলেকসের
মোললার
বসনধরা
##তাপ
মসতিষকের
মারচে
নাকচ
বেআই
মরগির
par
##চরে
জাহাঙগীরনগর
অনসারী
সোবহান
খোকামনি
##ens
বেশকিছ
রিপোরটে
বযাটিংযে
##20
ভরামযমান
ওপরের
পরিশর
চীনে
গাডিটি
সেকসি
ওযাটার
মোনাজ
ইসরাইল
অনমোদনের
যথাস
শরিফল
org
##গরনথ
##চারযের
পহ
যেতেই
বানধব
ডিআইজি
করাটা
##news24
জানালে
সমারটফোনের
গবেষকরা
##মলে
পাকিসতানকে
লডাইযের
##টকা
ভাসকরয
মমব
##জিব
##মারের
সানা
##লিন
হরিণ
বৈচিতরয
সারভার
##গতভাবে
টেলিক
ডেলিভার
ডিপলো
তপন
সামি
পরযোজনীযতা
পনের
জিযাউল
গযালা
##সায
পরহ
পোশাকে
##তততব
বিভরানতি
তলার
রাজশাহীতে
দরভাগয
উঠলো
##যরের
অপরব
অভিনব
ইমেজ
##ানতরে
##মাকে
কাইযম
তবকে
অরপণ
উততেজন
৮টার
দামি
##বসহ
নিখত
##নীর
কেদে
কেনো
মাহা
##টারন
কমানড
অভিশ
টিপস
এলাম
ভাংচর
মরমে
সচল
##াইট
ষডযনতরের
টেলিভিশনে
জাননাত
##পরিবহন
আগসটের
পৌছানোর
##ound
মালিকানাধীন
##বধর
আটককত
পরাপয
অবসরপরাপত
দবিতী
টেকনাফের
সরবরাহকারী
ডিন
মযানেজিং
পরদার
রপানতরিত
দিদার
অযাপস
ভাঙগ
অধিকাংশই
##যনালের
জিজঞাসাবাদে
খানেক
##আইপি
##কাস
##рж┐
খেলেছে
আনেন
##বিরতি
pe
থামিযে
দদিন
মধযবিতত
উততরের
##শীলতা
বরী
উললেখিত
আখযাযিত
সভানেতরী
রড
ফিট
দীন
ver
ডিক
##ভিনিউ
কাপডের
ধাত
মাঝেই
আনডার
মনোর
##বপর
কটি
দিলেই
সাগরের
পরতযেকটি
এনার
##ঙগেল
একেএম
নিপীডন
মরগি
ভাগাভাগ
##াকাটি
##ild
তাতেই
সেলিনা
##গলিকে
ভিসি
তাজল
বরফ
নিরমান
যবদল
##উশন
মোসাদ
পেকযা
হালনা
সমতা
খরী
রিচার
বললেও
ভাঙগা
একাউনট
সটাইল
হযাট
সোনালি
চকষ
বিরপ
লোহার
অগরণী
উততরাধিকার
রাশির
##বড
পশচিমে
##বাগে
ইনফরম
আবহা
দষটিভঙগি
উললা
অবরোধের
চাইবে
বযাপারটি
অসবসতি
নেদার
কোযালি
##for
উঠেছেন
ইবরাহীম
হংক
পযাকেট
রহঃ
শরেন
টেকনিকযাল
সালমানের
পলল
##পাপ
##কমা
পরকাশয
মখার
সবাভাবিকভাবেই
আকরমণে
নোযাখালীর
ইসরাযেলের
##পাযার
সমদরের
দেখিনি
উইকেটের
বলেননি
জযনল
##বাগের
অনপসথিত
ডেল
বনানী
##পরবাহ
দাউদ
আতমবিশ
যাবৎ
সিযাম
মরমান
জননেতরী
হাতিযার
##ount
বরযা
নাথ
জাহিদল
সংখযার
পরতিকল
গরমে
ফরমে
সগন
বাচিযে
রিল
নযটি
কোরবানি
চিনতিত
লজজ
নাহ
অবগত
ছোটবেলা
সনাতকোততর
সাঃ
লেব
রাউনডে
অযেল
##চেল
ভেজাল
পরোগরামিং
অমানয
media
জিহা
পরজনন
শতক
রিম
আননদিত
সরবরাহের
তরকি
পেমেনট
সোসাইটির
বিভরানত
এমনটি
মোযাজজেম
ভোল
করতা
কমিশনে
রাঙগামা
##ৈক
শহীদদের
বাহিনীকে
সদের
সহপাঠ
##জীবনে
১৬টি
মিট
টরাইবযনালের
এজেনসি
রাজী
ইসরাযেল
উতথাপন
লামা
অযাসিড
কমপিউটারে
সংখযায
ডকম
সোচচার
শেখার
অনারস
মহাসা
মাংসের
পারকের
চেল
গরভব
##ণডার
ঘটায
বদধা
গরবিত
আবহাওযার
মাফ
হাইকমিশনার
কযাটর
জিতেছেন
টস
একধরনের
##বরতিত
এপি
করণফল
ভীতি
পাও
মশকিল
লাগলাম
নাটোরের
করোযেশিযা
মেডিস
আনোযারল
অজঞাতন
ইমেইল
##িসতান
অবলমব
##দাযে
নাটকটি
উদভাব
জানতেন
dh
এরপ
ফলো
মানষেরা
##ঙকান
জযাক
তারিখের
বোঝাই
শিকষকেরা
ধোনি
করতেও
কাঞচ
দরপতর
ইরাক
নিরণয
##ফিলে
পরকটর
গোলডেন
ডিজাই
আদেশে
রসাযন
ঝলনত
সিনডিকেট
##day
নেইমারের
##সরাই
গরাফিক
দনিযায
##িরি
অা
বৈধতা
সৌভাগয
মাতার
পডেনি
##টরিযা
##ভল
উঠিযে
ভারি
ঢোকার
বলেছিলাম
বিকে
লাগতে
মরমানতিক
লোকসভা
বাজি
##কতিতে
দাউ
pl
আচরণের
বলের
দাওযাত
৮টায
##বেদনা
##শালে
e0
মোশারফ
তস
ফটোগ
তিল
কানাই
শীরষসথানীয
যগান
ছাপিযে
##পনার
রোহিত
পরগতিশীল
##বেত
##পরন
উদয
পরতীকে
##মিনা
করমকষেতরে
খালিদ
আলিম
তেলা
গানটির
অবসথানরত
লই
বিসমযকর
থাই
ধরষ
##কটের
বাদাম
আকতারের
উততোল
##মৈথন
journal
##বনত
নিরসনে
##রাফির
বীমা
অতযাধনিক
১৯৯৭
টকরা
ইউজ
##ছন
চাদের
সটল
বিপিএ
অপরাধীদের
অজঞাতনামা
ঐশবর
সকা
শযতান
এও
##পেকটর
##ীভত
পযারা
রেসিপি
বারাক
বিসফোরণে
বাডিঘর
##যাতরায
##কাই
শোষণ
##যাতের
বঙগবনধকে
সেটির
লকষাধিক
##টরাক
সংশলিষটদের
সাদেক
##জিযাম
ঘোরা
অযার
রমা
##দাবাদ
৬টা
পারার
গণনা
চিটা
রবিন
অধিকতর
ঠাই
ছোটো
হাফিজর
লাগানোর
##শতা
জেতা
##pr
দরগাপ
কীরতি
##মোট
সবরত
টঙগী
রটি
পরতিকার
তাগিদ
##৭টি
##শালার
চাপায
ইউরোপে
হেলিকপটার
গণগত
বযালট
পষঠপোষক
ততই
ইতযাদির
বরেক
##টেইনার
চেতনার
##২৩
ছিটিযে
##যতে
পোদ
অনৈতিক
##oti
পজিবাজার
শরীপর
খানা
##িলেন
##হাটে
সারকেল
ধরেছে
কমলগঞজ
##ঙগালর
##ঞার
বানধবী
খোরশেদ
হসে
বিমানবনদরের
৪টায
মেঝে
তহিন
##ারী
his
পথচার
তাদেরই
দিললিতে
দিনেই
জনগনের
চেতনায
##io
পরববরতী
উপকত
করমকাণডে
##eer
পরতযয
দবিতীযার
##মেনটের
সফলতার
##থানের
গাং
হিলারি
ভিডিওটি
কমছে
সেলাই
তোল
সিকিউরিটিজ
your
এপ
রেমিট
খলি
কবরসথানে
পযারিস
গটিযে
আবরজনা
বিটিআরসি
নিরমাণকাজ
পরোটিন
##১টি
অপরিবরতিত
৯০০
আনত
যদধাপরাধীদের
এনটি
বেহ
পপ
ডিভিড
জমার
বহমখী
পরদরশনীর
ওম
বশির
cr
অনপরাণ
পরশানত
পহেলা
পরাইম
##গাওযে
পকেট
##ফেযার
ভকতভোগী
citiz
##খণড
##জাগর
##জমিন
সেপটেমবরে
রমজানের
পরতিষঠানগলো
সটযানডার
##াতো
ইলেকটরনিকস
বংশোদ
পযাকেজ
সহান
চললিশ
##book
ভাসমান
টিমের
ভঙগি
তখনকার
##সাহ
নাজির
ডাযেরি
##বাসনের
##যয
কোম
##কলীগ
দেযালে
অভযনতরে
দেখলেন
ঘাটি
পরোকষ
সাবযসত
##মালার
ছল
##রিচ
জনসভা
গফর
সেমিফাইন
মাহফিলে
দাডাবে
আইপিএল
চিনতে
মারিযা
answer
সোভিযেত
##ওযাব
কযালিফোর
##pur
এটিএম
##৮টি
পরতারণার
তডি
ডিমের
##বারই
জামাই
বিপনন
এযারলাইনসের
সটডিও
তবেই
কাজও
টিকেট
গরভবতী
পরচারণায
মশা
রমনা
চেননাই
কোহল
আরসেন
কনটেইনার
হাটহাজার
দঃখের
##df
ইযাসমিন
দবীন
বরিগেডিযার
বেসিক
মহলে
৩০টি
সতযিকারের
বসবাসরত
bdnews24
টেনিস
##কারক
লাইবরের
##ঘরই
রকতকষ
পরাপতির
##ভারত
পরতিপাদয
citizen
খরিসটাব
পৈ
মহডা
মকতিযোদধার
রউফ
আইনজী
সৌজনয
বানদা
মারে
ছককা
অকার
##উডের
মেলেনি
থার
##দকে
ঢাল
রেহাই
শিলপীরা
উজ
অভিমত
##sc
মারধ
ফাইনযানস
জগননাথপর
এসোসিযেশন
ফরিদপরের
জঙগল
তাদেরও
ভরি
##বাশ
রেলপথ
পরজাতন
বংশোদভত
পাউনড
আমলের
ফাদে
টিভিতে
কষতিগরসথ
চোরাচাল
বেলজিযাম
বনের
বিবাহিত
সাংবাদিকরা
##ংকে
পাঠদান
পনরগঠ
মাসটারস
ছাতররা
গরাহকরা
মোজা
##xx
##ীগঞজে
ভালকা
কিবরিযা
##рзнрж
মেটাতে
21
রখে
উপদেশ
বসেই
নগরীতে
নেশ
গোপনীয
মেই
জামিল
মাতরার
বাইরেও
রৌ
রপক
কযানটন
পাঠকদের
এজাহার
##ফাইল
##ামোর
দিগন
ডিভিডেনড
জভেনট
সথানের
টেবিলের
##ধীর
একদিনের
ফিতর
ওইদিন
হবেই
##আইসি
##পলের
জমান
##তমক
কনসাল
##কারড
রিং
পরানো
##িযেন
হানাদার
হযেছে৷
গনতব
গাম
ইংরেজী
পডলেন
dis
মযাচটা
##কিক
পরচছ
##কাপ
শৌ
##ember
##পরিকলপ
লযাব
অনপরাণিত
টরান
উৎকষেপ
সংগীতশিলপী
ফেডারেল
খরিসটান
জঙগী
শযযা
বিউটি
তারে
ওদিকে
সাখাওযাত
সমাজকে
##পিটাল
দষটানতমলক
শরীমঙগল
অনযথায
মতযবারষিকী
ফসফ
কনফারেনস
শরীযতপর
অসটরেলিযান
##লালের
মাপ
মককা
মাঝি
নৈর
##মারক
সংরকষণের
জনা
উঠলে
আনগত
রযাঙকিং
বেলজিযা
পিকআপ
উভযের
সিগন
ফানডের
যেনো
বরকত
জডিতদের
মাদকাস
##মাতরার
মাদরিদের
কারটন
জেড
100
জানতাম
বেডি
##ানবিত
##ঞজসয
কাশি
ভেজা
সবাসথযসেবা
আভাস
মিযাকে
##ালট
ঘটেছিল
ফলপর
পৌরসভায
##বনগর
ইউরোপিযান
পলযাটফরম
কনডি
##বীয
পরিসরে
কোষাধযকষ
##োভে
মানসিকভাবে
হসেইন
মরিযা
রাননার
মোহামে
সমতল
সমরথকরা
গযার
পরকতপকষে
পলক
অনসনধানে
রেন
##কাতর
লেবার
মাহাব
##ডতে
গরেড
অধিকারের
যানজটের
ঠিকানায
২০১৭ইং
চশ
নরে
দবৈ
সথপতি
ভটান
অভিজাত
পরসপরের
বিষযবসত
গলার
কাছেও
মদন
আলতাফ
##৩টি
সংহতি
নববই
সিদদিকর
জাকারিযা
খতি
ছাতরের
কারবার
নববরষ
কালা
রেলসট
মিডফিলডার
কাপত
##হাটি
মাইকরোবাস
গাযক
##ততির
ফেরেন
বলাই
উদযান
শিকষান
ওযেবসাইটের
##টিম
##ামারি
##বাণী
মজদ
উচচবিদযালযের
বেরো
জাতিগত
আইসিসির
বমি
##চরচা
পঞচাশ
করবার
সেটাকে
আমদানির
বাধে
লিখেছিলেন
দকষতার
হসতমৈথন
আফস
পারলামেনট
বাঙালী
বোলারদের
##যামত
করমসংসথানের
##ীকষার
বদধিম
ফিলড
সিআইডি
ঘাস
পিঠা
হিনদদের
পাউডার
হরতালের
গীতি
লাসট
সমযও
আঘাতের
গছ
তামা
আমপাযার
ছনদ
##ফলক
সরিষা
মসলা
অশর
নাতি
কিসের
পতে
##low
বযাঙক
বললেনঃ
অসত
শরণারথীদের
##োরা
করততব
নিরবিশেষে
comments
##চই
##gy
পরতিনিধিদল
চিতরনাটয
১৮৯
বলগের
বানান
আইএসের
ভাঙার
বাউল
নীতিনির
##েয
##৪টি
জোড
দেখিযেছে
কাজগলো
পরোটাই
বলো
বাযতল
হাছান
সংগরামে
পরতযাশী
দাডি
ককরের
দবীপের
আজিজর
দাসের
পরানতিকে
গলশানে
শোর
ডেস
আরমি
মিউচযযাল
##রাব
দেও
শিষয
মটর
##বিধানে
বিসমিত
বইটির
কোমর
##ase
but
বটেই
সটযা
অনযানযদের
বকল
শেল
ফলবাডী
কাদতে
সমপাদন
কিশোরগঞজের
এনএভি
বযবসথাপনার
আং
রানি
##গতিতে
##ph
চিতরা
৪রথ
##শীয
মযনাতদনত
##বহিরভত
বাণিজযের
বাংলাদেশিদের
sub
মযাকস
বিসর
কষধা
##বযকতি
মানিকগঞজ
শাওন
সবজির
অকসিজেন
##াজী
সমবেদনা
মাহি
ইউজার
সংশোধিত
পেজে
##িলিযান
##ai
বারে
সিলিন
শাপলা
টযাক
হতাহত
আসছিলেন
বিরকতি
##আনে
গণা
কারডের
##arg
পটযাখালীর
##ইযার
লাযন
যথাযথভাবে
বেআইনি
অচেনা
hd
পরযাস
ইনফরমেশন
pol
dr
মশার
দজনেই
খাযের
বাঙগালী
সাইফর
পরচারে
মাযান
আতিকর
শিযা
দরবারে
##সেলর
কলানতি
ফোনটি
দেবনাথ
মতযদ
অরথনীতিবিদ
উতপাদন
free
গাওযা
ডিপলোমা
##যাৎ
##যোজনীয
উদযোকতাদের
##াতি
##লভ
লইস
##পরতযা
শাযে
জালিযাতির
বহনকারী
বেযে
##দাল
##estion
ভিশন
##জড
##কটরে
##১৯
rs
সেরকম
তাআলা
কড
##ear
অরগান
নানার
খেলেন
পরিদরশনে
##বিচার
অপবযবহার
আগা
মনিটরি
সমপাদকের
সনায
হালনাগাদ
সবেচছায
ভাজা
অসথিরতা
পরতিটা
পদম
অকষর
পরিচযে
গযালাকসি
কাসেম
আডাল
মারটিন
মধযবরতী
মোসতাক
শেরেবাংলা
##টরির
সরবদা
নিরভরযোগয
##াহার
pion
সাইদর
##দধারা
বিতরণের
##te
##মিও
পডেছি
আতমীযসব
আগার
মকবল
পেসট
বিসত
গণস
big
থাকব
সেবায
সরবপরথম
ছোটখা
মমবই
pioneer
সিএম
চারজনকে
পাললা
##ওযানা
##তিকা
আরেকট
মামনর
সমাজকলযাণ
পডছেন
আপনিও
##তই
পরচেষটায
journalism
দকষিণে
জানাবেন
সেনটি
ডিজাইনার
কাসটমস
ডযান
বিঘন
নবয
নডাই
এসডি
রেটিং
২টা
##লান
পরেসি
বিশববযাংকের
ছাডপতর
##জিদ
আবাহনী
বাট
মনজর
##শবে
অনকলে
চকরানত
গডি
সতম
নযাপলটনে
সংবিধানে
মোকাবেলায
নিহ
পরধানত
সবাসথযমনতরী
বোস
সরওযার
দিদি
বানিযা
লঙঘ
কেনাকাটা
শনেছেন
জবালা
হতাহতের
আইনান
জীবনযাপন
লিফ
গাইবানধার
##তলে
তাজা
গরনথে
পেযা
##ভঙগ
মখোশ
কোহলির
এদিক
দরগম
নামবে
ঈশবরের
sa
##৬টি
##ীযমান
শিকষাবিদ
যকতরাজযে
নগরে
##িললাহি
কালার
##ich
##চাদ
অনপরেরণা
বিপণন
আকষেপ
ইযে
ভালোবাসি
কাযসার
বযাটসমযানদের
অজান
দরবার
খাচছে
আঙগল
সোহরাব
গণমাধযমকে
তাহির
সাহাযযের
ভিজে
করণফলী
মেযেটিকে
ইনদর
অঙগনে
এপরি
৪টা
সংসথাটির
সমপততির
পরানতিকের
মানিযে
হাজিরা
সমভাবনাময
নিউইযরকে
পলেযার
করাও
বানদরবানের
অংশগরহণকারী
নবাযন
শিরীন
ইতোমধযেই
শতাংশে
লেফট
রজন
##কিছর
##বাডীতে
তারকাদের
ঢল
##োলজ
ডিপার
মতিঝিল
পাছা
##gle
ডিএ
দীঘ
১৯৪৭
সমকামী
কলাউডা
সনতরাসের
পরিনসি
আখযা
সংগঠনটি
ফজলর
মোকাবিলায
বোকা
উচচশিকষা
বাডীর
দাখিলের
আনোযারা
সাতকষীরার
ভকতরা
৫টা
সভাষ
মসতিষক
##ংখলা
বারানদায
কইন
জিনিসপতর
##lish
টযান
ঝো
রেফারি
নইলে
পলিসি
আরজেনটাইন
হকার
##নাশক
ser
##৯টি
তিনটা
চযারি
সমপাদনা
##ds
খাট
অবরদধ
বিসিবির
রাকিব
সবজের
রাষটরপকষের
ছোডে
সনধানে
হবেনা
তদ
যাতরীর
এনেছেন
##ীগলো
আছেই
পোহাতে
##মিকযাল
অফিসারের
বণিক
আখা
রযাম
জহরল
থাইলযানডের
নবনিরবাচিত
ফায
##জাই
চৌদদ
সৈয
##কলের
পকরের
লৌ
নানাবিধ
##টিভির
##গযে
তাকেই
বাচচার
নেদারলযানড
##জনযে
কমিশনকে
##ভমিতে
সনান
##বেসে
মহানবী
গণী
টিকা
কারিগর
গণফোর
সীমানতবরতী
ইসির
অধযযন
সংকরমণ
জলাবদধতা
বাযার
সমবেত
মননা
লিডার
গরেফতারকত
##চিক
দেবো
##গীত
ছোডা
হারিযেছেন
ককষের
ইসরাইলের
সটাই
উৎসরগ
ভোকতা
বলাড
la
ডন
##হাক
পরতিসথা
করিমের
##১১
দেশজডে
পরোটা
সারথ
##িসতানে
উপসথাপনা
পরতিযোগী
মখোপাধযায
রিযালের
লেখাটি
নেডে
তালেবান
উদভ
সংসারের
মং
আহমমদ
কাতারে
পতল
এবারই
মোগ
ইনটেল
মডি
কোনটা
জানাচছেন
অনিবার
শনানিতে
বিএসইসি
##বিএন
পনরা
সটডেনট
##খানার
পডাশোনার
ইউকর
নিযমে
##শিশ
ইউটিউবে
চাদাবাজি
রোমানটিক
##ath
একতরফা
নিলেও
পতিন
পাহারা
মহাবযবসথাপক
ফোটা
##দাদ
book
##ীশ
রাখাইনে
উডাল
##টেট
বিকরম
নভেমবরের
বরাউজার
কাঙকষিত
কযাটাগরিতে
ফযাক
শিলপে
সেটিও
আফরি
আইপিও
##পরক
পদপরারথী
অবতরণ
##ধরম
ভাট
জিহাদ
আলমকে
টিউন
যাননি
জমম
##বেলার
পিএসসি
##বাইট
গরনথা
হোযাটসঅ
মাইক
জোগাড
##ধনয
##তরক
লোককে
##বাইক
একতরে
আখতারজজামান
বেজে
শিশির
কারবন
মজল
খোজখবর
ফিলিসতিন
ধবংসের
পৌছালে
অঙগর
ফরিলযান
পযাক
##বসতর
মধযদিযে
রোগীকে
দামপতয
বহিরাগত
বাফ
হজর
কষটে
রিভি
শানতিতে
সরকারে
একাকী
মহানগরীর
সংশোধনের
কমবল
আদান
পরশাসনকে
আতঙকে
যাতরার
সঙকট
মেডিসিন
দেখাবে
সাংবাদিকের
ছাতরছাতরীদের
গহবধর
##আরের
রেখেছিল
কনঠ
ঘাডে
##lay
##পিকে
লীগকে
ফারজানা
কনভেনশন
ভৈরব
অগণ
জঘ
বিএফ
যেতেন
ঠাকরের
কোনদিন
আটজন
জনমত
লাখো
##act
উমর
লাইক
দিনম
দবিপকষীয
টযর
##দারা
##ational
##াকষণ
গাজীপরে
গরীষম
মতল
##দোষ
উপনযাসের
##ঘাটের
ফাইনালের
দেশগলোতে
জনগোষঠী
সাভারের
সথাপতয
##ষকারের
খনড
হযাটটরিক
##পরী
অপহত
##জগ
##যেরা
hot
পতনের
পডেছিলেন
সটযানডারড
পরাণীর
১৩০
শোকের
৭টায
নেক
অধযষিত
শিকষাপরতিষঠানের
অযে
সমযসীমা
জিললর
##বিহার
##াকালীন
বযকতিগতভাবে
নৈশ
##গোষঠী
##িযাকে
রাখছেন
পরোফাইল
নিষপাপ
পরতিকরিযায
পরতিরোধের
##করমীরা
পরতিবনধকতা
জবাযের
কানের
ভষিত
সমাপতি
পাতরে
চালাচছেন
অদশয
পরচলন
মোসাদদেক
##কষণিক
পোরটাল
বকসের
করিসটি
##ition
বরণের
আইও
অধিদফতরের
তাত
পরতিষঠায
পদতযাগের
##ীবিত
ডেমোকরেটিক
ইমতি
ফেবরযারিতে
কষিপত
পরীকষামলক
পরতিষঠানগলোর
##োনায
অসন
##চকে
অমানবিক
একতরিত
ষট
অনিরীকষিত
অনিবারয
##তনী
জনশকতি
##গারড
আরমান
##দাহ
করমসচীর
##ামমদের
##কতে
##েরাপি
অবলমবনে
চরচার
অনলাইনের
##ংশন
##iss
##quo
ভরত
##মণড
হিংস
##বিশেষ
কাগজের
চালকদের
দমপতির
তরণীর
পণডিত
গণপরত
##দরশী
##হোলডার
মেকসিকো
জীবনত
যানতরিক
বালিযা
ডরাইভ
মজাহিদ
থাইলযানড
সজ
খোযা
সেজে
##যালে
কানটরি
বাজারজাত
যকতফর
লব
##লাকে
নাসরিন
choti
থর
##po
##ভাবনা
উপতয
সকার
সাংসদের
চাইলেন
হাতেই
বারসা
আশবসত
বাধের
খড
পরকট
মেযরের
হাসে
ভোটগরহণ
question
মসকো
ag
ফোক
পারতো
ধরমঘ
মসলমানের
যাকাত
##াইলে
ভাগাভাগি
দাতের
শীঘরই
গরামীণফোন
আকি
##পরষ
রাজিউন
বযাটালিযন
##ডেসক
মধা
আলোচয
হারনর
##সালাম
ডিলার
বঙগোপসাগর
ছাডে
পরশসত
সাদদ
##ছের
চযানেলের
##চারাল
পরাণে
ততী
ইউনেস
পরসেসর
সরবোপরি
নাডা
তেহর
গতিশীল
বিডাল
পরিচালন
##ানদি
##ics
যতদিন
উপরোকত
মোহামমদপর
বযবহারকারীরা
পরযোগের
ইয
থাকতেই
তরিকল
লিড
গাড
চারজনের
ছাতরশিবির
##সতায
চাযনা
মোটরসাইকেলে
আলামত
কষযকষতি
বোযাল
তাপস
সামাল
##চিহন
হবে৷
কদিন
খবরটি
গোলটি
##রান
তযা
face
দমনে
বিশববযাংক
ঘমান
ছেলেটি
নামেই
আধযা
পরেমিকা
##মাধযমিক
অসথিতিশীল
গরতবের
রাযকে
দরজায
বযাচের
গনতবয
সযারের
##াতেন
জেরজা
ঘটানো
পাবার
হদযের
জৈন
লেবান
মভ
আগসটে
ফেললেন
পলাট
হযাকার
পরেসিডিযাম
get
ঝকির
লেখালেখি
dhak
পরিল
সেও
দফতরের
সসবাদ
ডাচ
আবশযক
সংবাদমাধযমের
জযাম
মোসতাফিজ
ঐতিহযের
মেগাপ
শেখের
জঙগিবাদের
পৌছান
নিবার
বহদিন
নদের
ভাবনার
##gram
জনমে
শাই
সবপনে
নিচছি
বলেট
অতিথিদের
পরণব
গছিযে
##িদর
লিখন
পোকা
জীবনী
আসক
ঝলে
রেলের
দরজার
গঙগা
পারকিং
##বরি
সমাজসেবা
##শনিক
ধরমান
দেখাচছে
##েশনাল
জীবিকা
এপরিলে
ইলে
রথ
##চং
বিশঙখলা
ফটপাত
১১০
##৪১
অসামপর
পকেটে
তলব
মফিজ
সকযান
পরশনবিদধ
##গাম
আঠ
জামাতের
ass
সারোযার
ভোরের
##বাজির
রাবার
##ঘটন
পরবরতীকালে
১৯৭০
আদিত
বতত
##ভোর
গাবত
তাহলেই
পরসকারের
অপরিচিত
##কষযং
১৮টি
কিশোরদের
তচছ
paper
জনসাধারণের
একনে
পরতিষঠাবারষিকী
##so
পরলো
আহাদ
##পনায
##নিকে
সটেডিযামের
শভর
অনধা
কাদির
কোমপানিগলো
##মাণের
সেকটরে
চিনতায
ভানডার
day
আইডিযা
যোদধা
সমরণীয
সমভাবনার
##uk
টিউট
উঠা
হিমা
১৯৯২
হযাক
পরসব
bl
##যি
উচচশিকষ
১৯৯৪
সনাকত
কামালের
রপালী
জলপনা
শেখা
টাউন
সপারসটার
লরড
অভিমান
বযাটালিযনের
অযাথ
##োসে
১৮৮
অসসথতার
নিট
নিহতরা
has
সামলাতে
গরামবাসী
বচচন
বাসভবন
পরচারণার
##যাব
বিশবসত
সবতঃ
লোকটি
আনিসর
##মাতরায
পলিথ
মোবাইলের
সখবর
ঝিনাইদহের
নেতবনদের
সনন
চাদপরের
পরসেস
রিকসা
১৮০
##ভীরে
কোনোদিন
##াপে
##জাতীয
##নবী
চোপডা
##িনারি
চাইনি
##সাৎ
রপা
উদাস
সবজনরা
বনদো
হামলাকারী
এবছর
যথা
জঙগলে
উদধত
বিমানটি
বযসততা
মোনাজাত
##হোক
##পরার
##সিদধ
লাঞছিত
রবারট
##বালের
১৯২
ওড
আতর
ঈর
একটানা
সজল
##হহ
##কষেতর
মাধবপর
অনচছেদ
সাতকান
##মানয
অনযকে
মনিটরিং
জঘনয
ভোজ
এনটারপর
অশোক
টরাসটের
নাল
##সেজ
তরঙগ
বিসিসি
অসামপরদাযিক
খরিষটান
টিনের
পডলাম
পলাসটিকের
সফলভাবে
mod
ইসপাত
পরিশোধের
অনগরহ
পরসতাবের
রেসতোরা
##ঙগায
আফরিকান
সিসটেমের
বরন
দষ
##কিম
দশচিনতা
গভীরে
বিরোধীদলীয
##বঞচিত
অচল
##েসা
পিকে
##শতাধিক
##ঙখিত
বিযেতে
ইনজরি
সারাদেশের
সপিড
রেলওযের
##রাজ
রহমানসহ
পাকিসতানী
##েনডল
উততাল
আরেফিন
acc
সবচছতা
লীগে
##হরের
কাফ
এখানেও
ফেনীর
যগন
শঙখ
ঘমাতে
ফযেজ
নাসের
হজজ
সেভাবেই
দাযবদধ
কৌতহল
বিদবেষ
কাঞচন
আওযার
সেশন
##ণীর
##বিদয
শাহেদ
বযাংকটির
পডালেখা
শীতে
গেজেট
বাচার
বেগন
##জিট
দবীপে
pdf
লাক
শিকষাবরষে
##সীম
উপমহাদেশের
নামটি
বারি
কালিযাক
ভেজে
comm
মাকস
সামলে
পডলো
জিডিপি
বাগেরহাটের
খাজ
id
বজল
অনাযাসে
##ঘোষিত
হকম
সাজাপরাপত
##বোমা
রেসটরেনট
মিলছে
হাউসের
part
##গনে
##িনয
##কনযা
আতমসাতের
মেষ
চাষে
আশাবাদ
১৬০
ততীযাংশ
মসললি
কনসয
এজিএম
বিকষবধ
দিযেছিলাম
খাশ
সিনেমাটি
##সড
পরণিমা
আশংকা
ছবিগলো
১৯৯৫
##ানতিতে
লযাবরে
এসো
খদে
ডিভিশন
মরম
কাময
পরেরণা
কযারিযারে
##রাস
times
অনষটিত
মালটিমি
সেটে
##দবার
গাঢ
ইমিগরেশন
রাজতব
সভযতা
২০২০
সমীকষা
উইন
কাটে
ডেমো
খরচের
অসখ
##সাগরে
সমঝোতার
have
পযাট
পারিশরমিক
সমতির
##লাযেনস
ধব
##কেশ
বিদযত
বানি
মাগর
##পাশা
ফলক
পরষকার
চামডার
শলোগান
বদধিতে
টিউব
বরিজের
আরমভ
তিতাস
সেদধ
বেপার
ইনডে
রকষণাবেকষণ
ঘে
জাবেদ
পোসটের
আইনটি
ইহা
তোলপাড
গণধর
শামিল
##েনদ
অপচয
হঠ
চাননি
বোঝায
##নিউজবিডি
আমিরাত
##সলি
গবেষকেরা
মীমা
##ey
##ood
সংবেদন
তরিশ
ধানমনডির
##চলা
বলেনঃ
ভীত
তারিক
তিনদিন
গলে
মেজাজ
sheers
টির
বাহাতি
পরধানের
কৌশলগত
##চাপা
what
নিরদেশনায
আওতাধীন
রদ
পলাজা
ভবনটি
উকি
চাওযার
সবেচছা
##লেব
ফলাফলে
রেট
নিশচিন
নিঃশবাস
সাইক
ইমতিযাজ
মনন
শীল
উললিখিত
বেঙগালর
পলট
হসাইন
##ণডাদেশ
চলাচলে
a6
##দেবপর
পলটন
05
##বাশী
তাকেও
পরাণিসমপদ
বখাটে
রিপোরটারস
অনতরগত
22
ঘটল
##করণে
মাধ
বাঙাল
একাদশে
সটারট
সখে
বষটিপাত
কেবলমাতর
করআনের
রেগ
গয
জিনি
##ভকতির
##হারল
হেলপ
সরকষিত
দেখলেই
ঘটি
দরগনধ
কলিনিকে
video
উপাতত
আইনজীবীদের
রেসতোরায
sheersha
বাসসটযানড
##রাটের
বরাদদের
পরতী
বিছানা
ইভেনট
নিষকরিয
##ফেস
চাইবেন
##ণযের
##নদী
ওযারকারস
দকষিন
ইলিশের
অজঞান
##ube
কেটেছে
এইভাবে
##মণডলীর
চিকেন
আলাদাভাবে
যতো
##করাম
আইটেম
বাতাসের
ডকটর
পলেট
জাসদের
কারযকার
এনারজি
এইটা
মধযরাতে
সিরিযাল
শিরোনামের
মিরজাপর
রিলিজ
##সারে
এহসান
মই
একাডেমীর
##শালা
দৌলতপর
sup
মজত
বিতরন
দডি
রযটার
ছডানো
##টারির
ওযাহিদ
##চছল
নজরদার
##জাগরণ
বিধাযক
পরসততির
##মারা
##তাততবিক
শামসর
দযেক
করছিলাম
উঠলেন
নজরলের
##কষিণের
এলেও
##হির
ইসলামা
শিউ
art
বিবাদ
সারওযার
চনার
##েলিং
##ধবে
জযলাভ
##মহল
আমিই
ফাইবার
মঙগ
ভারসন
ইনসপেকটর
ইউপিডিএফ
ফরিজ
##বডে
পারো
অটোরিকশার
বযকতিবরগ
বিধায
পতিত
চাইলেও
চযামপিযনশি
পষঠার
বেডিবাধ
পঙগ
মিনহাজ
দোল
##কণঠ
বঝা
শফিকর
বিধবা
সংবাদমাধযমে
বিপিএল
অনকল
##িকারক
তাসকিন
ভগছেন
কারোর
our
বেডায
উচচতর
মদরার
পিযা
##োপক
ফযাকট
হারান
সরববহ
আইনানগ
সবত
সবেচছাসেবী
her
##হিক
অবসরে
আতমা
##ইসি
##পানি
কারওযান
port
##বিনে
##কেশী
সবরণের
কযামপাসের
হযাম
ফখর
ঝডে
মেকআপ
আনবে
মরশি
১৯৮৬
অবত
পলাবিত
আচরণবিধি
দারশনিক
ওযারনার
বিজযীদের
বটিশ
##ml
##মতের
বাটন
দেখল
এরদ
##ডারস
জিএম
##ভরতি
চিঠির
মেরি
১৪০
হাতা
##মখর
মাহফজর
দির
ভযানক
কথোপক
##wor
আযতন
অধিনাযকের
আপা
ইযাছ
হেরেছে
শরীযত
##পেনড
সংজঞা
গিল
অযালার
শেরপরের
ফাহিম
বরিশালে
সিলেকট
সপারি
খাইযে
অনাকা
পারেনা
শাহজাদ
মজবত
উততরব
নেননি
সহকারে
উৎপততি
গাংনী
রোদে
এটক
দিঘ
আতমসাৎ
পরসাদ
গতকালের
রাণী
অযাপটি
din
বেডেই
##মযা
মেইন
##ign
মোডক
মেখে
দরগ
অসামানয
আধযাতম
খাশোগ
will
বাশি
খেলছে
নরজজামান
##বীদের
হাব
গেইল
অনেকা
মধযপরাচযের
অনিরদিষট
সনতরাসবাদ
আনদোলনকে
দষিত
ফৌজদারি
##বাবর
সেনাদের
আকতির
##১৫
টরাকে
বযযের
##সিভ
বিষযটির
জলম
su
পরসিকিউ
পজোর
##বযাক
##কষাগ
str
জোটে
মরযাদায
কারাদনড
রোমাঞচ
##ইড
উদধারে
লিবার
১৭টি
রাইটস
দিনভর
আশীর
হাতছাডা
মাশরাফির
এনাযেত
##লিপ
দখলদার
23
##টাকা
নিরমাণাধীন
চাচাত
##োদিত
নিবেন
ভোটাররা
ফলাফলের
সিআর
বেঞচে
##োজেন
কাপতাই
##দরিদর
শখ
সারজারি
##তবক
চিকন
##ঙগীর
সচকের
##ছাতর
শংকর
##তাও
সভাক
hel
একাততরে
##াসাহিত
বনড
##৩৩
কাতারের
ফটিক
##লাইনের
সেনারা
অচিরেই
পিপলস
উপাস
গলোতে
তিরমি
##ix
জালা
আবেদনে
যথার
উদবে
টিউটোর
দোস
##ern
নসরাত
সরোত
##পথের
ইনডাসটরিজ
বিরোধীদের
পরিহার
মোস
মোহামমাদ
এককভাবে
টেকসাস
এমনকী
আদরশের
##োষ
google
মোছা
জাতক
মসলমানরা
মিরপরে
যগানতর
##বোন
সিট
লাইবর
পরযোজনের
অকল
কাযদায
গযে
পরেকষাগ
##মপন
ডেঙগ
উততপত
চাও
ফরাস
আফরোজ
বিআইডবলিউ
সবৈর
হাজি
##ভরম
তলবে
##ফেন
মনতরনাল
ইসলামে
সরবকালের
টোযেনটিতে
ফারমে
পাইক
সমতিচার
বলিযা
জডিশিযাল
সারক
১টা
##ালান
ধারাবাহিকভাবে
পিএসজি
তাতেও
ভিজিযে
আইজিপি
পরজনমকে
they
কাযেম
ভাবছে
ছবিটা
২৫টি
##কাত
তাযালা
##বযবসথার
সমনবযকারী
বেইজিং
##pl
##ঙগনা
উপাধ
কমনওযেল
gmail
আনদোলনকারীদের
ইনদোনেশিযার
আনদোলনরত
বাধযবাধ
লাম
অরথাযন
চশমা
জনৈক
কষিবিদ
গণহতযার
অসকার
উপসহ
পাদ
পেটরোল
মিঠন
000
##ated
কমিশনারের
gol
বাঘের
৫ম
নাইকষযং
অপেকষাকত
খাদযের
অনষঠেয
বিরতির
সমাজসে
১৯৭৩
সামঞজসয
আতমপরকাশ
##লাদি
পদা
সেহেত
ভযেস
পাঞজাবি
দবিতীযত
মেহেদি
চযানসেলর
ততকষণে
শাহী
আধিকার
রেজালট
জলপাই
লোকমান
দানা
যোগদানের
এফবিসিসি
করমবরধ
মেঘের
ঘেষে
পরীকষারথীদের
নিষেধাজঞার
আতঙকিত
নিপীডনের
##জনদের
নাটকীয
এভার
সবচ
পরচছদ
খাডা
দকষিণের
লাভজনক
ফলাইটে
##ীকষায
খাবারে
##িকিউটিভ
কওমি
per
##লেটের
জালিযাতি
মহো
##জিলা
গনতবযে
ভোটকেনদর
যথারীতি
##শচি
##থিল
কথাসাহিত
##হজ
##enc
ইনভেসট
বযাকটেরিযা
##ধায
বিচছেদ
##এসডি
পডবেন
ভমিকমপের
বেডিযে
ধরমনির
সোনিযা
অগনিকাণডের
ডঃ
সিলিনডার
পরেমিকার
##ps
সাদদাম
জানাচছে
পরকী
বরষার
ঝডের
##লারের
বজরপাতে
##উনডের
পনরাবততি
অবতীরণ
সকাই
উদবোধনের
##বেলের
ঢাকাসহ
লাইবরেরি
fe
সথাযীভাবে
পরবদধির
বাডিটি
অযাকাউনটে
সাথ
মেহেরপরের
ঢোক
ভোলার
তদারকি
অপপরচার
মাধযমের
এসিড
##নিরদেশ
##ife
উইকিপি
পেযাজের
দাযিতবরত
শৈশব
হকি
কোরসের
জস
৫০টি
আপেল
বদরল
##পরেমী
##গরির
##oh
##ict
ফাসের
সতযের
বিভিননভাবে
##ভেদে
৩টা
৩টার
জোরপরবক
অতিবাহিত
হইপ
ইলিযা
নারাযণগঞজে
জহর
ধযান
##int
সিরাম
মজিবনগর
পরাসঙগিক
কষকেরা
সিটিতে
বসানোর
উদযাপিত
শেযারবাজারে
ঘটিযেছে
ইমার
বিনোদনের
জৈব
জনগন
হাসির
##ool
করনার
অমল
সোরস
পাটের
বিপরযসত
কভার
সাশরযী
পারবতী
করমবরধমান
সলো
##গরিম
কযানসারে
লোকস
##ভমির
##মিস
বিধিমালা
সষঠভাবে
সবসমযই
পাটো
##টানো
সেনাপরধান
নিরদোষ
পৌছতে
##িনিং
নামও
লেডি
নিরমাতারা
চাপাইনবাবগঞজের
দীরঘমেযাদি
##ওসি
যেখানেই
অণ
সযানড
কাদা
eng
অশভ
আবিরভাব
টিকিযে
মায
##বসিত
পরিচরযা
সিঙগাপরের
পাচটা
জোনের
রাইট
সমবলিত
মছ
des
কযেকজনকে
sch
contin
উচচমাধযমিক
উরদ
নমন
আসসালাম
##পারের
দবনদবের
রঞজ
মনসী
অরি
সাধয
পরতন
গোযা
হরমোন
ফলোরি
হও
সমযমতো
ফরজ
অংশগরহন
আনষঠানিকতা
##৪০
##ings
ঘটলে
মাসক
কলমে
##লিংক
দাতা
নিবে
চেযেছি
সরেফ
মতলব
##কারা
রাজিব
##ডিল
সাতটার
বযাংকগলোর
ভালোবাসেন
সঙক
##ould
পরতযাশিত
##পরতিষঠ
মাতরই
উপাচারযের
যনতরা
সনের
##ঙের
##দেরও
কাজই
ছেলেমেযেদের
##মযানের
জনমদিনের
বলতেই
সশাসন
পদকষেপের
সেনের
মাদকবিরোধী
হাউসে
ফলাইওভার
আধযাতমিক
সদা
অনিল
কাচের
লোকটা
অজয
কোরসে
আরজ
রাববি
দরা
##কষের
##মেলায
বঝলাম
রাসতাঘাট
মানষটি
2015
গিযেও
মলে
##িলে
বরড
পরাচীর
বযযবহল
পরোডাকট
সাথী
ভিউ
উকিল
রকেট
ডিএসইর
##নিরভর
হলিউড
দেবীর
জনই
বিশালা
ধরমনিরপেকষ
চযাট
সঞচার
ভাতি
ভাবী
##পেশ
চেযেছিলাম
##ঘণ
##জীবনের
থানাধীন
##কাহ
অদরে
সবকিছর
##সারস
##রন
##ঞজেল
কিতাব
সরববহৎ
##হানা
##ance
টরেডিং
তাব
##রেক
চলনত
##ভোজ
##দিও
কোমপানিগলোর
পযলা
অভিজিৎ
উততোলনের
##সৌ
বরিটেন
##শপ
করণা
বকসে
পাযরা
শৈলী
ঘেরাও
বরাজিলিযান
মডে
সপরে
##ال
সথলে
সেতটি
ডরোন
##তবধ
ইরাকের
পাত
##সংগীত
মারধরের
বাহিরে
পথেই
বেলজিযামের
##িমার
পারটিতে
বিশলেষ
কসবা
টেনডার
পরামরশে
##ular
গভীরভাবে
dick
##খর
বিতরকে
পাগলা
পরিপক
অলআউট
সবরণকেশী
##পিছ
সরবাতমক
##খালি
আনহ
##18
##ful
##মশ
খাওযানো
বিধানসভা
কারচ
গরেপতারি
টেকনাফে
##ঙকিত
কযামেরায
##লিটি
##গালা
মরব
উততরপর
ডরাইভিং
##গরহণের
##রিজম
চলাফেরা
অধিগরহণ
সভাককষে
সমদরে
ধনে
অনধাবন
##কিউ
ভরপর
সাপের
ফেলছে
এতটক
শসয
##পণের
চযাডা
পরশংসিত
করোযেশিযার
##১৮
পরিকলপিতভাবে
অবির
ভেরি
রমের
একসচেঞজের
লাগান
বেগমকে
উচচতায
লোহাগা
হাটহাজারী
সাস
নীলফামারীর
লায
সতনয
চিকিৎসাসে
যথাসমযে
পরণযনের
##মরযা
##কৌশল
##ivers
হালাল
নবাগত
##লেটি
দেখব
রিযেল
পরাঙগনে
ভলি
চঞচল
আনগতয
তরম
##দদা
##তোর
সরকারিভাবে
ফটেজ
ইনদিরা
বযাবস
##িনট
##লোকের
##চিতে
জাপা
##তালে
বকিং
জাহাজের
ভদরলোক
সরো
পরিনসিপাল
##যাললাহ
পোনা
জগত
##সফর
যোগে
পশচিমবঙগে
শহীদের
১৯৭৪
অপচ
ইদরিস
রিটারন
গনি
##পরবণ
##নেছা
nov
##চরণ
অনতরে
বাচানোর
কমবেশি
পলেন
দেল
মজাহি
নবীনগর
মহারা
বসবে
মানসমমত
ইযরক
টেনডল
১৮৬
মিরপরের
##হীনতা
কাভারড
##িরের
##দেবী
কাযেস
ঢাবি
সিবিআই
পরবত
সনেহ
জনমদিনে
stud
মিম
##১৬
পতি
সবশেষে
বিনয
লেনদেনে
##ফফর
##ানতের
কযেকজনের
ভোটাধিকার
কযানটনমেনট
বিললাল
##ডেনের
পরাজযের
হজযাতরী
আগরহের
ইদানী
জেলেদের
কযালেনডার
##টকের
##মিকে
৪০টি
ভমিকার
দরতই
গদাম
মারামারি
পরতযেককে
##ামোগ
হযারি
##খলে
পেশাজীবী
##মম
আহবানে
ছডায
##ভকতি
তাণড
বাযে
##ates
বইতে
সবাসথযকর
বলকের
বাধাগরসত
সেকরেটারী
##োটা
চারটা
চাঞচলযকর
সপত
##cl
উপসরগ
সামযিকভাবে
##দিনী
অফিসিযাল
ধারণার
অশানতি
কযাটরিনা
কোমপানীর
বিচরণ
ঝাক
শনলে
মডার
এসোসিযেশনের
ct
বিকশিত
হামলাকারীদের
ফিলডিং
ele
কিশোরীর
অশব
দসথ
পারলামেনটে
বসবাসের
উদযাপনের
##বিধির
দইটার
হইলে
তামিমের
পরতিদবনদবিতায
টযলেট
04
লতা
ইদানীং
পথচারী
আহা
##টটায
ভালবাসার
বিপরযযের
##ামতো
নকষতর
জসীম
ফিস
জনপদ
##সংখযা
নিবনধনের
নানদ
নিরজন
লাগলে
মরিযম
সেবাদ
ফাটল
অটট
##ভীতি
কমরেড
শিকষাগত
খত
মনজ
সমদধি
##মেইন
মলা
##োগানে
রাশিযায
খটি
##িযেট
কেমিকযাল
আশঙকায
সিপিএম
অযামবলেনস
ছাতক
জেএমবির
##িনো
##গেছে
সজাগ
আজই
একসিকিউটিভ
লযানড
তবর
##ৎসব
ঝকিতে
views
##টকম
মরহমের
উকতি
মনট
অগরিম
ইজতে
নিরদলীয
লাফিযে
##সচক
ফরযা
টাস
রেখেছি
##করিম
১৯৯৩
আনশ
সরবমোট
শতাবদী
ইকবালের
নিবেদিত
ফলপরস
কোটির
বেহাল
সবারথের
ইসরাযেলি
বাউনডার
##শিলপের
হাউজিং
যৌতক
তৌফিক
পচা
ভলের
এটিএন
কেরানীগঞজ
জাপানে
জামালপরের
বরিফিংযে
ফেলি
চাদর
##ছিস
তোমায
কৌসলি
কারতিক
দবিতীযবার
বসবাসকারী
গরাস
wat
08
##kh
পিটার
পারলামেনটের
পরতিহি
##নাস
##লাযমান
আমিরল
রাষটরপকষ
নযাযবিচার
larg
রখ
শিকষাবরষের
সফিযা
বিআরটিএ
##িনর
লযাপট
সবজনেরা
##কব
##ীকষণ
ঈদগাও
সেনটিমিটার
ছাতরনেতা
চটর
বিনিযোগকারীরা
মিছিলটি
লিখা
জরিমান
ফতে
মাইলফলক
পরিকলপনায
১২৫
ছোটবেলায
উৎপনন
হবো
সজিত
মেদ
দাযেরের
সরোযার
##শিট
গরমের
পরনে
যোগাযোগমাধযমে
##জানে
তরন
##গোষঠীর
##জেড
পরামাণয
হককে
সেকটরের
অভিবাসীদের
গরহণে
লোগ
হীন
বহিরভত
##له
সেনানি
কমা
কলের
টপি
১৯৮০
অকটোবরের
বোঝানো
জাগরত
লঙঘনের
অপরকে
বিসরজন
মাপের
অনিশচিত
##ky
জারির
বিকাশে
সারবকষণিক
রাঙগামাটি
ইরা
তারপরেও
জযোতির
উরধব
মনকে
উঠার
রংপরে
অকষয
রামপাল
দটোই
##সপ
শীষ
মোটরসাইকেলের
##দদার
অরাজ
যাদব
there
আখাউডা
অনভত
৩৫০
কিক
৫টায
সাতকানিযা
দিনগলোতে
যাতরায
##অন
##ont
বোট
ভাবছি
খলিলর
মেস
এসএ
সহিত
যেতো
##বযাপারে
আসতানা
ওইসব
জিএস
আশিক
পরণীত
বেডাচছে
সপরিবারে
নিরলস
টরাইবয
ঈশবরদী
সিএ
শিশসহ
ইনদোনেশিযা
পিটিআই
সংঘের
মধযপরাচয
বিকল
মধযা
ফেলল
চেযারে
কযালস
ডিএনএ
##দপর
##কালো
বডই
aut
বরণনায
বাথর
এসেই
বাহলয
বোরহান
পনরম
বিনিযোগকারী
বসতত
শাশডি
মজর
মাষটার
গিযা
নারকেল
সেঞচরির
কামোত
শাযেসতা
যনতরাংশ
সপনসর
বোমার
তিনটায
বিলমব
আলোকচি
হাহ
সবরগ
ছাতরীরা
চিনতাভাবনা
ভিততিপর
জঞাপন
বিশেষাযিত
টানতে
##িলারা
মিথন
##রাণ
##তযকত
মানবে
##ডেল
মোমিন
এআই
খাজা
ভিআইপি
পাচজনকে
অনরোধে
জানিযেছিল
লেফটেন
সিঙগাপরে
কেলেঙ
হাইকমি
মারশাল
পরতযেকেই
facebook
বিশবজিৎ
সরেনদর
কযামপেইন
##বসম
##তারকা
##সিসির
##ছক
সইডেন
জাহানারা
পটিযা
##চডে
##ননত
ছোটখাটো
পরতিরকষ
চাইলেই
জাদঘরের
জানিনা
সহানভতি
ফিরতি
##যেশ
যাতাযাতের
নবীর
ইজতেমা
কইরা
ht
অগনিক
দইবার
দপ
নৌবাহিনীর
নিরি
কলাসের
দণডিত
largest
টরাইবযনালে
সেমিফাইনাল
##ইনের
বদরদদ
##কেনদরিক
##েটর
করের
বাংলাদেশেও
ভৌমিক
ভিকষা
করেছিলো
মরযাদার
কাটানোর
উমমা
মাদারী
##তেজকত
ডেট
ইমপ
##াইজেশন
ডিফেনস
আশেপাশের
##লাহা
পোড
ইরশাদ
টরাসটি
মাদকাসকত
অযাপার
উপকমিশনার
ঝরণ
##টিসের
জননী
হযায
হাসিম
##সঙগী
মনতরিসভায
##form
টযাকসি
ভারচযাল
বছরেও
ইচছক
থামা
গরেট
মজিবল
##ঞজলি
##হাতি
##খাতে
গণি
গনাহ
নরসিংদীর
উদবেগের
কমনওযেলথ
##িতির
দিনমজর
তোকে
সারভিসেস
about
##рж┐рж
কাচামাল
জিপি
##করমীর
if
ঘাড
ইনডিযার
সাইদল
##শবাস
জারমানিতে
##বালা
পরতগাল
সমপাদিত
##ামযিক
কামোততেজকত
আযন
বিযানী
##জেকট
রফ
##af
নিরধার
হাজারী
কষটি
মাওযা
মনটা
গালা
ডলারে
##লাবাদ
উসমান
peop
অটল
চাচছে
পাচটার
বেসট
সীমার
যম
##বিজঞানী
গবাদি
আপিলের
এতই
বযাথা
##জজবল
আশির
শেরপরে
দরগাপর
reading
বরীজ
৪টার
মোসতাফা
অপসারণের
সারাকষণ
ভিততিহীন
##১৭
##ভারট
পরসারিত
জযনত
##েলিত
##পেন
বিও
##যতা
রাষটরে
##ামোগত
হতযাকারীদের
বযাগে
ছাতরা
খাতায
সিদধির
দশা
##াসন
##ঞজর
##মেক
নামেন
কাহাল
রপতানির
সিএনজিচালিত
গরাফিকস
এলেই
জাননাতল
##ভাষী
নিরধারণের
ভগবান
ধাম
পিএনএস
##ধনের
##খেলা
জানালার
রাখলেন
চিনে
##তাপর
গণজাগরণ
##লেটে
রহসযজনক
##yle
খেতাব
pub
##ানিতে
অসনতোষ
##ফরে
সৌনদরযের
পামপ
সেলসিযাস
হেনস
##কোচ
দাঙগা
লিস
লাব
##বদধি
নডে
পরবাস
next
কামোততেজকতততব
বাঘা
আপততিকর
##তাজ
বাথ
এতেই
##ating
জেএমবি
##ারো
##থীরা
ফিলিসতিনের
নলক
নেবার
সারির
গরতবার
কাফের
ঘাত
অনার
##করন
ছিলনা
set
লেখকদের
অরধশতাধিক
সবথেকে
##মকতি
##মালিক
বিশবাসযোগয
wr
##জমাট
সমসামযিক
বাঙালিদের
বেতনের
করণধার
নেপ
পরতযাশ
রসিক
উইল
মালিকরা
আমনতরিত
নাইন
ফাংশন
ডকমেনট
পরযালোচনার
##সামগরী
রদর
##ামখী
এজেনস
চযারিটেবল
নেপালে
prot
##ংকিং
পরসকত
##উজজ
মহানগরের
বরহমপ
রেঞজের
গযনা
##গোর
##সতম
পরামরশক
বাশখালী
##যামের
##পরিচয
ফিফটি
খোসা
দবাদ
বালর
গাইতে
টঙগি
##িনায
##ents
ডরেসিং
দেশবাসীর
নারাজ
##বদদিন
এডকেশন
অবহেলিত
ইংলযানডে
পররো
ধলো
##oot
অযাকস
পনথা
বিশর
##row
৭টা
সবাচছ
গোপালগঞজের
এমদাদল
শাসনাম
অবসথাতেই
পডাশনা
net
ভালোবাসে
গিগা
মমবাইযের
##মনগর
১৮৫
##পরেম
শবাসরোধ
চলো
উপলবধ
গারল
অনেককে
##পরিকলপনা
আরবী
রিসি
##িনস
সথানীযভাবে
রেগে
##তাক
আফসোস
মাথাবয
অগরগতির
অনপসথিতিতে
##মেলো
চাচছেন
রী
##নিও
রাইফেল
রসালো
চালককে
go
এবযাপারে
নিযনতরন
সরবসম
নিলামে
সংগীতের
দেডটার
কশ
##এমসি
বলেছেনঃ
##লাইনে
মিলস
রিচারড
##টরা
##সতান
আবেদনপতর
পরদরশনীতে
ছিনতাইযের
ইশতে
পরতযাবরতন
আদালতকে
##arn
দিনেও
হতাশার
উজজীবিত
##োযারা
আমিরাতের
রাখায
গনতে
po
উপচে
তলছে
অভিনযে
অনতরবরতী
দরততম
হিংসা
রাশিযান
সৈযদা
06
আসামের
ইরফান
জমজমাট
দেখো
মেযেটা
##বিশব
বযাংকগলো
নিরসন
তপতি
##ধির
পারলেই
খাবেন
লিখেছে
আধিকারিক
বিতরণী
অজহাতে
রাকি
##কণ
বদরদদোজা
##ann
নৌপরিবহন
সেসময
উট
কোনোভাবে
লাসটনিউজবিডি
নখ
মেকসি
নিরবাহ
ফেরেশ
মহললার
##োম
তরিদেশীয
জাগো
মানষও
ইততে
##জাতনতরী
tags
নিছক
গলপটা
সংখযালঘদের
খাদিজা
##নতর
আটটা
পরদানে
নেটওযারকের
গরতবারোপ
চাচাতো
বিষযেও
##উলের
##দরিক
জেসমিন
ওলামা
মিটিযে
ভোটারের
##িজম
##মযী
নিরাপততায
03
রাবে
##চিতরে
টিউটোরিযাল
সমপরীতি
হতেন
##ajpur
বহবার
সরবোততম
কমলাপর
##যরথ
নিকটতম
ফন
শরেণীতে
সবিধারথে
থমকে
##oug
চাবি
##ফাস
মসণ
শিলপা
##পালং
পিএইচডি
##বাদীরা
কিনেছেন
##রাগী
অনষদ
রেডি
গরনথের
টিট
মিরসরাই
dinajpur
রাশেদল
##১২
##যাপত
হেফাজত
pk
##পদের
কারেনট
##গঠিত
সরেজমিন
অযাসিসট
আশেপাশে
শেযারহোলডার
বোঝে
##সমপনন
##বেই
সমালোচ
গভরন
##েযে
এমনও
এতিম
##টেবিল
একরকম
পযারিসে
শিরিন
তাফ
অংকের
সওদা
এট
##দৈর
ঘটনাও
দবাদশ
ইছ
জলি
আমারও
নিউইযরকের
বিজিএমইএ
মদয
##তাবসথায
দাউদক
পরবাসে
##ars
বিপদের
বনদযোপাধযাযের
কাকর
আমেজ
ফেযার
১৮৭
নিতানত
people
করবান
নামাজে
বনি
##জীর
পরিধি
পরতিপাল
উদদীপ
ইসলামপর
জাযগাটা
boo
হৈ
##সফরত
পযাসি
মিসর
জটিলতার
যাযনা
মানষে
সংবেদনশীল
কেলেঙকারি
এগোতে
ছিদদিক
কমায
লঙকান
কাশমীরের
করিসটিযানো
অপছ
দরনীতিবাজ
ফরমযা
লাত
এমবা
আপাত
ইঞজিনিযারস
লাহোর
জাগিযে
আমর
পরলে
দেশনেতরী
পরেকষাপট
মতযকালে
বোনকে
সাঙগ
আযারলযানড
বৎসর
কডিগরামের
##খাল
হেলপার
পরিমাপ
নযটায
রাধ
পরাপতবয
আগনেযাস
##োকো
##eet
হাসযকর
##মালায
##গরামী
বিষযটিও
##সততবা
act
তীরথ
##বিকা
এমপ
আমিরা
আলাইকম
রাজাপর
মেনন
##েষটার
বিপলসংখযক
জাতিসংঘে
করমের
লিসট
করমান
ঝিল
##গডের
কমিটিকে
##50
বাণিজযে
গতবারের
##itt
রদধ
পরমো
সংঘবদধ
পরকোপ
সোলার
বাচচর
পঠ
বথ
আইসল
##বাযো
মওলানা
ছেলেমেযে
অযৌ
উততযকত
অধিদফতর
কেপে
বইমেলা
ঘোষের
ডাযাল
মহাকাশে
##বীপ
min
ওযাক
সাইজ
সামদরিক
বঙগোপসাগরে
##আরসির
রাষটরপকষে
##পশন
শতাংশই
জিরা
মালে
হাওরের
##মকা
পরতযাবাসন
ফোট
fir
খট
##সযের
তাড
কলপনার
##ঘডি
পাঠযপ
##99
west
উপকলে
সাইদ
শযামপ
এবিএম
##সতাদ
continue
পরগ
মেধ
07
gu
হেলমেট
ঢলে
সযান
ইটের
সেটিই
টিলা
##তদের
##ফিযা
##খনি
নারি
নেওযায
##ামকত
##বিজ
থাকলেই
নযতো
ছেলেটা
দাডান
ডেলিভারি
বযতিকরমী
শরোতাদের
খাটি
সততার
সাবস
নিখোজের
mov
নিরবিঘ
পরশনই
মিথযে
কমিউনিকেশন
দফার
##বিএ
বরাশ
ফলোর
মহাপরিদরশক
চেকপ
তানিযা
ভিল
মেরামতের
হালদার
চকতিবদধ
দীপা
লেসবিযান
##চকর
int
জাহানন
ছাত
##গানের
আরেকবার
পরাণহানি
ফাইভ
গীতিকার
##ধযা
বিএসএম
##cr
পরাযশ
কালেক
ইযাহিযা
আতমবিশবাসী
মহেনদর
টেকসট
রাহমান
উখিযার
শরৎ
ভটানের
এঘট
বেশিরভাগই
সবল
গণশিকষা
##ষযে
শকতিকে
বিরি
মিসরের
সমীকরণ
ছানা
##পিযা
##ানিযার
টরাভেল
কারযা
intern
কশল
লাগলেন
যেখান
##পনথি
ভিপি
দরবততদের
আছা
গচছ
##ীণ
##ীবীদের
##১৪
কোপা
মিসেস
কামরান
ধরমে
লেফটেনযানট
আববা
সমপরসার
মদিন
সহিং
শারদ
খনিদের
op
গানধীর
এলোমেলো
পরদরশনের
time
মযাজি
নোটি
হতদরিদর
নৈরাজয
##co
##ধারণের
দেখেনি
কলাপাডা
রেসটরেনটে
অলিম
পরতিবেদনটি
মনোহর
গিটার
বিতা
যেতাম
উমমে
##সীন
চরে
বেশীর
ভাগযের
kn
একসট
মেরিন
##গলপ
##পরতিষঠান
শিলা
ইযাবার
আদন
বারসার
লিফলেট
গৌরনদী
##টিএ
কেও
##oup
ডেকস
সীমাহীন
পরসথ
মোমেন
ফেইসবক
টরেনটি
পরফেশনাল
শহীদললাহ
রঙে
সেটিকে
সামিট
১৯৮২
dinajpur24
লাকস
##শাসিত
অযাপলের
বাজিযে
##১৩
পরতিবাদের
মিমি
বিশালাকার
আডাইটার
হযাওযে
কটটর
ঘোষণায
বিদরোহীদের
ইনকাম
অসটরেলিযায
mon
এএসপি
রটিন
##কলাপ
আদলে
##বিশবের
নিধন
সেইসব
মঞজরল
পরিমিযাম
কিছকষণের
পাযসংকরানত
যনতরের
সংকলন
আযনা
জোগান
৬টায
ভিততিপরসতর
মেকসিকোর
বিললাহ
##োরে
বিজঞানীদের
দনড
নারগ
রাষটরাযতত
আখের
সাহার
নালা
কাটছে
উপাদ
পেইন
আশীরবাদ
##গেশন
মানষজন
মাঝের
##িতামলক
রোপণ
ভালই
কাঠমান
ফাদ
জনপথ
জেট
বাসতবতার
মমতার
অকাল
আহরণ
শিথিল
খালেদার
মাহফিলের
সাতটায
##olk
হাটের
সাইজের
পযাসিফিক
ততটা
মাজহারল
##ফী
নতনভাবে
##কোণ
মনোযোগী
কীটনাশক
কমই
বিপততি
28
বনধকে
বাডিতেই
নিরাপতত
সালাহউদদিন
ভিডে
টযাংক
ফযাম
লঙগি
##খাত
১৯৮৪
ডোমেইন
জাজিরা
sm
উদবাস
সটযানড
খোজার
সতা
সভাপতিমণডলীর
নিমনমানের
তেত
উদভাবনী
গযালারিতে
বিনষট
##কাট
##জজা
দিবয
##পসতবক
৭টার
বাকিরা
tra
দোকানপাট
ভিকটোরিযা
কোলেস
##ভিক
পদমার
##ina
তযাগের
##ালযের
মসতাফিজর
খোন
##সমপা
##11
উজজল
সাকষর
গরভে
ফরিদা
##গডায
##ককষে
জনমবার
##মাতরিক
cap
মহৎ
করমশালার
সেনগপত
সষ
শাসতর
ভাবলাম
মিশনে
বাধযবাধকতা
50
ষোল
ডেভেলপার
লযাবরেটরি
কেল
লিচ
may
##দাই
ফরী
ফরমাল
গেমসে
আফতাব
ধরমঘটের
গিযেই
খেলবেন
রাঙামাটির
ভালোবেসে
আরোহ
হাইডর
##উম
নানদন
##lam
মালিককে
অসবীকতি
##মাতা
ইউর
উদদিনকে
ভাসানী
##ual
##দকার
কালিযাকৈর
ধরষক
নারসিং
সপরশকাতর
পৌছানো
পিছন
পলিজ
সচেষট
ঝকে
নিকটবরতী
##ধাও
পরতারক
সমপকততা
শরীক
সকেল
অতিথ
খেলোযাডেরা
##চাপায
ভরণ
আসেননি
মহরতেই
এশীয
বিসতর
থের
##সিডি
চিডিযা
মাথাপিছ
em
রাজন
সটোরেজ
কৈশোর
##নিবেশিক
মবারক
##াজীবন
সেভেন
ওঠেনি
ভযের
অযাপের
রাইস
ডেমোকর
চারটায
সবাকষ
##পালটি
হতযাকানডের
ধামর
##িকষত
অসৎ
yout
রযযাল
কোত
গণপরজাতনতরী
রকিব
সাংবাদিকতার
work
##োহ
পেত
শোযেব
দাদার
টোল
ভাইদের
##আরবি
১৬৪
ইনসটিটিউশন
আমনতরণে
নবাবগঞজ
খরিসটাবদে
তাডাহ
আফগানিসতানে
ওযযার
##সংলগন
তও
পিরোজপরের
ভাটা
১৯৫২
টাসক
আললাহকে
এমএন
গাছপালা
আচরণে
চকলেট
back
নেমেছেন
ডিবির
##ষটিতে
কযাডেট
পরিযে
হেযার
লীলা
নাযে
চনারঘাট
জটির
মিশনের
বিমো
যবকদের
জনমবারষিক
নৈতিকতা
চাযনি
##আললাহ
পিট
চযাপ
রপর
##ফায
পরিবেশনা
মিডল
৫টার
##ec
##মাপত
জাযানট
পালটাপালটি
মোকার
আগরা
মেঝেতে
পরিকষ
বযসেই
##পরযাযের
সংকষেপে
##roid
সমহের
বহতল
উইম
কিংস
কপাল
##বিলা
রাতরি
চেইন
খেলাফত
##গাজী
36
দবিতীযবারের
নিঃস
চষ
ইসহাক
অপেকষার
এখতিযার
নাইকষযংছডি
আচারয
শিলপমনতরী
মশলা
ঝালকাঠ
পানের
ছাদের
রানারস
কনসারট
হংকং
ঝিনাই
##করিপট
##জাব
বাইপাস
অনপম
বোলড
পরতগিজ
ইমান
জযার
##সটিক
সকটল
টাইগাররা
যের
##বিভাগ
কিমি
অনেককষণ
আহমেদকে
ফেলো
মাইজ
ফারমাসি
##করাই
দেশবাসী
বিচারা
সমকাল
ইনটারভিউ
কষোভের
আমরাই
##নাদের
আলাইহ
কমিললায
সোনারগা
সফিযান
মাহাথির
করদাতা
##নেই
চারপাশের
মহিলারা
রীতিমত
পরিপনথী
ইলাই
সাইড
ছরিকাঘাত
ভাবার
ভাঙতে
অজহাত
রহসযময
অযৌকতিক
যোগসাজ
মসতফা
সবিধাজনক
করারও
রযাপিড
শিকষাপরতিষঠানে
রোকন
হাটার
##ফিকার
##৮০
##ier
কাব
রহিমের
পরকাশনী
পাচজনের
inst
২২টি
##কথা
ভাইযা
পরিনত
##ভাইজার
খাতনের
ইনসটাগরামে
মোদীর
##ারাতি
চারকলা
##lic
হেয
০১৭
আলোতে
##গোনা
সটরিট
নাচের
রপগঞজ
০১৭১
উনমাদ
portal
##বাংলার
আলর
লেখাপডার
রিভিউজ
out
অলিমপিযা
ওবামার
সটিল
ডিপো
##যাকট
##টিকা
dail
উপগরহ
##ited
পরথমারধে
শিকষকতা
নৌবাহিনী
সাবিনা
##ডিন
জানো
মিসবাহ
পিনট
how
সাধারণভাবে
১৯৮৮
মসক
##পোরটের
আটটায
ওযাসার
##বিট
রোগীরা
শোভন
পরোগরামের
জটিতে
##ঙগনে
ভরমণে
পেনস
##শট
ইনশা
উততরণ
ইনডিপেনড
চপচাপ
গৌরীপর
মতাদরশ
##ভবনের
হাজতে
##বাধিকারী
##এক
phot
মাতব
পরযবেকষক
দিচছিল
আদিবাসীদের
উচছবসিত
বযবসথাও
হিমশিম
edu
নামটা
ধসর
দরতবে
##ভিলি
##চীর
ডিউটি
##বিজঞানের
আমতলী
কযাপিটাল
মারকা
হাবীব
ডরাগ
সাইনবোরড
চারিদিকে
##দীনের
##রাগন
আরদর
আশলিযা
সচিবালযের
##দাগা
শটিংযের
উদাসীন
26
আহলে
কারযকারিতা
সামরথ
শেষম
আঙলের
গাবতলী
১৯টি
১নং
দেখাশ
##লৌ
করে৷
খিচ
মিলের
হবহ
##গিরি
মেসিকে
চওডা
করমচারীর
বযাটে
শাহপর
##িনহো
১৯৪৮
উদঘা
নেতরকোনার
সবশেষ
কাদেরের
নাজমা
শারীরিকভাবে
অভিশাপ
পরতীকের
অচেতন
দলা
##সাধয
রাজনৈতিকভাবে
আযরন
##করতার
##ফরমে
চিকিৎসাসেবা
বযাংককে
বদলা
পরতিবাদী
সেবক
সেটিং
##যানডিং
সহসরা
রাতারাতি
ছেলেমেযেরা
27
একাধ
নানদনিক
পালানোর
উললাস
মহাখালী
ডটকমকে
টেলিফোনে
মহাজোট
##াপতর
বহনিরবাচ
১০৫
অভিনেতরীর
ভিসার
নযাদিললি
দরশকরা
কষণা
কযাশা
সচিবের
af
উধাও
##চছেদে
অনতি
হাসনাত
##েনেজ
চলায
নিকা
হাইসকল
হাযদরাবাদ
পাজ
হেমা
কাজকরম
গিযেছি
##ভিকষ
বাপের
আনাম
বিষযকে
##টেসট
অনষঠিতবয
##দোযান
একদা
আকনদ
##uss
##hi
সঞচালন
কডিযে
ডিল
সলাই
ছাতরকে
##চরচার
নাজি
যাহা
খাসোগ
##ভিচ
##কলীগের
ফটক
rec
গণেশ
অভিনযশিলপী
পরবেই
##হীনতার
##ডহ
মযাল
রচি
ফারাক
কারযদিবসে
গের
চরা
জরিপের
সনতষটি
সীমাবদধতা
মানবসমপদ
দিগনত
পাতি
সিপা
##এসের
সাবান
হাঙগ
দারল
ডজন
##ss
দিকনিরদেশ
##পাকষিক
বিশবকে
আমিনর
##ভোগী
ওপারে
তারানা
দবিতীযারধে
উলামা
কাপরের
বযাধি
নালিতা
ফাজ
চারে
html
##বাসতব
করপোরেশনে
অনিরদিষটকালের
বহজাতিক
ইনভেসটমেনট
ভাটার
##াতা
কোযা
চিকিতসা
ইসটারন
ফরেম
আলীম
##বিদযৎ
বিচারাধীন
এইড
পলিশও
জাযেদ
##ject
mp
সনদেহজনক
##লপিত
পরশিকষক
জযেলার
##এমইউ
জরিমানার
মাউ
আযাতে
হদরোগে
ওযাচ
গোতরের
add
লিভারপল
##ষঠিত
ভমির
এনাম
##বিবে
পাহাডী
লন
শচীন
রপতান
দরভোগে
বিরদধেও
হামলাকারীরা
##ভস
ইনজে
পরতিকতিতে
সাধনা
ষোড
গরভা
##পরণোদিত
##ike
##ডিক
##রিতে
হাদীসের
কযালসিযাম
নডাইলের
সইস
কষটকর
ওপরই
কনফি
মলযসফ
বিচছেদের
কেযা
দবৈত
চোরাচালান
দশযে
##মোহ
উচছবাস
শিখা
##ঞচাই
বরতমানের
সনদরভাবে
খাগডাছডির
সংগরহে
##তকের
নামছে
loc
##ঝাই
হতযাকাণডে
মোকদদ
জিনিসের
##কষায
তরণীকে
কাকা
ধস
অনেকবার
দীপক
সীতাকণড
who
ঢাকাঃ
শরীফের
মখযমনতরীর
গেরি
সরের
অপরিস
সবাধীনভাবে
ভিযেতনাম
##ীষ
সাকষাতের
বগডায
সাবমের
অমন
বষ
##করী
আসতেই
##দীপত
টিপে
##ডকে
একচে
আমিনের
নীলা
শামসজজামান
##ারোপ
দরপাল
সোলাযমান
##মাই
বাজা
ভোটকেনদরে
##চিযা
হইচই
del
সারার
টেলিকম
##কতারা
লেজ
##হিতা
ভালভাবে
নিরদ
পকষেই
সমী
ফিরছিলেন
##২৬
ইনটেলিজ
করীম
মানচিতর
উলকি
চেলসি
vo
##কিত
ইনফ
ইরানি
সেপটেমবরের
পরযকতিগত
কযারিবীয
আসতান
সহজল
সকলার
নিউক
সবচাইতে
টডে
##ণীয
গেটের
ফেরে
উপশ
পিডি
ইউনিসে
অনতঃসততবা
এনওসি
লাগাম
tech
শযামলী
##তনতরে
সবীকারোকতিমলক
বিশবযদধের
আলোকচিতর
##েদল
সবরণাল
মাযেদের
মোখলে
কামডে
মিসটার
ফিনযানস
বারধ
##চেতনতা
##পণযের
আভ
অপরতযা
সশরম
একাতম
টাকাও
ঠিকাদারি
বেসিস
ফযাকটর
বিকেলের
কলাসিক
##fer
নেতরীর
অনযটি
খোল
হাথর
কযালা
খোকা
##লকে
একাংশের
আসবাবপতর
##গরীর
সকলছাতরী
ইকো
অপরীতি
সঞচালনা
হীরা
##ty
পরাদেশিক
সিনহার
পেপে
এরদোগান
শংখলা
আলোচক
শতকে
টিস
##দিযার
##এফের
গমভীর
বজ
নিঃশরত
থি
পোষাক
সহজলভয
নাহি
এসই
পরতীকী
অযাটাক
##রার
কফ
##পাটের
##বেরি
##েইন
অরধে
কোনা
মিলা
##সাব
কতগলো
জলফিকার
web
মোন
বিজঞাপনের
নগ
সেদিনের
বিহারের
ফেবরযারির
১৯৭৮
boobs
ইতিপরবে
কষমতাযন
অসসথতা
রেজিসটার
অপরীতিকর
##কিপার
কোমপানিতে
এমনিতে
দেশপরেমিক
একনেক
রঙগ
বিম
খেটে
উননযনমলক
মেযাদি
ওডি
মিলিমিটার
মহিষ
ডিজাইনের
##ফটে
##শনাল
গোড
নিরবিচারে
কোলেসটের
এশিযায
শানতিপরণভাবে
##পরসাদ
খোনদকার
যেযে
##তযাগ
বেলন
##বব
সরাইল
বযবহারিক
মেযাদের
পরবনধে
বোলিংযে
ওডনা
দসয
অনিশচযতা
শহরত
মযদা
আলোকচিতরী
দেউ
আচমকা
পরজঞাপ
খোজাখ
pass
পেতেন
##সনতান
##ull
বিদযৎস
করিকেটাররা
বাছাইযের
##olo
পরজাতি
করমবিরতি
ডিভোর
দেরিতে
সটরোক
লিপিবদধ
ভযভীতি
শযটিং
এযারলাইনস
মালটিমিডিযা
বলত
মানষগলো
দলিত
কিশোরীকে
হালি
পরতিজঞা
মিথযাচার
অপরতযাশিত
রেফারেনস
শরেণিক
জাপার
পরশনটা
মালদবীপ
##app
মাহমদা
sw
অনযাযের
বাকিদের
খোলামেলা
##পঞজ
##দৈরঘয
জনাইদ
তথযসতর
দামও
যবতী
ভিজিট
সংগহীত
অলস
কোটায
কতজন
জাফরললাহ
দেযালের
পষপ
জেরা
ইউনিক
তাইজল
ঢাকাগামী
সংখযাও
শিলপপতি
সোনারগাও
বেচাক
##তরির
gre
মাখন
##igh
ভাঙনের
ইকোনমিক
daily
কযেত
বরগনার
ওযাজ
আগনেযাসতর
girl
সংবাদে
##obor
দারাজ
পাঞজাব
##বলীর
সপিন
জওযান
##ংশলিষট
ইযাসিন
গতবার
সমপরণভাবে
লইযা
খাবে
চৌরাস
ফিরবেন
ভরাত
১টার
##িমের
কষেত
ফজিলা
##ঘল
ফরিজে
বাডাবাডি
univers
##বলমবীদের
##লাইজ
২টার
কাশিম
হযার
##উনের
ঘাটের
##াও
কনযার
৪৫০
বিলবোরড
মেসারস
অবসরের
মযন
##78
মনোজ
সাওতাল
রাবেযা
তোফাজজল
ইযাছিন
জনসন
চদ
কিছদিনের
সথলবনদর
##সমযে
১লা
##িকলপিত
##ari
সচকে
গটি
শনলাম
আকরমণাতমক
অকষম
সতি
##হরী
অযাটলেটি
রযেল
বাচচারা
মদিনা
সাযে
উপজাতি
শীরষবিনদ
সাভারে
টরিবি
আনিছর
##উনস
ছরিকাঘাতে
তথযমতে
সাহাব
কেলেঙকার
##াযরা
গগ
##ওযাই
মোতালেব
##লম
অসপষট
বাসন
টপকে
দাপট
ইচছার
##িরার
পরিধান
দরনত
২০৩০
ভেনয
pop
নীতিনিরধার
সংসকত
মাহববে
ভলতে
আইকন
আজাদের
ঊরধবে
মেমোরিযাল
বিলাসবহল
আকাঙকষা
আকডে
মিউচযাল
সনদেহের
সতপ
সথিতিশীলতা
##ষটে
বিদেশিদের
বরেকসি
মনোনযনপরতযা
##ধবনি
ধনট
বডাই
আতমগো
আতমীযসবজন
৬ষঠ
বিলা
##িকাল
শরীনগর
রাজবাডীর
অনগত
বযবসাযে
পাঠযব
মকতিযোদধারা
ডাযাগন
গরিক
##পোরটে
চারজশিট
জেরজালে
জকি
##াতল
ছবিও
করসিং
পাবো
অসতি
সিপিএ
পরবীর
ইযাং
কেনাবে
সবৈরাচার
রেঞজ
কতক
সংযোগের
কমিউনিটির
আবেগের
নেপথ
১৯৮১
মাগী
সহন
কলিযার
কারযকলাপ
পরতিপকষকে
নিউজের
তাজউদদীন
##োকে
বিচারকের
হাশেম
অপরযোজনীয
করেতার
বদধিমান
##লতা
নাত
মতিযা
মযাগ
ফিরছেন
পৌছেছেন
ডাম
হেনা
বিকরেতারা
জোযারের
##পদক
পোলটরি
##ged
১৯৮৯
##সাধ
জাহেদ
বিকষোভের
এরইমধযে
##সেনা
অনব
সারবজনীন
এমরান
১৯৮৩
আলাপকালে
আজো
ভেদ
হিংসর
নিরবাস
খেলছেন
ততদিন
গরামীণফোনের
##ণির
বাংলালিংক
##তবনা
##বারথ
রিফাত
সঙগীর
আইএসবিএন
টযানারি
অসতরোপচারের
সংগরামী
বনদোবসত
সবনাম
বিচারকদের
পরবরতন
হযাকিং
পযাভিলি
নৌযান
##াদের
সটাডিজ
অনরাগ
সতী
অপরপ
পেরেছিলেন
কাটাকাটি
হাওরে
কামড
গহসথ
মৌসমি
নাসা
রাযপর
সথগিতা
সিঙগেল
লকষণীয
যৌতকের
জেনেছি
জনাযেদ
গমন
হাযাত
কৌতক
##ange
যোগযতার
ফটবলারদের
রযাংকিং
##জাতি
মকতিপণ
চোদা
নিকো
ফতললা
আদিতয
উপসহকারী
অলিমপিকে
ঔপ
##ভরা
##থাই
সেগলি
##জোড
ধাওযান
##সতরে
আজহা
হলিউডের
##ep
কেই
জাই
মোফাজজল
পেযেছিলাম
উইথ
ঠোটে
##লত
দিচছিলেন
জালালাবাদ
নীরবতা
টকট
previ
সহিংসতায
##বলা
##লিও
সপারের
কিলোমিটারের
ধলা
পিবি
নিউমার
##গলোতেও
ঘমা
##air
##anc
কনে
বরষে
দষকত
ইউনছ
নিযমের
এসএস
android
ষোডশ
মংলা
কোণে
##ঠিক
সমারটফোনে
গোলটেবিল
আলোডন
সরঞজিত
job
ছযটা
মকস
মখারজি
##কষনিক
দেশেও
pk10
ছনদে
১৯৬৯
dicks
##দাম
ধল
কাধ
গেরিলা
##িলা
2014
রোম
বরষায
চিতরনাযক
##োচিত
পাগ
গলপটি
আশি
তোমাদেরকে
ইনন
##পারটি
##চালকের
সইজারলযানডের
ইসলামিযা
বিভাজন
##দমে
কানাডায
##ছিনা
শটে
পডলেও
অযালমিনি
মীন
টরামপকে
বিএসএমএমইউ
টোকিও
নানদাইল
কাঠামোর
আচে
ফিউ
মহিলাকে
কযালালাম
মজিবের
গীতা
গদের
তলেছিলেন
বরাবরের
ভাসিযে
ইফতারের
সিগনযাল
থাকাকালীন
ভলাদি
অরথমনতরীর
দাউদকানদি
জাগে
নযজন
সপাই
জাহাজে
মহাসাগর
গমের
ভের
করেসট
দোর
অনবে
##লিকে
পষিযে
চষা
##গডে
দাপটে
হচছি
বদলের
২০১৬ইং
মাহমদের
লেখাটা
পনরদধার
বিমল
বিলটি
বিচছিননতা
হাওযায
ঢাম
আইএম
নাটযকার
উতস
উসকে
রেললাইন
মেমোরি
##গলোই
তাগি
মেটা
চিপ
##জেল
ঠেকিযে
##নারের
ভোগানতির
গযাং
পেযেও
রাসেলের
##ors
##গোপ
জাহির
##ঃপরকাশ
ধোনির
সিএনএন
দততের
আনশকা
মধযসথ
গারডেন
জমিযে
রযটারসের
##কীর
##লেজ
থাকলো
খাটো
মিলনের
কসং
অপরিসীম
জতো
##অর
নাগরিককে
পেযারা
সমযসচি
ছোটদের
##রাতের
##বনায
মামার
মালিকেরা
সমতিসৌ
রাবি
##যামতের
##aph
##উপ
##br
কাবা
ফরানসে
তরিপরার
নিরমমভাবে
খযাতিমান
মসতিষকে
জেলেরা
টিআইবি
অতিথিরা
গহকরমী
দাডাল
মখরিত
অভযতথান
ছালাম
##মরষ
##উজজামান
গজার
##চনের
sec
চাষাবাদ
আবেদিন
আডডায
সিসটেমে
সবরণা
##এসে
কোনভাবেই
##পনিক
নেওযাজ
সেইসঙগে
আরোপের
আফরোজা
মাযানমার
##ধরী
কনক
life
##গনের
##চিনি
##পরণের
ওযাজিব
দিশে
হোযাটসঅযাপ
ভরতকি
খলিফা
বসর
বাধন
বরষসেরা
##দাৎ
শেফ
দীরঘসথাযী
আহাম
লাগাতার
হাজারেরও
চরমপন
বইছে
##চলিত
##ৌ
##যানত
১৯৮৫
দফতরে
সংবাদপতরের
চরণ
##াকরি
##িকষিত
ফাতি
বাকা
গারলস
দরপাললার
soc
খশী
বিরাজমান
কবরে
বিভাগকে
নানারকম
পরলোভন
জনমান
তাওযা
টরানসফার
ইযং
মদদ
লিললাহি
##০০০
অগাসট
আঞজ
##ax
রাসলের
একার
নীচের
সাদিযা
সিরিযাস
কথাসাহিতযিক
রমন
##দেবীর
তাইওযান
অকত
সমমানে
কানাইঘাট
উরধবতন
kolk
##যোদধা
চারপাশ
তৈরীর
পলিথিন
কচছ
সমবোধ
##যনতরে
গোবিনদগঞজ
##আরপি
অলৌ
লেভ
আউটস
আলেক
হজের
##গঙগা
নারাযন
উযে
##ied
১০১
নিযোগে
লকষমীপরের
পরযবেকষণে
হতযাযজঞ
ফিজ
জীবিকার
ইলাইহি
##ঋণ
সাবধানে
##সিলে
সীমানতর
##মোহর
বাসসথান
উপরনত
কডাই
সাংবাদিককে
সারথক
ঝোল
পরদানকারী
##জিলিং
পরমাণের
শারদীয
সারভে
পোষা
সনদরি
তাডিযে
ইসতাম
বানর
ছিদর
ধবনি
বেধ
নযটা
সিংযের
##ভাষায
অবহেলার
বেকারদের
কনফারেনসের
09
##sp
সহকরমীদের
বদধের
##ove
হাহাকার
##খানের
সইজারলযানড
সাউনড
লিঃ
##৬০
দরশনারথীদের
কাননায
সানতবনা
ফিলিপাইনের
সানত
ছযটার
সবতঃসফরত
##৫৫
আসমা
পরেকষাগহে
golpo
##দেন
সৌজনযে
টাইট
পরিবহণ
মযমনসিংহে
দারজিলিং
পেনশন
##বোঝাই
##বিশবে
##মিশ
টাইবরে
সিলভার
সরকষার
কনসালট
##মাম
কোমপানীগঞজ
##ডটকম
ধরমকে
উদদীপনা
সাবল
টরাকটি
##বিএস
শোকা
জনমনে
মযদান
অনসারীদের
সহযোগীতা
কাজি
করমকরতাসহ
জলাইযের
সগার
মাউনট
মনষয
মলল
টোযেনটিফোর
রোজগার
##পকরিযা
হযালো
একি
হঠাৎই
পাটোযারী
সপে
ওযারডপরেস
১২৮
পরচেষটার
আযম
সতত
##ржи
##ose
##বযসী
বনধতবের
পিটারস
খেলাধলার
দৌলতদিযা
করিসট
অযাঞজেল
তহবিলের
দোকানদার
##বোরডের
##iend
আদনান
ঝিনাইগাত
##যাদি
বেবি
ফিলটার
অজসর
xxx
নামঞজর
নাসিরনগর
করমকানডের
শরেনীর
ফরসা
একেকটি
রমিজ
ষোলো
নাযেক
kolkata
করাসহ
এনডর
নাযিকার
তকমা
বঙগা
##বদের
##ককষ
কষিজ
আইপিএলে
ইনকি
ed
অসাম
পডত
ভলাদিমির
জেলের
আরকাই
শরীরকে
যকতিতরক
মানিকগঞজের
গোছ
ফজিলাতন
কিশোরের
রিসে
##যগ
বিনির
আইসিইউ
মৈতরী
রটের
পরশরয
কারণেও
কামনায
জাযে
সিনেট
##পতন
টাইগারদের
সমকাম
আগামি
অসমাপত
টটল
সইচ
মেজবাহ
এতিমখ
##কোট
##lack
আতরাই
কেলেঙকারির
১৯৭৬
##সাইকেল
অংশগরহণমলক
এমপিওভকত
থাকবো
##ان
সযারেজ
উদযোকতারা
অহেত
ডেনটাল
##min
উদযোগী
ডল
অংশটি
পরসাধ
পেটরলবোমা
অভযরথ
কযাফে
এপরিলের
এজাহারে
কোযালিটি
ঝালকাঠির
বযারি
##paper
করমকার
এনটরি
একটও
নিষপততির
ভোগানতিতে
সাবমেরিন
বিদাযের
কযটি
এলজিইডি
সেদিক
পরশনটি
পৌছলে
৮ম
আতমজীবন
40
সবীয
##তপরব
গরহণযোগযতা
দিশেহারা
সেলে
এমতাবসথায
##গাছের
ওহ
পরবক
বানিযাচং
previous
টেই
ফারিযা
দিনাজপরে
নজি
হোসেনসহ
সমরথনের
দাদ
কাপডে
##গেটিভ
চানদ
একাডেমিতে
বিজঞাপনে
sms
হেই
গাফিল
পষপসতবক
অহেতক
বঝবেন
বযরোর
শরদধার
আবদার
##লীতে
ছেডা
তাগিদে
রিও
##েনাতে
করিক
অনবদয
সংজঞ
আসিযা
করবানী
লিখিতভাবে
##পিও
সবাগ
পেচিযে
##লাইটের
ভালোভাবেই
ফারহানা
পাণড
##এমএল
##োলে
ভেবেছিলাম
ফযজল
শাসনামলে
সতরীলোক
রেহানা
##ঈল
তথযে
পরোহিত
বককর
নমনীয
দশে
বছরেই
নাটকটির
বিকষোভে
কণঠশিলপী
ডবিযে
##ভাসে
##োনের
বাদয
১৯৮৭
নারগিস
বাংল
কেনে
খাপ
উৎসাহী
এসডিজি
ঔপনিবেশিক
##শীর
জানাগেছে
নেতাকরমীকে
পারাপার
##ভারতীয
বানিজয
গরামা
হারটের
bra
নামানো
ভঙগিতে
খশির
একশের
অনকরণ
লিখেন
সজজিত
##দজজামান
জানত
গণের
##খডি
##ধারায
ইযথ
ভমিকমপে
ভাঙচরের
বযসততার
রকষণশীল
বাডলেও
লোগো
কামিজ
##শক
##২৮
##55
এনটিভি
দাবা
অবতার
কোটার
ভাইবোন
উৎসবমখর
টাযার
পোক
লিজ
অনাকাঙকষিত
সেগন
গরতে
ফিজিও
পরতিযোগিতামলক
সারবভৌমতব
চাষিরা
শাকসব
নিজেদেরকে
দরশনের
চীফ
মনজরল
শাহবাগে
##বততির
##14
তিকত
উদভত
##পরাপ
শাহাদত
##গময
করিশচি
শিলি
লাযলা
২নং
সপিনিং
সংগঠনগলো
হঠাত
মকর
এইবার
ভতের
##বানে
##amp
অভিভাবকরা
গহবধকে
বিযানীবাজার
করসফ
##রাহয
সটরে
সচিবালয
অনশীলনে
গবেষকদের
ডিএমপির
গোলম
পলিটেক
ডিনার
সমালোচক
তৌহিদল
রাববী
##পষঠ
their
অরধশত
fun
রাফি
নাইজেরিযার
যশোরে
মযাসেজ
টরেলার
লোহাগাডা
বরহমপতর
02
অতয
##কালাম
জানাজানি
##ঢাকা
কারলো
বেশিই
গরহের
দেবতা
দবিপাকষিক
ফটিকছডি
২১টি
নাজন
পনরবিবে
তীবরতা
বণটন
##তবেও
হোসট
##রকষার
উপকারিতা
মযাচেও
পলাটফরম
সবপনা
বাহবল
গণযমানয
first
##চাডা
জাযগাটি
বৈশাখের
এধরনের
মতর
##িকষণ
উমার
চোটের
##সমহে
ঐকযবদধভাবে
উততেজনার
শেক
কমতি
করসফাযার
##৭০
শাডির
১৯৭৯
الله
খাদযা
উদী
ইমামের
আতমীযের
##sex
পাডের
নডা
নিযমিতভাবে
পীরগঞজ
##৩৯
আইসিবি
জিলা
বডির
##টরোর
ওযেবডেসক
মহারাজ
##ре
##গাং
দশযের
##োসিস
##বোরডে
দপচা
ডিসটরি
##কেটর
মহাল
উপাধযকষ
যোগাযোগমাধযম
টরেই
শোনান
গিগাবাইট
som
##les
inf
আফরিকায
উপনিরবাচ
29
বাদি
##ডেড
পরাণবনত
কলিনটন
পরতিসথাপন
গযেশবর
লিটল
ওসতাদ
##বিপর
##বিএল
মগন
বহিঃপরকাশ
লঘ
সমযকার
বসেছেন
সলট
নীতিমালার
সমপাদ
এনিযে
রিভার
ফরেঞচ
সিপিবি
ডিসক
মিনা
হাডি
বাহির
fol
তালি
##মাসে
##বাত
সৈকতে
আইপিএলের
মহসীন
ঢালাই
পচি
উজান
অপকরম
যদধাপরাধী
##ালীয
চাঙগা
চিৎকারে
করমানবযে
সমতায
তাহিরপর
সবাযতত
ধরব
ফটকের
এলোপাতা
ইনডেকস
উইং
একরামল
##াপনন
যেমনটা
পারফরমেনস
কারপে
মযাথ
বাদামি
নীচ
group
কোসটগারড
##াহীন
জনমবারষিকী
মেহেরপরে
##ইযের
হাতেনাতে
নিরবাচনেও
ঝলক
সেশনে
##ভিযার
লেগেছিল
##জোট
##aria
ঘোডার
এনওসিএফ
চৌকি
আনদোলনকারী
নওযা
##aw
##কানন
বযাবসথা
রকতকষরণ
##ys
পরকরিযাজাত
খনির
কপির
১০৯
চিতরনাযিকা
দশটি
সাজানোর
একদমই
রওযানা
কষধার
এনটারপরাইজ
আমারে
সথবির
দিদারল
অরথেই
বহর
১৯৫০
অনিযমিত
ভবিষযতেও
হাদিসের
##জরিত
মেডিকেলে
chatt
##ীমা
মোকতার
মাঝেও
অনলিপি
সরকারও
বেগে
মনসিগঞজ
ctg
চলল
মিশরের
##আত
ভিননতা
হেরো
ফেরাতে
নবজাতক
পরবাদ
ফযাট
বযাস
##পেপার
পনরমিল
##বিসি
নকশার
বৈষমযের
শাহজাদপর
ফেলেছি
রাইড
মোহামেডান
##লেখার
##মনদির
এলএন
খাদযে
বযানডের
ভঞা
মকট
রচনার
মরক
ইনসটিটিউটে
টসে
হযেছিলাম
##গরো
উততরার
ছললাললাহ
মোজাফফর
রখতে
আসতেন
এনডিটিভি
বরেণয
কিসতি
মতামতের
আবিরভত
##ution
যোগান
অপারেশনের
ফসলি
আইনজীবীর
ভখ
নাড
মাহে
মযাজিক
ভাতিজা
##লিযায
গরীন
পরযাক
বিশবসেরা
অভিযোগও
সিদধারথ
সাজার
জযাকস
উৎকষেপণ
পঙক
##যমতে
কমারের
ফতো
ঘনটায
বিদযালযটি
চেহারার
##কারখানা
রাদি
বাংলাদেশসহ
##পিযার
বছরও
অনেকাংশে
চেম
##ons
জলাইযে
গোতর
জানিযেছি
খেলাটা
আশগঞজ
বিবরণী
উতথাপিত
সেকেনডের
যায৷
সিজ
বযথার
জোহর
ইলিযাছ
বত
দরগাপজা
মহাজো
##cc
এতকষণ
বিরোধীরা
দরভোগের
ডিসটরিবি
নাকে
রাণ
এলোপাতাডি
চালালে
সাহসিক
হাদীসে
##ana
ফলযাটে
শেখানো
গণতনতরকে
ফিড
##বদে
##পোল
সিংহভাগ
জবাবদিহি
যাতরাবাডী
অগনিকান
বঞচ
বিএসসি
জনমা
জিতেছিল
trans
বিমা
আগৈল
বিসম
মানসিকতার
কোরআনের
আসনটি
একটিতে
অধীর
মকতার
পনরগঠন
##ert
এটিও
নরজাহান
জাননাতে
বসলেন
ঠাপ
নিলো
আরকি
ঘমানোর
ah
##ংসন
গণমান
ইমরানের
রাহাত
##েনটারি
কিরণ
##রিকে
এবিষযে
ফজরের
অবমাননার
হাসানকে
হালযা
গভীরতা
##তময
সারিতে
ফিফার
করেছ
সরবশরেষঠ
সমপরণরপে
ইভেনটে
##নিষট
যৌনতা
রফতান
নট
শীতকালে
সবনামধনয
জারসিতে
কলাই
##ঘণটা
মযর
গঙগো
দষণের
পিপিএম
ঘডির
৭ই
ইনভেস
তোযাক
##ানটি
সমপরন
বিহীন
শতরর
বিবাহের
ডাইরে
আসলো
হিস
##সীর
##pe
মাথাবযথা
বেডাচছেন
##২৯
অবিরাম
হীর
##িদা
সমপাদকীয
রশিদের
31
সমমখসথ
##বৈচিতর
উপরি
##ফিস
আফরিদি
ev
রাজনগর
##াহত
পোপ
সপোরটিং
play
কণা
চাচছি
পরেরিত
##80
উলম
নামেও
##ালিতে
ছাডেন
মেলান
কারাবনদি
মাইকিং
অদর
gen
কাননার
সংসকরণে
ভলবেন
ইচছাকত
কৌতহ
সশাসনের
##bo
অনবরত
দশটা
দরলভ
##হারের
অদময
অমক
ঘটার
চেনে
##বাযের
##কতব
সারভ
ফটপাতে
বদলাতে
অনাদাযে
##চৌ
হাদিসে
গেটে
দঃখিত
মককায
##টেকস
ফোনটির
অহংকার
লটের
রেমিটযানস
##চিতরের
ইনডাস
নাসতা
আরামদাযক
আটা
লডে
চাকমার
ধাপের
১৯৬৬
কাসটমার
মাইকরোসফটের
নাকের
ফোলডার
মারপিট
ভাষণের
থামাতে
##পাই
রাজউক
তবরানবিত
বলেনি
সইডেনের
##সমযের
অভতপরব
আইসকরিম
##দিতে
টরফির
চারচ
##ফলল
##চিনতা
পরেশ
bu
মাটিরা
দতাবাসে
song
সমাগম
একাউন
নামকরা
চযালেঞজের
ঢামেক
মানষটির
নামী
সদসযসচিব
বনধনে
২৪টি
কহ
শেন
বিশবাসঘাত
কেবলই
পাশচাতয
ঝরনা
সননযাস
ভাডার
সবযংকরিযভাবে
ডিপারটমেনট
##িকসেল
ফেললাম
##সবল
##ানামা
জানাবে
সারজেনট
mot
যথাযোগয
অদকষ
অমি
ভেস
##যাযনের
মাগফির
পলিটেকনিক
গরীষ
শাহাদাৎ
##বাযোটিক
মসি
##সটাইল
পণযে
মিছিলের
আহতরা
পথিক
গোডায
মেধার
সতযজিৎ
শামিম
##াইজড
এগারো
নযান
বেশযা
মনতরীদের
জমকালো
রহিমা
ওযাদদ
আটককতরা
চেমবারের
##ষটরেট
কখযাত
##বংসী
চালিযেছেন
সটেইন
##ogram
##বিংশ
##হিদর
পিযার
তলি
##াকো
উচচারিত
মাসদর
জনসবাসথয
সদে
সিগারে
সরবজনীন
গানগলো
mil
##োসহ
##মিশন
হিজাব
2012
দরগত
লাগত
সবসতির
##পকর
১০৪
অনযাযভাবে
কমারী
##জোডা
লিগযাল
চটরগরাম
কতবদিযা
পরোকষভাবে
জেনি
##ঘের
রইলো
##বারতায
অযথা
পরবাসীরা
সমাইযা
এনওসিএফপিএস
বনা
রাসতাটি
দদ
ছাতরশিবিরের
hist
নাছি
পরযকতিতে
##med
নেগেটিভ
সরযো
রাষটরদরো
যাবেনা
রপরেখা
##াজক
ছডানোর
টরযাক
সিদদিকীর
গযারে
##ামতি
হিজডা
posted
আগৈলঝা
##যালার
##ise
সদসযসহ
ভাগনে
এরিযা
জযেনট
##িযামের
ইনফেক
ছবিটিতে
ফরনটের
##ung
কদমত
রনির
পরনোতারকা
এজেনসির
মেটরোর
পিআই
##জেলা
বাংলাকে
ওযাহে
বহনিরবাচনি
জনপরিযতার
পরতিবনধীদের
চারদিক
পালং
বইমেলায
##বদধির
শযতানের
বরধমান
##চছবি
বাচাও
পস
শকরা
বযাড
ফেদের
১৯৬২
oth
চষে
রাও
##গাডি
পরিতরা
টিএসসি
তাহাদের
হাদীসটি
বজলর
মাসবযাপী
১০০টি
এফবিসিসিআই
##কষয
লোভে
বীরশরেষঠ
##লযানডে
উদভব
পরণো
অযাকসেস
পরসতাবনা
##তীর
বলিযে
কযাকাটা
সরবভারতীয
বসেছিল
ইনডিপেনডেনট
জলদসয
কবরের
ফেসটন
রমজানে
মশফিকের
তলনামলকভাবে
##জাতির
সেনটমার
ইসরাইলি
ইযেমেনের
ফরযাঞচাই
লেনস
পরকারের
অনশীলনের
চাকর
গঞজ
রপার
সদি
কটকতি
##ষটের
ভাসতে
মনিটর
কাপাস
সারকেলের
কালভারট
সমালোচিত
today
islam
##বরতীর
তামিলনা
গেইট
সপারভাইজার
ভোররাতে
##ement
কমারশিযাল
আছডে
##রিজ
help
নীতিগত
লিপ
##ছটি
##চারি
কমবো
##টাইম
পকষানতরে
গী
বিনযের
পাঠাগার
ভালোবাসায
দবিমত
পরজাতনতর
একতা
উপনিবেশ
কেহ
গোনা
পরীকষারথীর
চাহ
করাকে
পেতাম
তলেছিল
সততর
ফিরেছে
১৯৬০
শরোতা
##াতীয
সিএস
সলোগানে
অবাধে
##পরেমীদের
সমবোধন
বডদের
বযবসথাকে
নবগঠিত
iv
বানো
##কিনি
##দধি
পরিচযের
পেযেই
দাবিদার
বিসতীরণ
একাকার
সরানোর
বরজনের
অঞজন
##াজনের
দণডপরাপত
আসথার
পলিশিং
সমপরি
তরসকে
১১৫
সতনযপান
কোক
local
সেনাস
##বরষণ
লাথি
ইসলামসহ
বিসকট
##টেইন
হাইসক
সরাতে
বিসিএসের
##জরের
আরম
জীবনাননদ
ইযাকব
কারগো
নভো
২টায
ছাতা
১৭০
সিরামিক
##ছবি
tweet
বযাটসমযানরা
দেবাশী
মানসমপনন
ইতালিযান
সওদাগর
এলইডি
ফক
##িতবের
চিনির
গদামে
ধসের
##কষেত
আকতারকে
আললাহতা
জযাকেট
নবজাতকের
ধরণ
জবালানী
বদিউল
সথানানতরের
তলছেন
১০৬
##মারস
কতদিন
##its
মযারাড
##যেতের
##ঙগির
##ধারীদের
##une
আংটি
##২৭
গরামবাসীর
জিহ
দরযোগের
তারপরই
দষটিকোণ
শরীলংকা
নিমনচাপ
চেনেন
বিশলেষকরা
চযন
মজাদার
গহা
##ts
কযাবল
কাউকেই
আরজি
পনয
মাদারীপরের
আলাইহিস
৬টার
সমনের
পাননা
চেহারায
মযাজিষটরেট
কেনদ
বিভেদ
পরারথিতা
নীরবে
ইটভাটা
ঠেকে
ফলযাশ
অভযরথনা
ভাতের
গলিযে
রিযাজল
ভাগযে
##শিকষক
ঝডো
ধামরাই
সাংবাদিকেরা
আসাদল
বিনাশরম
দামী
পথিবীকে
##ফফার
ধরমপরাণ
হতবাক
পরিশরমের
চব
পরিবরতনে
রানেই
দরভাগযজনক
ফারা
শবদটা
একাধারে
##ডানের
পকষকে
মামনের
##উদদিনের
##দাতার
সমাদ
গোপালপর
পযেনটের
মীমাংসা
যতর
নিরবিঘনে
##তালি
অগণিত
অমস
ঘোলা
বযাপারেও
সোনাই
দিতাম
জানলে
কতপালং
মধযপর
কমভ
##000
সযাল
অনর
সবখানে
##পরকার
করিকেটারের
হোলডার
##গরভ
##ays
সেমিসটার
ভাবতেই
বাজপে
##দীন
ঢাকাই
মেগাপিকসেল
তঙগে
একসেস
আরাকান
খোদা
গরেফতারি
##গনি
নজিরবিহীন
আমিরাতে
উপসথাপনায
শনযতা
আসামীদের
শীতকালীন
youtube
২৩টি
চলক
তডিঘডি
মযাডাম
ফিতরের
মিনিটেই
খজছেন
কারিনা
অভিনেতার
মহোদয
ঝি
মজন
কাঠগডায
উপসথাপনের
অতিষঠ
জরজরিত
সবেচছাসেব
যীশ
নিতেন
অযাপে
আনদোলনকারীরা
দবারে
সরাহা
অরপ
##জারস
জডানো
গোযেনদারা
সহযোগীরা
মোম
উপনযাসে
মনতবযে
অরধেকের
অনম
তোযাককা
গহার
মেলবোর
ভাতার
##শৈ
বাগদা
সবাদের
পরতিফলিত
ro
##শনি
আদতে
ওভারেই
তিরমিযী
##কাজের
##যানার
সবয
##হযা
করমকষমতা
হলরমে
আনতরজাতিকভাবে
পরতিভাব
অবমকত
সংসপর
সরবসব
পারছিলেন
আনারস
অনসনধানের
হইযাছে
৫শ
জেডিসি
আলমগীরের
ঘমনত
মখটা
ফটোক
জযদেবপর
জরায
অভাবের
##মেজ
##alth
কোমলমতি
তরমজ
পরতযেকে
ভাবনায
আবিদ
কামরা
বষটিপাতের
টিউমার
একটির
##াকরানত
রেজওযান
##পরানতে
পেপ
১০২
বাহন
reg
উপাদানের
পরসরাব
টিকিটের
সাথেও
চোদন
পরতযাশার
কটাকষ
কযাপাসি
লজজায
গঠনতনতর
met
##দনগর
শিযাল
##ভিযান
লিখছেন
সদঢ
সমপরসারিত
chattogram
পরেমিকের
অকারযকর
মোডের
১০৩
পডানো
বোঝেন
বরিটেনে
count
##েসার
বাকিটা
পরদাহ
উদঘাটন
আউটসোর
জিযারত
বযাটিংযের
ওল
##মরম
হযান
আসকত
অপারগ
নবান
রবির
##থানে
হেফাজতের
##উনে
বিশবখযাত
পরণালি
ফেসটিভ
আনতরিকতা
পনেরো
##োটাই
ডিভাইসের
##19
টেনডলকার
##এলের
কলোনি
গোলডকাপ
ষাট
সটাম
মনাফার
সগনধি
পঞজ
কযাস
এহেন
তিসতার
##োগলো
হেমনত
সধী
##পিসি
যদধাপরাধের
টোট
মিঃ
রাজকীয
মহাসচি
ছযটায
বামপনথী
##কেনদরের
মাতাল
মহললায
হিসাবের
খরিষটা
লিখি
##যেনের
নাবাল
সংকচিত
গেযেছেন
ফযসল
বডলেখা
বিলম
শৌচা
##ma
##ative
দারচিনি
দরশনীয
##পিসহ
##জারভে
পজ
সাফা
অনতরবাস
চকরবরতীর
এজেনটদের
##ণিক
##ারন
কযাথ
রিসোরস
অসনত
অলৌকিক
নারিকেল
দরভাগ
black
##সটাইন
সমাবরতন
কযামেরন
সাননি
করণেল
ইনজেকশন
শরিফের
বানোযাট
একীভত
অনসারীরা
মধযপরাচযে
থাকতাম
bo
##টালে
ওযাট
মেশানো
বিটিআরসির
পরতিভার
গডেছেন
সচিকিৎস
চাদাবাজির
মদরণ
mat
বাডডা
him
কোরিযান
আধারে
##দগধ
আবিষকারের
যগল
পরতিদান
১৭৫
রাষটরভাষা
পিকসেল
গতান
নাজক
অকষরে
দেবাশীষ
মযারাডোনা
ভকতি
##বাযে
উপডে
অভিযা
গোশত
যৌবন
বিনিযোগে
সিআইডির
খিলগাও
সকমার
ননদন
webs
##নারি
১০৮
জীবনযাপ
বযসসীমা
গারডিযান
ওখান
এইরকম
ঠোটের
বিপিএলের
রচনায
বযাংকার
লেকের
পযানেলের
বাডিযেছে
তপ
পারছিলাম
মানহানির
অঙগসংগঠ
করেন৷
আরটিকেল
##পরতা
বযাটসমযানের
আরটিজান
কটির
কাটাচছেন
অনভতির
পটা
সমীকষায
শিপ
নিজামী
এনআই
পরবাহের
জাতীযকরণ
##email
জভেনটাস
হোসনে
হাওডা
##ভেস
##মিতা
দিনটা
ডিজেল
সিলভা
পরিলকষিত
##উটিকযাল
চলেন
আইনী
কালপনিক
আরিফর
দেশপরেম
আরনত
পরিচছননতা
পরাসাদ
মনোরম
পরিতযাগ
##মহলের
ওলড
##22
ইভান
ষাটের
মাগফের
ধরমাবলমবীদের
সরকারবিরোধী
##িনাটি
##ডেম
আতঙকের
আগারগাও
পরতিভাবান
পালাতে
সনতোষজনক
সেনস
পরাপতবযসক
val
দৈহিক
৭ম
শিহাব
##view
ইজিবাইক
year
সওজ
দযার
any
বাথরমে
ততো
##পনথীদের
ঘরানার
dec
কেরা
কলযান
ফরিযে
রপালি
অনড
রসতম
##পরাযণ
কষযকষতির
লেকচার
মানবেতর
রকষিত
মনতরণালযকে
##ations
বগি
আসমান
কেনদরবিনদ
মামলাটির
জমাট
বিশলেষণে
অযালবামের
##িচ
হোতা
গাটটা
নৌপথে
##lop
মেশিনের
মদি
##াকল
কৌশিক
চডাও
১০৭
বলিষঠ
আননদবাজার
সফররত
সপরিচিত
গরনথাগার
শলীল
শিকষাকে
বোতাম
ওযালি
ছেযে
sam
আপস
শামসন
ঘষে
দোষারোপ
word
make
সিজার
সরবনাশ
বাহিনীতে
পাচটায
মিশেল
আবাহনীর
পিছনের
উপসথাপক
সেকেনডে
বিরকতিকর
লাঠ
জিতলে
মোগল
গই
##েকট
মহানগরী
টানাপো
পরাইমারি
উততরাঞচলের
very
মেটাল
শাবন
##ode
দমনের
##ips
অজিত
##17
রাজকমার
জনিত
মসলি
লাগেনি
##ফোডিল
সবিধাবঞচিত
##বতীর
পরতারিত
পারবতীপর
গজে
১৩৫
রামকষণ
জটিলতায
অযাকটিভ
চযাডাঙগার
সউ
হামিদের
মনোবল
অভিযকতদের
চললে
খাওযাতে
চিরকাল
ইডেন
##দিম
ঝে
##ভাঙগা
সাজঘরে
বাযারন
দিবযি
সামনত
সালামের
মাগরি
উপকলের
বেলে
##িননদন
##খিল
বাটনে
রাজসথান
গরতবপরন
রাজজাকের
সথগিতাদেশ
করকট
নিরনতর
নিরবাচক
বডড
খোচা
সমমানজনক
জির
নিতেই
শরীলংকার
শবদটির
##নদয
##তবিক
ডাযরিযা
সকাউট
##থেরাপি
পযারিসের
করিযেছেন
##ateg
আনদরে
খোলেন
##বানা
##িসতানের
মখসথ
##ীনের
##33
##মনডল
গোপনীযতা
ধামা
মিঞা
আশান
ধারন
গদে
জনযেই
অযানডার
university
পরিচালকদের
কাটানো
##শবরী
আগরতলা
ইবতে
##েশবরী
##যাতে
বেকারি
নেতসথানীয
সষম
means
ইউজিসি
এমপির
সবরণপদক
টযাট
সদরঘাট
##চাষ
বিবরতন
ভযানের
মঈনল
ববি
এইডস
##মেয
##ade
রনা
পরিকলপনামনতরী
mus
লাঞচ
##আরআই
ডানা
লল
ঘটানোর
ভিডিওর
জোসে
##ফলে
##িমায
পৌছার
পরতিবেশীরা
পষটিকর
একলা
মোমবা
গোলাপগঞজ
নিরভল
মিউনি
এযারপোরট
অযালমিনিযাম
তারের
আটলান
চাষি
পাউবো
চাইনিজ
##ববত
সবাবলমবী
##েনদরনাথ
ডাকতারি
সরানো
সাজাতে
চলাচলকারী
কাজকে
রিযে
##রাফার
##কসিন
সিনডিকেটের
অপছনদ
ফযামিলি
একাততর
##নেসা
ভগছিলেন
ভগছে
উপদর
লিট
কবলিত
##ঙগলের
##বানধা
পরতিনিধিদলের
আগরাসী
করআনে
##যাদ
আজমল
পদতযাগপতর
##৩৫
হোমিও
আতংক
ফারমাসিউটিকযাল
গনা
অনপাত
যেটক
##েকো
them
মাহাবব
##ভাষার
##এইচসি
tweetemail
সরত
##ীগলোর
তাইতো
সামরাজযের
ফরানসিস
নিমিত
কোনদল
শনেই
সবতবাধিকারী
সননিবেশ
##মদী
ভমিতে
বরাস
যাইহোক
করমকানডে
পেইজ
সবাগতম
পাচে
উঠেছিলেন
কবিরের
উৎপাদনকারী
##নীত
হামিদল
##ize
mag
##৯৯
পরাঙগণ
উচচশিকষার
চাকার
##দবয
নাগর
পরতগালের
car
##সবরে
মযারা
বৈরী
যদধবি
অমত
ইযান
নিযাম
সামস
mic
##োলাই
পদচার
জোহ
লজজার
নেই৷
জীবনযাতরার
সংকীরণ
##লকষ
উপাধি
el
##পাও
ডেভ
শটিংযে
সামছল
ভিতরের
নানামখী
উনিশ
পপি
পরশিকষিত
ইউনেসকো
সষমা
আহামমদ
বোঝাব
যকতফরনট
##হায
হাডের
সকেলে
কারার
দেখতাম
দিনও
সযোগও
ওযাইফাই
বসাতে
বিদর
আশিকর
ভিলিযার
কাটায
জেলহাজ
গপতচর
গতানগতিক
সতেজ
আলব
তালকদারের
লিভ
লাইফসটাইল
ডিএনসিসি
বখতিযার
আরনতজাতিক
স¤
##পতা
##na
ঘটনাটা
fl
নফল
মতবাদ
লালমনিরহাটের
করযের
রাখতেন
বিনদমাতর
বেদনার
artic
ইনটেলিজেনস
##বেষী
সোর
সংসথাকে
মসলল
ঘের
জিক
ডেটিং
তদবির
ফেললে
phone
এভিনিউ
রাকা
##বিবি
বোঝাপ
ফযাকটরি
কণঠসবর
##বাসথযকর
জাযগাতেই
ঘনিযে
খামারে
আউটসোরসিং
##োধন
আনাগোনা
কংগরেসে
যগানত
ওজ
শিকড
সাবলীল
##ভরে
পাততা
দেশবাসীকে
মাদকসে
##নিম
পণযবাহী
সরোতের
অংক
##ালিযা
নিযত
##তনামা
ভাঙগন
বেলট
তেলাওযাত
জানাল
পেযার
দষটিননদন
নিশচ
বসতিতে
টারমিনা
##মণি
গালে
সিসিটিভি
##সংশলিষট
রাইডার
##মনতর
##দাকে
উইমেন
দিকনিরদেশনা
##কসিম
চকবাজার
শেষমেশ
voice
দটিতে
পনরনির
নেপথযে
##াজনিত
ভগতে
ইনসা
জীবনটা
সমপরকেও
আবেদনটি
বারধকয
বডপকরিযা
ভোলটেজ
কলযাণের
দকষিণাঞচলের
নিরাময
পরযবেকষ
ছটতে
ইনডাসটরির
##জাবে
শযাল
এইচআই
class
নববইযের
অরথাত
form
অডিটোরিযা
বিবরতকর
পদমরযা
ভেবেছিলেন
##গাহার
মাগফিরাত
সিকস
দাডিযেছেন
ফারকী
ছেডেছেন
সমপরসারণের
আতন
##যেডের
পরিশেষে
বিনিমযের
অনপযোগী
হেরোইন
##মেলার
গেমসের
টেকনোল
চিটাগ
সতবধ
##ble
সেগলোকে
সননি
দঃসব
রিসোরট
বদধিমততা
ওদিক
অট
##ানিউজ
ওপরও
লাগছিল
জানাযনি
সটিফেন
সপরিমকোর
সচরা
পষঠপোষকতা
##চাক
শেযারিং
উরগযে
গোলাপি
আনছে
সিনধ
mu
দেখেননি
উপসথিতির
list
ছৈ
যতদর
অপচেষটা
##৬৬
সপষটভাবে
বহিঃ
সমবল
সমননত
ফরিলযানসিং
ফোকাস
ইনশাআললাহ
এলএনজি
##লজি
সোযে
আবিষকত
##ham
সরযা
জঞানী
##হতির
দোতলা
ফটকে
ফরিদল
বাউনডারি
লঙকা
আগলে
অসবাসথযকর
##মবরিজ
##থিব
দবারসথ
পরিদরশনের
বেইলি
টাচ
গলফ
এযাডভোকেট
att
জানাযায
##পেটা
হাতছ
##ঞচির
ওসমানের
সচরাচর
আফসার
রোহিঙগাকে
কথোপকথন
সহসরাধিক
দাশের
গোযালনদ
সনদের
##দানকারী
##টিনে
অনতরের
দরশকেরা
##ভানডার
ফোনটিতে
তসলিমা
সলে
##ততীরণ
sk
##াইডিং
বিবিধ
##কনঠ
ডিলি
ইযো
লোন
##িনদর
সামিল
ফলেল
ইউনিভারসিটিতে
সসমপরক
অযাসিসটযানট
লাতিন
##কিস
##চনে
কেএম
##আপের
কোনোর
কোরান
নাজনীন
শভা
করমসথল
ডিপি
পরবাঞচলের
english
##পিস
##ya
মাগফেরাত
চেস
##ারির
মদরায
তথযপরযকতির
পেনসিল
##বশত
##যোগের
দইদিন
পরিবহনে
গহায
বরেকসিট
ছককায
নয৷
##বোধের
পতরপতর
ওপেনিং
অলিভ
অযাকাডে
ভাইরাসের
কাটিযেছেন
কাশিমপর
এতগলো
দারণভাবে
সবরে
কষদে
যাইতে
##িতো
পাহার
বরধন
জলাশয
সংসথাগলো
জামাতে
ur
ফিরলেন
পরবাঞচলীয
নেভি
##গেটে
বোধগময
ছিনতাইকারী
অবকাঠামোগত
ধরি
পরষকে
ভযানে
##ঘরি
##তিযা
ফরয
পষঠায
know
ধত
খবরটা
করিসেনট
বরোঞজ
বারণ
আসলেও
পরাগ
পাথরঘাটা
বাডলে
ভাডাটিযা
অনাপততি
##বলির
চাপাতি
ডম
বালাই
সবভাবতই
জেলহাজতে
বিশদ
থাকলাম
মরতে
অধযাদেশ
খেলেছি
শেযারহোলডারদের
আইএফ
ডোর
যগোপ
##মিতর
সরকারই
পরকরিযাধীন
ভীড
দোষীদের
চোষ
টারমিনালে
অযাভিনিউ
চারবার
পরাণি
পযালে
বেডানো
পিলার
কযাশার
শোকে
টেকটি
আলামিন
বরাদারস
dhakar
তাণডব
মহকমা
##হীনতায
ঋষি
এমআই
গণফোরাম
বাফফে
##লাইসিস
বযকতিতবের
কাটান
নিঃসব
##টমহল
pm
ঈসা
ধোযার
##যনতরিত
##ানীতে
ছেলেটির
ইদানি
পরতিচছবি
খেযেছে
##সরি
অনতরা
কষতিকারক
টাঙ
বাজেযাপত
গরাউনড
কেশবপর
##দারদের
সানতা
পরসিদধ
##বাহি
তাবলি
cre
পব
কিনডার
অপবাদ
উৎকর
উনাকে
নারীসহ
উঠি
আখি
ওযালপেপার
জাকারবারগ
কনের
2013
সোহান
বিকরযের
কাওসার
চলেছি
দিপ
##সমেনট
সারারাত
ঐশী
##ইউর
মনোনযনের
সতমভ
নিরীকষার
দিনগলো
অনেককেই
বিসতারের
##মাসটার
পসতক
দেখালেন
ফেলেছিল
দাযবদধতা
এসকে
সমমখে
কলাযেনট
##পাচার
রাতভর
লঞচের
সহপাঠী
##কচি
##োযান
পরানতের
বিতাডিত
মাতববর
গডায
দেশই
পরসেন
বিশবমানের
##াহিতয
আমেনা
বারই
কমির
অবমাননা
গরাময
লেনিন
খরা
খরব
সনদরগঞজ
পরিসাইডিং
##কানদা
photo
##িসটিক
বাহর
বিছানার
অযাটলেটিকো
##যাং
সরষটা
দরপণ
##ord
সমপরিমাণ
##তিযাক
সাবি
অসতরসহ
গডেন
ডারক
##ভযাস
যোনি
ভিকটোর
বনধতবপরণ
দিরাই
১২৩
বযেট
মসকোর
ফাতে
মাখিযে
টিলার
গরবের
##দধেয
জলজ
ছিটমহল
শটকি
লাস
##দদী
নিশচিহন
##মলযের
ইউনাইটেডের
কদম
টাল
##ton
হাটর
শরীবর
কষিমনতরী
ভৌগোল
করমি
পরশিকষন
জিনিসটা
full
##োননত
মারেন
কমারখালী
রিসিভ
অযানিম
শরণাপনন
জযামাই
ওযারি
##ওযাশ
আনিসজজামান
কলিনিকের
হিজরি
ইদানিং
##ek
গরযাজ
উরবর
হরণ
সংগঠনগলোর
অকসফোরড
আসতানায
##সকাল
শোনে
friend
দধে
##ex
মলান
##দলে
ইউরিযা
সৈকতের
##সমপদ
বাংলাদেশীদের
##прж
বিকরেতার
সরমপ
অরথবছর
কৌশলের
সাধারনত
পারফরমযানসের
মহাজোটের
নিতাই
রযাঙকিংযে
বিসিসিআই
##ইর
##মগধ
খাওযানোর
টঙগীর
উততরণের
সিদধানতকে
শরমিককে
খটিনাটি
এমএস
সাকো
কমেডি
আগরাসন
##amil
মনসীগঞজের
সীমানতরকষী
১শ
দেবদ
নামাযের
পরতীযমান
ডবল
##hor
উততাপ
মোরশে
শিখিযে
এরাই
ধারমিক
##োগরাফি
##বিদদের
নেচে
অরপিত
আজগর
ডেথ
পতিনের
পথচারীদের
বেপারী
যগানতকারী
##সমদধ
যতনে
সজনের
##পতের
ডযাফোডিল
শশী
১৯৭৭
টনি
বসতির
এগিযেছে
বরাবরে
হজব
পরতিবছরই
তাৎপরযপরণ
টরিবিউন
ভেল
##girl
আনষ
টিসি
গরামীন
১৯৬৭
উদাহরণসবরপ
জাদঘরে
##কিলোমিটার
ফিলিপাইন
oct
পরোদমে
গাজর
রেষ
মেযাদী
বিঘনিত
জবানবনদিতে
##মেইল
আকরমন
বেলার
##ডরো
অসতিতবের
##গমন
দমকল
নামই
রজব
##মাসের
মনীর
সদসযপদ
বঝতেই
##চেন
এএইচ
সতরগলো
বিনযাস
১১৭
##টমেনটের
ঝরণা
বিকট
জিনস
হারডওযযার
বিএসএফের
অনসর
এখনি
গণে
একবারও
চোরাই
##ষকতায
##ংসনীয
অনী
জীবনযাতরা
মিনারের
##কেশনের
একসপো
সপতাহেই
চিটাগাং
গযারানটি
##fuck
সহযোগীদের
আযতনের
ডরপ
gl
দোহাই
টইটে
আইডিযাল
over
অটি
##বিষ
##খনড
লিপস
ডাকতারদের
থিও
##গযের
গরতের
##টিরও
জিদান
মৌমা
মেসেঞজার
হযানডসেট
সমতিচারণ
ইরাকে
তরযী
পযাচ
##ives
কারাদণডের
ডাকস
উডড
জাভেদ
আরথিকভাবে
##গরাহী
school
গদয
পরতিবার
##রিশ
সমপরীতির
ফারকের
সাকষীর
আউশ
শখের
মিশরিত
পলিস
তিশা
শামসদদিন
##সংস
কনড
তৌহিদ
তাহাকে
ওযাসিম
মোতাহার
hy
ভটটো
তথযান
ফাহমি
যতরততর
শঙকর
নাগা
২০৪১
অরন
##কসিডেনট
কেবিনে
দাব
পরাণহানির
আশানরপ
##lect
দানের
পঙ
নকিযা
বিপিএলে
রাতরে
পিরিয
ever
সিগারেটের
ঘমো
কোযান
ফরেনস
সংশলিষটতা
লোহাগডা
এইখানে
##বরগের
শকরাণ
সরদি
তিলা
নলকপ
১১৬
পরশিকষণে
অভিভাবকেরা
তিথি
রাদিযাললাহ
মিলল
সনতরাসবিরোধী
অনষঙগ
আলাল
##দারী
##60
সরসব
ঝকঝ
ডেমোকরযাট
পরশংসনীয
সাতটা
পরযাকটিস
হাজীগঞজ
সাপলাই
কলমবিযা
উজা
সরোতে
থাকাটা
করোম
ডেলটা
সবকটি
ছোটগলপ
অগো
ওসব
বযপারে
শতাবদীতে
কোলা
তপত
পটি
পদার
চাকরিজীবী
সিনেটর
সকিল
rel
##জনার
চলত
ছডিযেছে
জনপরতিনিধিদের
গেমে
হাওযার
খাদযমনতরী
ফরেকস
উদবাসত
চিম
দেখভাল
আলটি
এমসি
আশাকরি
শকতিতে
নিঃসঙগ
কনফারেনসে
red
##ামাতর
##আরএম
পনরবাসনের
বাসদ
পারে৷
ওযাং
ওযেসটার
লটপাটের
গেথে
php
##рззрж
অনিক
##ছাতরীর
ধরমাবলমবী
সননাত
উডতে
হিজরী
লোডশে
##ানন
সাবের
মঠবাডিযা
good
##ওযারক
অনেকখানি
বাংলাদেশিরা
অভিধান
ইযাম
পকষপাত
ফাযদা
মেথ
ধরলে
শাকসবজি
মানায
ইউকে
এনএস
এদেরকে
বীরয
ভইযার
গোদাগা
রাহলের
লেটার
ভমিহীন
also
bn
পরাত
বাসনা
সটোক
২৭টি
গরাহককে
চাষী
চিরতরে
থাপ
মিলিটারি
কৎস
ছেডেছে
মহাসচিবের
তাততবিক
পরযোজনায
##গোডায
লেগেই
তিনি৷
উদভট
পঙকজ
32
অশাল
আকল
##পতিবার
ডাযেট
##নক
##দরী
##কোটি
পযাড
থিযেটারের
##দননবী
সঙগীতের
nat
##দাযী
##টিংযের
সেব
আলতো
আবব
উঠবেন
রববানী
রমেশ
খশ
কোরিযায
sur
##ধরণের
কেউবা
শবাসকষট
high
চরের
##কটে
##াকাঙ
ঘরেই
উভযই
বযঙগ
##পযাড
যগোপযোগী
ভাবল
আমাদেরও
পডতেন
মসললিদের
শরীযতপরের
পচে
##ঞজিং
##লীয
সরদারের
জিযাউদদিন
পলাগ
pers
হসতানতরের
সিলেক
##ফরেনড
শিখেছি
মাতিযে
##বরী
বসছে
শাসতিমলক
জিডিপির
রাজনীতিবিদদের
##জগতের
##সঙগত
দেরী
করোধ
নগরবাসীর
বেচাকেনা
ভঙগের
##বাসি
চাইছি
##সিতে
##ধরষ
অসমমান
এএফপির
কাঙখিত
##গরম
কষমতাসীনদের
বসনতের
অডিটোরিযামে
##বসতি
জানালেও
হাকিমের
সিঙগ
নিখিল
আসামীকে
##দধের
সনদপতর
বাযোমে
শাহাব
পকষই
রাযগঞজ
সংঘাতের
ভিজিটর
চিতত
##বাটা
আদরশে
অনতরবরতীকালীন
##বারি
##দেও
রেকরডিং
মঞজরি
শরমার
হাসিমখে
বশে
মযালের
##ale
##ভরষট
পারদরশী
আইএ
হরষ
ডাকতাররা
লসকর
ইশার
দরঘটন
##গেজ
উজির
##মেটিক
শাহনাজ
সেনাবাহিনীকে
দৈরঘ
এমবাপ
জেনডার
আইভী
মেনেই
মনেই
এলাকাটি
##পরযকতি
ডেনমারক
রেলসটেশন
##তলের
বলকে
শরতা
রোপন
কপিল
ভেটের
উনম
এযারটেল
খডে
আহার
ফাজিল
ডাসট
অরবিনদ
উলটা
কনঠে
আলেকজান
##মাদের
শিডি
সমসযাটা
গরহনের
দীরঘকষণ
##ision
উনমোচিত
সফরকালে
story
লোডশেডিং
মোনা
মোশত
ছাটাই
তরটির
হইছে
পযসায
খজছে
কসংসকার
ঝামেলায
হাথরসিং
উচছেদের
উপসচিব
ফলশর
সডকটির
পথকভাবে
জনসংহতি
ছদম
কিছকষন
সষটিতে
মমরষ
##ণাম
##চান
ঢোকে
##াযনে
যাতরীকে
পালের
রযাল
বলট
বলাউজ
আতমরকষার
এমবিবিএস
##াজল
খাযর
৭৫০
সংখযাগরিষঠতা
৩নং
সানজি
##মারচ
হলফ
পরেন
পাডকোন
সেলিমের
ইননাল
উযেফা
অনাস
##পাটি
##তমানের
##সাইড
টরানসফর
হশিযার
ভাডায
কলঙক
ফারনান
গাডিচালক
##রমের
##পীঠ
##লীগের
গালিগালা
বরিফিং
তরণেরা
পাঠযপসতক
##ীমার
##ст
বিযার
সারাজীবন
দঃখে
##শপর
বেশিকষণ
হউক
বলছিল
লাঘ
মেকান
তৈযব
সংসথাগলোর
ডিলিট
like
হিলি
নাযকের
##সমপাদক
তাহারা
সটিভেন
একন
কোরআনে
অযাডমিন
পরজাপতি
অফি
উঠতি
শিলপকরম
ভাষাকে
##পশ
বলগিং
##মাবেশ
বরেন
##শালায
বশচিক
আলফা
সননত
অমসলিম
৩৫টি
অশালীন
হরেক
মাওঃ
তাকাতে
##লেহ
খেলোযাডরা
শরীলঙকায
ইতালিতে
পেটরোলিযাম
##ভযান
##৪৪
##alk
ভমিধ
দবীনের
জঙগলের
সচিতরা
বছরগলোতে
##মললাহ
বিষণন
ban
বিটক
ফলেই
সনতানেরা
##েশান
রাউনডের
সেমিনারের
মতযদণডের
সবরণালংকার
তীরবরতী
fil
বযাচ
রেললাইনের
শাহিনর
ঝিম
টরন
##বিতা
##হানের
সমসযাগলো
শরাবণ
গনে
##তাত
জাননাতের
শাহান
মসলিমরা
রংযের
আলোকপাত
আদমদী
ছযজনকে
শৈলক
বহিষকত
চনদরা
টেলিফিল
এজনযই
##বনিযা
বরণিল
সতরকতার
মেলাতে
টাওযারের
থাকো
জেনারেশন
সবহান
মাসদা
##con
কষীণ
গলযা
শাহাবদদিন
আডত
অঙগরাজযের
##জিনা
২৬টি
তৎপরতার
##চট
##যনতরণ
নিউজকে
নিষঠা
থাকাকালে
ধানমনডিতে
পিঠের
বাঙালিরা
করজ
##বহাল
##তাযন
কোমপানিকে
শযামনগর
##সামাজিক
ডাযাগনসটিক
টাইবরেকারে
ইমো
ডাযন
##রীন
##ডিসির
রাফ
##িটেশন
মালদবীপের
পরকীযা
শরদধেয
মহামানয
##ভাঙা
নামানোর
চোটে
##let
বিদরোহের
আতিকল
সথাপনে
সংশোধনীর
উদযানের
নারসার
শেযারপরতি
শোনেন
##ডিশ
বোযিং
সমপরককে
পশচিমের
নাসার
##সীমার
নেইমারকে
দঃসাহ
হাউজে
হতাশায
নডিযা
##াসং
চডায
ঠাকরগাওযের
গাজীর
টারন
কযালরি
রেহমান
##িকসের
নিউর
জনপরতি
##ভিটা
কালচারাল
সারবিকভাবে
wind
বদন
##মীরে
ফোরজি
৩২টি
হাবিবল
##শাসক
text
##30
##ননবী
##গাদা
পদসথ
বিসফোরিত
শাযখ
##বারী
জামানত
বসল
##ফাইড
আমম
বছরেরও
খাতকে
আছাদজজামান
##গচছ
রাজপরি
১৫ই
##পালন
অভযতথানের
অসতয
গণধরষণের
কারল
বউযের
উভযেই
হাসেম
ওযাকত
গলোকে
কেজিতে
তাৎকষনিক
ফতোযা
এইচআইভি
##ফিউ
ভেতরেই
পরতিরকষামনতরী
পরজ
বেক
##রণীয
জামাযাতকে
১৪২৫
জেরার
খামারের
টেকনোলজ
ফলযাটের
fucked
##মেনটে
ওযেলফেযার
পরসিকিউটর
মোহামমদের
টেপ
মঞচসথ
শানতিনিকে
দাশগপত
করিবার
মসতাফা
বোলট
অই
হযাপি
যাদেরকে
গলাচি
মারাতমকভাবে
হাযদরাবাদের
অনযজন
##ural
বিভকতি
রিযার
১১৯
বাচচাকে
এনএভিপিএস
বাধতে
চষতে
বঙগাবদ
সসংবাদ
উচচপদ
শিবলী
##ission
বযাঘাত
সচেতনতামলক
সমানভাবে
##বারা
আরএসএস
দেখেও
sent
পরসতি
অধিবেশনের
উইকিপিডিযা
বৈশা
সিডনি
টিসয
##এমের
##ধানো
কষেতে
##istr
মলতবি
হালিশ
##ভাডা
রযেছি
শাহনে
তারকারা
সকোযাড
##ca
মারকায
##োদর
সংসকরণের
পরিমাণমতো
ডালিম
অবিচার
সটপ
মরিচের
রঘ
আগামীর
সমাধি
টাকাসহ
বেধডক
##বশয
##সিযা
বরাতে
পরতিনিধির
##12
নাবয
পাযতারা
দোকানি
জনেই
সারের
ডরাম
রাকাত
আতমজীবনী
রমানা
হকিং
##ঙর
শরতের
সমদরবনদর
পরতিবেশীদের
লডতে
follow
মধপর
পাসপোরটের
রাববল
বারনিকা
ঐশবরিযা
use
এব
##মতয
শরেয
পরষরা
মাছরা
হেলালদদীন
চিলি
সালেই
কবরসথান
বাঘাই
অনযভাবে
##ফিকেশন
যৌকতি
সানরাই
##াকেনদর
পরশাসনে
##লিমেনট
আকতারজজামান
ভিকটিম
pay
নিযেছিলাম
বেচা
পিযং
উদধারকত
ইমদাদল
বোলাররা
সদসযবনদ
জানাযা
সিরাজদি
produ
ডিও
বিরতিতে
কারযকরের
অগনিকাণডে
বসলাম
সদরপর
গাজার
ধাতব
rsquo
best
পরাচয
##োয
১০ম
রেজিষটর
মফিজর
দিবা
health
কলোজ
অডিট
##মিলা
##গেই
মযাপ
টাইপের
পরথাগত
রামর
রেকরডের
##ific
বিজযন
##সদন
রামপরা
চডানতভাবে
যমজ
মলযসফীতি
আদরের
হিমেল
ভাগযবান
জবলছে
dog
ডরিম
১৫০০
নীতিতে
পরজঞাপনে
ঘরম
##বযবসথায
সযোগের
উঠেন
##বিং
সরকষায
দলও
##মনার
ওযাসা
খপ
ছডাচছে
click
হতযাকানড
##শচিত
##৩৮
অংশই
অরথহীন
কযাব
কলিপ
পরিবেশগত
নববরষের
দরকারি
গাযিকা
অঞজ
উদীযমান
সশানত
মলযবোধের
রকতকষযী
হাতছানি
ডরাগন
মহাম
##যাসিক
সংসথায
কেরাম
শরাবন
বৈশাখে
##বিস
রাজপথ
আনষঙগিক
cent
wom
সাকা
দাযভার
চিতরশিলপী
আসামিপকষের
নিরগত
টরানজিট
এঘটনায
ফরেনসিক
ইলাহ
সখয
##ডিনে
সরফর
পরিযজনের
বিধবংসী
পেলো
এলিজাবে
আযারলযানডের
গোযাইন
২৮টি
##ানসই
মাতরাতিরিকত
কইজ
বানদরবানে
কযাটাগরির
অবযবসথা
নাইজেরিযা
উহা
পশচিমাঞচলের
ছতরভঙগ
দপচাচিযা
##পরবের
দেবের
লালা
ঠিকভাবে
পরশনগলো
show
অতযাচারের
বাপপী
ঝট
গণভো
##ঙকন
##ইউজে
শিরোপার
ইচছায
bol
##িসার
বযকট
লালপর
সাধনার
##ipur
বাকের
##চরি
##ইসট
সটোরে
গণফোরামের
পরণোদনা
##েসের
বেশিদিন
সাধবাদ
ইনসটাগরাম
##োগা
গরো
রাখতেই
টরেনড
১১৮
ফটোকপি
সমপাদনের
দরতগতিতে
বাচানো
##াতমা
যৌনা
চাদাবাজ
সযাটেলাইটের
অনভি
রাশ
সটলে
কচযা
ইজজ
অযালেকস
সাধারণের
##জরির
এসেও
পরিবেশক
সামপরদাযিকতা
যোগসতর
কযাসিন
লিখেছি
১৯৫৪
শকনা
ছাতরছাতরীরা
old
##৪৫
উদযে
দইজনকে
সেনার
কলারোযা
বাউফল
তাকালে
##ীযা
##তরণের
যারাই
সবাধীনতায
শামীমা
জযাকসন
শরফ
জীববৈচিতর
কালচার
now
some
শাকিবের
সওযাব
##ভানস
##িনগর
##কাও
বরিস
bh
মানানসই
দেখেছিলাম
ডাকতে
ছযজনের
কলিং
##69
##উডে
খোডা
মাযেরা
##oss
সবভাবের
বরজোযা
name
##বকস
উঠলাম
পরোগরামে
অরথনৈতিকভাবে
november
সামল
ভবিষযদ
পবিতরতা
ইততেফাক
hard
টথ
করমপরিকলপনা
চেঞজ
##ধারীরা
জিযাসহ
##কাজে
অকষত
মোমবাতি
লিক
আনন
##োসটের
মাইগর
খযাতনামা
একইসাথে
ডেসকটপ
বেলাযেত
অধিবাসী
নেল
কষণন
আসতো
কারচপি
সাজজা
ভৌগোলিক
লেখিকা
বাণিজযিকভাবে
উজাড
হওযাটা
##ica
নিরিখে
লণঠ
সননাহ
পডেছিলাম
কোরীয
newspaper
মনোযারা
##শবের
মিলান
যেমনটি
পরাককালে
সকে
কোষঠ
জিপ
##ললা
বাতেন
##োসের
##ভাবনীয
tv
ছিট
তোরা
##গরহী
তহবিলে
কমের
শাসকদের
রপসী
মজমদারের
কিডনির
বডসড
বহিস
কাশমীরে
বিদযৎসপষট
অমলয
##নেট
##কলপে
নিরদেশিকা
কমপো
শরমজীবী
deve
ফরিলযানসার
বব
আরোপিত
রোমাঞচকর
বাংলানিউজ
নেশায
মাগরার
ফিনি
ধরল
নিরদেশক
মনদা
পরতিবেশীর
##পটের
সংবাদপতরে
সংসপরশে
অভাবনীয
সিকি
রাবী
তিনেক
খেলেই
থাইলযানডে
ধামাচাপা
রপির
২শ
##কামনা
থারড
ওরে
ফযাসি
রাকিবল
ওপার
##সানা
তিনটে
রোহিঙগার
শলীলতাহ
ঐকম
##তযাগের
পচিশ
এমভি
ওঠায
##উকের
পরাসা
খেত
গালিগালাজ
রিযাদের
ষডযনতরে
ইনসযরেনসের
##টরাকশন
মদী
উননতমানের
কাউনসিলে
উপসথাপিত
কযালিফোরনিযা
একসপ
ভেবেই
রাধা
##সবের
রেইন
কযেকশ
লোম
রসের
পাঠের
##ফিট
অরগানাইজেশন
ফরযাঞচাইজি
##খশি
মিলক
2010
##গলাস
কাহার
বযাগের
শামছল
ডিএসসিসি
ওযারেনট
অসমপরণ
শীতলকষ
বাথরম
আপে
##ানিজ
কষতিপরণের
অজানতেই
##ience
বিততব
মিলিগরাম
##ফলের
##ফরের
নাদিযা
##88
১৯৬৫
ইসলামাবাদ
ভযালেনট
উচচপদসথ
৯ম
সাযেম
অসটরেলীয
ডিএসইএকস
পরাইজ
জিতবে
অনধর
আশলিযার
টাইটান
##ime
##িনিরভর
ইজতেমার
পষঠপোষকতায
টাইটেল
হসতকষেপে
শরবণ
সংগঠনকে
পাথরে
আদিম
দরহ
ঘণয
##৭৭
নাবী
ইহসান
##press
তানি
ইশারা
সানাউললাহ
বারা
একশো
##এমএস
বিসিক
##ততার
অফিসারদের
ঝকঝকে
যৌকতিকতা
দেখেছিলেন
educ
চারলস
বাহযিক
পরিবেশবানধব
গারদিও
রকতপাত
লোভনীয
##বামী
নিরসনের
এসটেট
মৌলবাদী
রঞজিত
##খনদ
অবিশ
থাকলেন
যানবাহনে
##থনের
গরজন
##ories
##বযাগ
আরকাইভ
লিটনের
এলাচ
সমযেও
ছাডবে
খেলোযাডকে
পনরমিলনী
আচছনন
বনদে
ফেভার
মিডিযাতে
দীঘিনা
বযাঙকের
সারাদেশ
##নতন
সেলের
চাইল
সাইফললাহ
উইলিযামস
অপরা
##কলিন
##পদধ
##তানিযা
রাননাঘর
##সেনস
এজেনডা
##বাবা
##ফিলড
আমানতের
##iet
anal
উপমহাদেশে
ওমান
##টকই
ফারসি
##দবীপ
##৩৬
সিংহের
cum
পোডানো
হাওলাদারের
গিলে
serv
পারফেক
মানষটা
নরন
নিতানতই
আমমা
সমযস
কযেকদিনের
পরভাবশাল
ঝাউ
৫নং
ফরমযাটে
সজান
দারিদরযের
দোসর
ছডাতে
সেফ
বযালন
নবনিরমিত
ইউকরেনের
বলতো
ছাগলের
ঢাকনা
##বহা
কণড
রগ
##গাতি
মোডানো
মিলনাযতন
সামযিকী
চমকপরদ
বথে
##কতায
কেজরি
##বহারের
ফেরান
শাসিত
হসতকষেপের
##ঘনটা
পরিযাঙকার
নথিপতর
কঙ
আকষর
##টিআই
খেযা
জঞাত
most
##কলি
খাচছেন
চলচচিতরটি
বেরিযেছে
সেদিনই
এএফসি
আরতনা
অভিমখে
রকিবল
bas
তামান
##রোগ
করযা
##uary
##করড
কেপ
##ark
মাননানের
তারণযের
পালক
১১২
চযামপিযনশিপে
কোপ
হাঃ
##িংযের
কারনেই
বজরপাত
জৈনতাপর
সামসল
তরণকে
বযাকগরা
##দমন
রহমতে
অপরতল
ছোটা
av
দরভিকষ
হোলডিং
bre
চিলডর
সহনীয
মাধযমেও
কারাবনদী
বিডিআর
##টসের
বিচলিত
সাফাই
##ঙগনের
আবধা
ইনজরির
বসবেন
গণসবাসথয
জবরে
বাষ
সমনবযের
##টজ
##সমাজ
কষমতাধর
মনতরনালযের
ইহর
রবের
কাতর
কিচছ
##লল
##৩৪
উপকরম
১৯৬৪
##বিলিটি
ইহদী
নিমজজিত
##াসম
সিংডা
##জিতের
পরজেকটের
বযসি
মহামমদের
ধরলেন
##ony
বম
##বেজ
নিরসতর
খরিষট
সকলেরই
ইউপিতে
পরতযেকটা
অনধকারের
পরিশোধিত
##তিরে
আসব
লিবিযা
ফারহান
হৎ
পাপের
##বরিড
বেজায
শেখর
পারাপারের
পিবিআই
টরেনট
গলেন
পরতিবারই
ননদিত
article
নিরদেশনার
চরিতরটি
রির
নরওযে
নাযিল
বিজিএমইএর
ইনকিলাব
৩৬০
অচলা
রেসতোরার
ইডি
সকালেই
সনতানরা
চযামপিযনশিপের
##stem
দলগলোকে
ইংলযানডকে
কিউই
লাখেরও
এযাক
নহে
ফিরবে
পনথায
পরাযশই
ফযাস
মদের
শিকা
মককার
উদবেগজনক
কটনীতিকদের
من
নালিশ
##পেজ
##ins
ফিরোজা
জিননাহ
real
##ster
লিবারেল
##বিভাগের
পাখা
এরদোযান
পরিবেশিত
তৎপরতায
আসকতি
আপোষ
গাউ
করিযার
তললেন
বেকারতব
আনতরিকতার
সতবেও
##ামতে
সনতরাসবাদের
অজি
তারণয
পথচলা
দোলা
বেহা
উদযোগকে
ভটট
##৯০
##মিশে
খাটিযে
এগলি
আরথসামাজিক
তেতলিযা
ডাইন
##ভোট
বৌদি
ওযেসটারন
mas
সেজ
পারিনা
##মনতরণাল
লেখন
##শরীর
ফেলবেন
বোঝানোর
শীতবসতর
খোজাখজি
hum
বিহ
পনরদধ
বালিশ
মাহমদললাহ
ডেনমার
হেলে
##ঈনদ
রেসিড
বীরভ
আরাধয
বদধিজীবীদের
বিরিযানি
লবন
লাগায
##ital
বসেছিলেন
সসথতা
##যযা
##জিনি
উদভাবিত
দযাল
কোসটার
আলীক
##ভরানত
জাতিসত
ডানে
আরেকজনের
শাহরখের
##বারগের
শিপন
ফাত
সজিব
##দেহী
ডিআর
##সমরণীয
ডরেন
তীরের
রবেলের
নাবিক
বযাংকটি
সাদে
কেবিন
মহাজন
বরত
সমযকে
অপরিকলপিত
সংসকতিতে
##বাগি
সংবাদমাধযমকে
num
##চছিলাম
সযোগটা
গরেপতারকত
inv
bank
সলাত
কলমবিযার
##অযানড
মাখা
বেত
রাখল
গহি
আমে
পরিহিত
বিএনপিতে
হেমাযেত
কালকিনি
##টিফিকেশন
হাউজের
এগোচছে
সটারটআপ
পনির
মাইকরোবাসে
দালালদের
ডরেস
মাঝপথে
এডানো
সেনাবাহিনীতে
ফাহাদ
কাননাকাটি
অঘটন
শিন
জানলাম
পারশবে
নিরধারণী
সমাজসেবক
হনী
##হরি
##urn
##চনীয
বনদকযদধের
শবেতা
ছই
##দযের
আসামে
পোলিং
এডিটর
উততরায
লাগোযা
টেররিজম
##ধযায
হাটি
ফারমা
সলভ
রিকশায
করদি
##পরণা
নিউমারকেট
বিসমিললাহ
aw
কষমতাচযত
সমানে
বিধানের
##over
রেজিসটরি
কামিল
গোলাগলির
পদারথের
##ইযং
গাডিবহ
##পরতিবনধ
##ird
##ানদার
##লাকত
সবীকতির
গাছগলো
বোযা
##করিপশন
সাতকষীরায
##ধরি
##ওহর
শনিযে
পডালেখার
মেযাদো
pres
লেগনা
কযাথলিক
page
আগমনের
##বিলার
এডিপি
লোকসানের
##গাস
##কডা
ফরাই
যেমনঃ
##ঘরষিক
##শারী
কযারিবিযান
নিকাশ
দাবান
জাসটিস
এনবিআরের
বাহারি
হারি
##োগরাম
শনন
সাফলযে
তাকায
সংগে
৬০টি
ter
বকা
মনমোহন
দিনটিকে
ভরানত
ফরমালিন
অনতরভকতি
er
##যানসের
##ঠায
##ানোযার
সবেদার
##বাতি
রহসযের
হওযাতে
উচচতার
ধবংসসত
ের
সহা
##মপট
শিখর
##াকানদা
চিকনগ
নেতানিযা
অরণয
লিফট
ফেলেছিলেন
কঠোরভাবে
other
তরণীদের
ভারতীযদের
গোডার
পরশানতি
বেশীরভাগ
rah
আমতয
অশেষ
##নাশের
পারলো
বারানদা
কংকরি
দৌডা
১৯৬৮
##বৎ
বংশের
পরিপকক
child
হরিপর
গভ
##রিক
পরবাসীর
সাংঘরষিক
##শীপ
ইঞজিনের
##ute
মমবাইযে
থেরাপি
হেরা
চললেও
কালিহাত
যকতির
##লেশ
পরতিদ
আজব
১২০০
ওযাহ
মতযকে
উপনিরবাচনে
বিতত
১৯৫৮
উবার
sing
রোদের
বঙগভবনে
গঠনমলক
দালান
শঙকিত
##শঙকর
হরতালে
বাকসে
জনগোষঠীকে
বিকরেতাদের
সাজিদ
দাডালেন
শতরতা
popular
দন
##ংশা
লটে
##লাওযার
২২০
ঝেডে
অার
##তারের
তাহলেও
##arm
অতরকিত
ফিলিসতিনিদের
রিটের
হাইবরিড
যনতরণায
##ভঙগি
##ов
বইটিতে
cor
ফোরামে
চকচকে
আগরাবাদ
আমবিযা
অনদানের
##নিষ
##লামি
ভিডিপি
পরসতাবটি
ভকতের
অবহেলায
লৌহজ
শযযার
হাসিন
শরীফল
ধরবে
সইমিং
ইঞচির
##40
উচচপরযাযের
বইটা
টেকনো
গডফা
১৯৬১
কেরিযার
এথ
কনিষঠ
কোষের
নেকস
দেখাই
##তবপরণ
ভিততিতেই
পরজাতনতরের
##জব
##পরযনত
থাকেনি
টিযার
সইডিশ
সবৈরাচারী
দিবো
এযারওযে
কাশমির
সমীর
দরধরষ
টিচার
আনদাজ
যানজটে
নিপীডিত
তেতল
আলবদর
love
মানষগলোর
##সমপরণ
সচেতনতার
mo
international
কারলোস
অনষট
##ese
নেশার
পরিবেশনের
ডটকমের
সকি
##দিরা
##তরিশ
সিভি
শাহের
ইউনেসকোর
##enn
পলান
বরণন
শিকারের
সফটওযার
ইযাসির
ঢালি
কেনেন
চযামপিযনশিপ
সযাবিন
অগরাহয
পতরিকাটি
ছাযায
বিজঞানে
এডঃ
অধিষঠিত
##tion
##দনীয
বিএনপিসহ
ভাডাটে
##গরভে
দিশা
ফিলিং
তনময
হেস
লিগায
কবিদের
বাযেজিদ
শপ
বেকিং
বেডানোর
ডাযাবেটিক
মোকাররম
জিস
##রায
##মাহ
হাজারে
তৈলাকত
চযালেঞজিং
গেমিং
সালো
সরজ
সাহারা
সফটওযযারের
টাসকফোর
##abad
সথানানতরিত
লেখালেখির
গঙগার
##তনয
উসকানিমলক
##িযেনট
উপনীত
মলধারার
সটেটের
বকষরো
রেমিটেনস
জনপরতিনিধ
বলায
মরার
পরবশ
উইকেটর
তালেব
সনিশচিত
বইগলো
১২৬
এফবিআই
কোণ
নিযমান
গামছা
দেখাশোনা
অহর
গণপিট
সতনের
একাদশের
নিবনধে
mob
কসাই
অতল
পতাকার
ছাঃ
এফসি
রিকর
##ঝিলে
##বরণের
একসপের
শভকামনা
##৩১
নাভি
বনধবানধব
সমাজবিজঞান
##কোহল
পরতিবেদককে
ইহার
৪নং
##খাতের
দিকেও
বাজানো
অযানটিঅ
পরযবেকষণের
চমেক
##ীকরণের
জঙগির
lim
##লেনদ
হতযাকারী
বংশধর
মাছি
কষিক
তোপ
##eral
হাতী
সোনম
জাসটিন
তডিৎ
পটাশিযা
সংবলিত
ঈমানের
পতরে
সথানটি
ততীযবারের
হোচট
সবাচছনদয
মোসলেম
পলিশসহ
আটকাতে
##যক
কচকা
আনাস
শোতে
##iii
কোমরে
অসতরশ
একপাশে
শনিবারের
হরমোনের
চারদিন
সরিষার
mark
মারসেল
##কমকত
কযেন
বেকসিম
##hman
পিষট
##oll
দইজনের
জাটকা
অবসথাও
৩শ
নিরধারণে
নরদ
##illa
আলাপচার
ইসমা
সামপাও
লকষযমাতরার
এলপি
সতযাযিত
ঈরষা
জামাকা
##পরণে
ওযেলস
মখেই
এসবই
মরখ
##াপততা
মিনিবাস
ওমরাহ
ইনফেকশন
পিকনিক
offer
পরীকষামলকভাবে
পরল
বিংশ
আসলেন
ঘটনাগলো
আযোজকদের
##মহলে
এলার
##ri
ছোলা
কেনাকাটার
ঘেটে
কামরন
লারমা
নাযেবে
raj
সাইফদদিন
সিদদ
##ين
জাতীযতাবাদ
bit
##ীকত
##ষটিক
নিকটে
পজিবাজারের
ইভটি
##করার
কষির
##যট
নাডতে
কারী
##গরহের
কলাউড
বেজ
ভালোলা
##ামারী
অসহযোগ
ইখ
সনদরবনে
শারম
live
চকো
লঞচে
নিযাজ
ভাইজান
জাতিকা
হালিমা
window
অকে
দসত
পরডাক
মানবাধিকারের
##ফাযার
আনতরিকভাবে
রকমই
দাযেরকত
নিযনতরনে
রাখব
বিবেচনার
here
সমকালীন
১১তম
জনসচেতনতা
ইলেকটরিকযাল
##৩৭
পারভিন
পিপল
মিরর
কানড
শযামপর
ভরমন
ফেরেশতা
##ower
নিজামীর
##দাতাদের
কযলার
সোসযাল
সংকর
নিরপরাধ
শরকরা
মাথাটা
অযাকাউনটের
বাসচাপায
শারশা
after
আমারা
##কোষ
মসজিদটি
মাশল
অনসনধানী
সযামযেল
চারটে
বানদার
ভোটিং
ঠেকানোর
ফসফসের
কটন
##wn
আইরিশ
আদিল
ফিঙগার
##arta
সচছল
মাউস
সংকরাম
ফিলি
শহরকে
বৎস
ফাটিযে
চিরির
বাসতচযত
অকসাইড
চেকপোসট
##রিং
পরকরিযাকে
একবারে
বরগকিলোমিটার
দবাইযে
সসং
হজে
##াসী
জেনেও
পরোডাকশন
ঠেলা
থিস
##বাদন
বনানীর
pat
বোক
বিপণি
খাদযশ
ইনভেসটি
দিতেও
শাহবাজ
শিকষাবযবসথা
দরন
জিনদা
সাধিত
মনসিগঞজের
##gb
পরাসত
কাকডা
##বৈশাখ
অবযবহ
##ওন
##াকারীদের
জেএসএস
পরজঞা
পরহরী
শিডিউল
কঙগনা
##পাডে
##ভিটি
সাহাবী
##সকি
##ষেকের
পনডিত
##আরডি
বামন
ওযালটনের
শরেষঠতব
সরবসমমতি
##বিপরবি
মাদ
অভিভত
লিমন
অনদরে
হতাম
##ডিপির
পরতাপ
সষটিকারী
১৩৪
ভোগেন
মেহমান
সফিকল
##হাকে
বিষের
চকরিযায
ঠাটটা
কপিরাইট
ধবস
watch
##েড
রাঙগা
লাইলা
ডের
##15
চযাটার
ধোকা
বলগারদের
উপারজনের
জলাবদধতার
তরফদার
এগলোকে
দেখবো
রাজধানীসহ
bj
খলী
##াযত
সিমপ
করিবেন
রকমে
সেলিবর
##শিদ
চাকরীর
ভাবিনি
বিশবাসকে
পরসততকারক
টরেডার
কযাপসল
অকলানত
##ни
##পরবাসী
কেনদরিক
##নামায
অধযকষের
১৩৮
ইযেমেন
ডযানিযেল
রানারসআপ
60
অযাকট
rep
কবিতাটি
system
lang
পরতিমনতরীর
উততরসরি
দামডহ
সষটিশীল
##সিডেনট
লাকী
##ces
নিপণ
কাফির
##সালা
কাউসার
দীপিকার
পই
##ভিশন
##ালিটি
সেনে
দোহার
হদার
তারিকল
##যেনসের
পরিনটিং
শাহনেওযাজ
বজে
লটিযে
রিমানডের
সানজিদা
ধমক
##ভিযা
সতরমতে
বঙগমাতা
নানন
সেরেনা
অফিশিযাল
একমাস
অপারেটরদের
ডিভোরস
##খাস
##বরতনের
কারযকলা
ফরেন
কিশোরকে
সিনেমাটির
সহযোগীতায
সমদধির
জতার
##bang
নিকে
অনচছেদে
রিপ
মোহিত
যাতরাপ
বিশলেষকেরা
ফারনি
কযাডারের
ফটোগরাফার
সাতজনকে
জবালানির
মাজাহ
##জিবি
এমএল
১১৪
লালবাগ
নামবারে
বরাউন
jan
led
##13
রাখাল
রিচারজ
আরিচা
বিকলপধারা
সহিহ
তযাগী
##নাযক
##সটন
ভবনটির
পোসটটি
##osh
টরলারে
গনড
##নাথের
ঝিনাইদহে
##সতি
বিকতি
অনান
রকতদান
##খালীতে
বিলমবিত
পরিমল
১২৪
পরষেরা
##gress
বরযাকের
রসে
##সো
##টোলা
সংরকষণে
মঠোয
সতীরথদের
develop
টানাট
বামপার
##use
করিকইন
সতো
মানষরা
১৪৫
ননদীগরাম
নাহলে
জকিগঞজ
ফিউচার
অহি
আরটস
##লোন
নাগরিকরা
কষটিযায
দাপতর
শাহিদ
লিল
##মাখা
১২৭
রত
##জযনত
সযোগয
পরকলপটির
আলিফ
আরয
দরীকরণ
দলেরই
মাততব
সরবতরই
ওযাদা
নজরদারির
বযাপারী
কিলো
তৈমর
বনধসভার
ঘরছে
কাবযগরনথ
##যারস
##রেটের
কেভিন
আশরম
ফেঞচ
মাজে
শিবপর
বিবিসিকে
##বাংলাদেশ
কেনদযা
চণড
##বযানড
মহাক
ভিটে
রণবীরের
বযাচেল
কলাক
পাদদেশে
তৎস
তিনে
উঠান
সমমানী
দরবলতার
জলাশ
মধযাহন
কমেনি
রেওযাজ
লকষযেই
অশবিন
সটরযা
তরাগ
গজারিযা
পিযংইযং
লেনের
আযহা
পলযা
মিটারের
মযাককালাম
##لا
সংখযাটি
পানামা
ফেবার
বহিষকারের
পরিবেশনায
হতিক
মতবিরোধ
পদটি
মেযেটার
চোরাকার
নেতাকরমীর
সেলিবরে
শাহপরীর
জনপদের
বলির
আককেল
ফরিদপরে
নতবা
দিনরাত
##irect
ঝোপ
মেটানোর
টেলর
যকতফরনটের
নেশন
সারদা
আবেদনকারী
ইরানে
had
হানে
কারণটা
চালাবে
তরিশাল
নাজিমউদদিন
কপার
##নগরে
বরান
আমিরের
বিজেপিকে
let
খতম
কলাবাগান
##চযতি
থেকেছে
##চছেদয
##পারট
চাষিদের
মেঘলা
আইনজীবি
শামসননাহার
ইদ
##وا
সিমেনটের
##রাং
ভাণডার
গোম
আশফাক
ডাযমনড
দশচিনতায
আকষরিক
##পরিনট
দাযিতবের
৫৫০
পরিমানে
কাতালান
বখারি
রিফ
বিধিনি
নেদারলযানডস
কটা
নিলেই
সেচছ
বরমণ
ইনটি
সটযার
সটরেস
পজিবাদী
মেইলে
নিরবাসিত
##মানি
জিতিযে
ঘরপাক
মতিযার
জননেতা
ভেদা
নরননবী
পাঞজাবের
সবাগতিকদের
লগইন
ঝোডো
ইউকরেন
জযেন
আনছার
জাহিদর
নিকষট
ঝলমলে
2009
সটযাটাসে
মোংলা
সনযাপ
##পরিকর
জোবাযের
কিংবদনতী
মাটিরাঙগা
##াতাল
গণপরিবহ
থাকবেই
সযামসাংযের
মণডলের
লোকবল
সমসযাটি
ঢাকাসথ
ওযাশিংটনের
ফাদার
অগরযাতরা
মোডল
দাতবয
অনীহা
রবার
##যেলের
বরেনড
##কলসিভ
আখেরি
##খোর
নিগ
সৌহার
মারচেনট
নীতিমালায
হিনদসতান
কারযদিবসের
খতিযান
খসে
##িতাকে
বাগি
লাউঞজে
##ঙগলে
জযোতিষ
##গস
দরখাসত
অধযাযের
বযাকরণ
পরিসর
সিটিজেন
ভাঙনে
##খযায
মাঈন
##ডারে
ফলশরতিতে
ইও
বঙ
##োলের
##াজাত
থেকেছেন
ঠেকানো
চোষানো
ছার
##পরতিদবনদ
নানক
পরবস
পরতযাশীদের
গগলে
##গরাফ
##যতের
##বিনের
##65
##বালে
ফাটা
বিদযার
ফিতা
মাতম
দেনা
##baria
করমজীবী
##দনায
রিলেশন
অভিভাবকের
সরসবতী
টালি
বলছিলাম
কষেতরের
মামলাও
সামাজিকভাবে
পলাজার
এফডিসি
সহনশীল
পাগলের
একটিও
আপনিই
সমপরকটা
জবাবদিহিতা
ধনা
##গকে
##পিন
পরতিকতি
রহের
চিতরকরম
গারো
বিছিযে
বরাসেল
সিদধিরগঞজ
শিমলিযা
রজনী
কোলেসটেরল
##রস
নিরবচছিনন
কপর
ঘরাণ
নঈ
বেতনে
##বিধায
লিনাকস
##গেন
et
##que
মনতরীরা
অফিসারস
##বিদরা
বাযোমেটরিক
পরাশকতি
সপী
গৌরবের
মযাগাজিনের
টলার
বাগম
সরেশ
হাডে
নেমেছিল
পেছানোর
tagged
উৎকষেপণের
গোলমরিচ
ঢোল
##করিন
অভিষেকের
মিরাজের
পরকরিযাটি
ওঠানামা
হানাহ
key
সমষটি
কাশে
উদধারকারী
চমপা
এফআই
লযাং
জযপরহাটের
অটিজম
মনী
দীরঘমেযাদী
আঠারো
##ред
যকষ
##োহা
কারণও
মহেশপর
নৈতিকতার
এযানড
হোসটিং
পিডিএফ
পঞচগডের
বিকেএসপি
রপকথার
শিং
##stars
পৈতক
bab
##bad
##কোযার
শীষের
বিততবান
এযাপ
অভিবযকতি
সারে
একঘ
কাবাব
পরযোগকারী
সরফরাজ
তখনি
ভেষ
১৭৮
সখীপর
পাচারকারী
বরযাড
##ঝম
মলতঃ
কযালিফোরনিযার
নডাচডা
যশ
বলযা
চিনের
সমভাবনাও
আমদানিতে
মেযাদোততীরণ
বিটিভি
নিদ
আমাদেরই
ওযাশিংটনে
আশপাশ
ফরমের
কাউনটারে
সটাইলে
আষা
##বোট
হেদা
কালবৈশাখ
তরণরা
অযানি
সাকষাতকারে
তছন
করতন
সবনিরভর
সরকারদলীয
ফরেশ
পরযোজনার
জগদী
বদলির
খাজনা
খাযরজজামান
রিলে
তথযচিতর
বাইসাইকেল
মৌলভীবাজারে
মসলিমের
বযো
চেচ
ভারতবরষের
সংখযাটা
হিনদতব
তণমলে
মেশিনে
জনসমকষে
##থীর
##াসমহ
বিজঞপতির
মোরেল
রিপোরটের
অংশগরহণকারীদের
ржж
বিপাশা
সবযংসমপরণ
আটককতদের
##যনি
গতবছর
অযানা
চববিশ
##আগে
মধযরাত
চরফ
dhaka
author
খাইরল
##গালি
পরতিও
##চচা
বাসতবতায
শামি
পারথিব
##ষটমী
ফিকসিং
##বিততের
চেযারমযানকে
সলতানের
মিলেমিশে
সদহার
ওয
হোর
অনভতিতে
তিম
##ফনের
রাজিযা
লযাপটপের
উমমাহর
সযানিটেশন
রপের
##লাখ
দরগো
অযালা
চৌমহ
##যাকচার
বাকলিযা
বযাটারিচালিত
বাটি
কোণঠ
শহরটি
ফরমলা
আতিউর
##ডামারা
ভেনেজ
ফেবারিট
পষটির
বলতাম
##বযাপি
rem
under
account
ইশতেহার
content
রিসেপ
কজন
অসহন
গণপরিবহন
ভাইযেরা
বেষ
কতখানি
আননদময
গহাযণ
সেনাসদসয
সাংহাই
জামিযা
##ামাটা
নিলয
বযানারজি
অতলন
ধাবিত
সামগরিকভাবে
brahman
উদীচী
সালিশ
ধারণের
সেততে
কিশ
মেলাম
১৩৯
গঙগোপাধযায
পছন
মোকদদমা
কেনাবেচা
অধযাপ
##ground
বাটার
সেবনের
##যাতল
নাসিমা
সঙগত
সকরিপট
সাদল
রোটারি
কলহের
top
তবককে
থম
##বিরতির
নিরদেশের
উৎখাত
কডাক
ডরাফ
ঠিকমত
অরণা
পজিটিভ
উইনডো
আতমসমরপ
সেগনবাগি
রাফাযেল
সামরাজযবাদ
পললবী
জিহাদের
অতলনীয
##ouse
লিখছি
বিকষোভকারীদের
হেলিকপটারে
বেহেশ
নালিতাবাডী
##িরাও
খেলেছিলেন
পৌছাবে
পরসপরকে
চিতরাঙকন
একাতমতা
মহাসাগরীয
বেনি
লেনে
ইসটবে
কেশব
##ীনস
তরকারি
সাদাসি
অনবেষণ
শাহে
ধনক
দিতো
অনপরবেশের
অতযধিক
সেকয
##ফরমের
বাডাটা
টেনশন
সমপরদাযকে
ফেদেরার
মাযার
মানার
বযাডমিন
দাপতরিক
দলটিকে
নগরবাসী
দিকটা
##োগানের
মদিনায
সরবসমমতিকরমে
##দেবের
পতরবধ
চিরসথাযী
হিড
##বিষট
পরেজেনট
জমাযেত
ঈমানদার
আরদরতা
বিধিনিষেধ
জেতে
চমবন
##elf
cock
জই
ঝম
রোস
বরফের
সকলছাতর
টরানসপার
আযাতের
কোণঠাসা
brahmanbaria
মানদণড
কবিগর
ফেইসবকে
তাডাহডো
পরথ
ইনসল
সমমেলনককষে
ভেটেরিনারি
##ওলা
start
মওক
men
##land
হাযাৎ
দমকা
সাহেবকে
অবরোধে
নিরৎস
দিনকে
মাহতাব
পাখিদের
আরসেনাল
দোরগোডায
বনো
সমালোচনায
কষতিগরসতদের
অকেজো
##ডবি
##ামিন
মেদিন
কমলেও
অভিযোগটি
যকতরাষটরকে
গণিতের
ফযানের
উঠলেও
right
জলো
##াইজার
থাকেনা
সমঝোতায
ছডাছডি
বলয
ফিরলে
১১১
উপতযকায
every
কোলড
বাংলাদেশির
মোলযা
কোতোযালী
নামি
খাগডাছডিতে
পরশংসায
নাতনি
যদধবিমান
পরসেনজিৎ
হলফন
নিশচিতভাবে
১৩৭
অটোরিকসা
সটোরি
লাঠিস
আযান
ভখণড
বিকষিপত
জাতীযকরণের
পরণতা
আহমদকে
সংসকতিমনতরী
কোষঠকাঠ
গেসট
চিনা
##জেনের
ভাঙগার
লেজার
soft
ভিযেতনামের
পচন
মহিবর
চৈতর
বলিনি
বাংলো
হারতে
মৌজার
তাসলিমা
##চড
লকানো
ob
রলের
##যজঞ
বরম
দৌরা
অমনি
কাইফ
টরানসফরমার
মিক
এসেছিলাম
চোরের
ইটভাটার
##লোভ
মিশা
দঢভাবে
পাশচাতযের
ধরমানধ
ভেনেজযে
sun
গনয
##ংশের
কাটবে
শিষযরা
bus
মশর
কণঠকে
##পরিষদের
বধয
পারমিট
বিরাম
ভেডা
বেগবান
অযানটিবাযোটিক
##লযা
##খিন
শেষবারের
মিলার
কটনীতি
অবিচছেদয
রাজনাথ
কেদার
সরবজন
পোহা
তততবের
ওযারেন
হেপা
আকবরের
মযানেজম
এসএমই
ইউএসবি
অনপাতে
সালেও
সইতে
##চোরা
##পরো
লাখাই
##পোকা
অবিবাহিত
##ough
উনাদের
##ভষণ
দেশজ
মফতী
ফকস
##77
মনোনিবেশ
##জোটের
খিলা
categ
review
বিএমএ
জাহাননামের
##হিলা
শবেত
মোশতাক
sol
##িসথ
অপশনে
জডী
উদদেশযপরণোদিত
জাহাননাম
তছনছ
ঈশ
নরের
সরাইযা
রাগে
পেক
মিষটির
নিরমাতাদের
সাজেদা
vis
ফটবলারের
আরজেনটিনাকে
অধিনাযকতব
এবাদ
সালি
সাইমন
গরাহকেরা
অবাধয
শৈশবে
লিওন
চলি
##16
বারসেলোনায
কেনদরিয
ওআইসি
শবন
করীত
অতটা
সংসকতিকে
পদোননতির
চিটাগং
বেকসিমকো
##বাম
সাংসদদের
ডিভাইসে
মিজ
সারিযা
সমাজতনতর
আবেদনকারীর
হাশিম
সমমিলিতভাবে
উলামাযে
ভবান
##াজঞ
উপসাগর
##টাইমস
##ator
শীতার
নসরল
আশরযে
লয
##pos
ভাটি
পরবপরষ
শোলাক
রপতানিতে
পেরেছিল
ইবনল
মনডলের
##সলভ
ঘাসের
বিচি
35
jul
৬নং
##ডবির
বিদধ
টরণাম
teach
ধিক
##এমডি
পানিসমপদ
শাবনর
নিরল
##বেনা
শাযেসতাগঞজ
পরিতরাণ
##যেসট
লিংকে
কলহ
গাজাসহ
নিতযন
##ৎসরিক
রাজউকের
গাণি
ইউনিটির
১২৯
পরযটকের
অপরাধীরা
জবে
কমর
আবছার
চৌধরীসহ
শকরবারের
##рзб
রিকশাচালক
##ঝির
##িতের
বলটা
জবলনত
রাষটরকে
##চালন
মকতিযদধবিষযক
ভগোল
সফটওযযারটি
পপলার
সমাদত
বরই
রপসা
ভিননমত
অরে
বোকার
##দাযিতব
সবপনকে
কলাবটি
sl
##ots
ঈদকে
লযামপ
নেযায
##মাংস
অসব
শরীরটা
জিজঞাস
৬৫০
নিবাস
হিনদরা
মেরিল
হোযাই
হদিস
খতিব
মেগাপিকস
micro
##ামাক
বাহক
সদীরঘ
জেলেকে
গরভাবসথায
সকিন
##কোনা
সংকরমণের
বডা
কালাই
অপকরমের
##ভেঞচার
শরীলঙকান
নেহাত
শরবত
নিউমো
হারডডিস
বযালেনস
করছ
##িকেন
ধরষিত
১৪৯
রাজনীতিকে
ঘণটাবযাপী
কালিগঞজ
##উইন
জাগা
আলোচনাস
2011
শোকাহত
উহার
সেফটি
সতযকে
পযাটেল
মিচেল
জাফল
কালকের
পরেরন
৩২০
অধীনসথ
ফটোগরাফি
##me
চেষটাও
জীবদদ
পাটি
ঘটনাই
##বিনযাস
কযাডারে
##তযয
পডাশোনায
রকষারথে
##শাম
কেজির
দালালের
উলযাহ
পানছডি
##নারা
বযাটারির
তামাশা
সমালোচকদের
নিরাপততাকরমী
মযাসাজ
##গণে
দরতগতির
মোখলেছর
##াকষী
উপমনতরী
আওযাল
দঃসথ
pan
অবধারিত
ডিটে
পরতিষঠাবারষিক
ডোমার
সলিমললাহ
##কমের
##রব
পাচবার
##োপযোগী
মোতাযেনের
পাবলিশ
আষাঢ
##ভজ
রাষটরপরধান
##কষমতার
বডিগঙগা
পারফরমযানসে
পরিদ
যেভাবেই
নিরোধ
সৌদির
##aking
লিভারপলের
আকসমিকভাবে
নীতিনিরধারণ
আইজ
বিডম
শোভাযাতরায
ফিরছে
ফাডি
সলিপ
রাউটার
##টাইটিস
চৌরাসতা
##মাটি
এলাহী
পরযোজিত
এইচটি
তাডাশ
bb
কতী
মযেশ
পযসার
পাটরিযা
খরশীদ
৪০তম
সেরাটা
১টায
##শহর
##জমক
inc
বাঙলা
জীবনেও
ভাসছে
ржх
এনডরযেড
দমদ
রোভার
##পতযের
মযাড
রাননাঘরে
when
ডাকাতদের
ফরেনডস
ডিসটরিবিউশন
গরদাস
নেমেছিলেন
রশমি
ইশতিযাক
##গরেড
আজিজের
ফেরদৌসী
নিমনে
রাজসথানের
ডালে
enter
অজঞাতপরিচয
কাপাসিযা
শরমের
খাতিরে
পরশংসার
##বযবস
ধাচের
অযানডারসন
একঘেযে
নামান
সকোযাডে
জোসেফ
##ient
আগরহে
টরানসপোরট
##ঞছিত
মণাল
শাইখ
ফযাল
##ভাবী
গেডে
শিপিং
সেবাদাতা
পরক
inform
ভালবাসি
##ology
আইফোনের
##যানডেল
গরেপতারে
সযালাইন
বিহারে
১৩৬
অজানতে
ভযালেনটাইন
##পরযোজনীয
মহী
##সালে
২৪০
বসতঘর
যাচাইযের
আজহারল
গলাচিপা
পরসতর
বঝবে
চিকিতস
মেদিনীপর
##পেকস
শারির
সাকিবকে
হারাচছে
আইই
সাইযয
নিরযাতনে
বানিযেছেন
ls
##হানী
মনিরা
ইনোভ
মারফত
টিভিস
১৮৪
শিলপকে
ভযার
কোং
১১৩
##ather
famil
অসটরি
##বরধন
খরিসটাবদের
ইভটিজিং
sim
উপজাতীয
মাকড
##রথন
শরীদেবী
২৩০
নাজিব
করমপরি
##কটরেট
ধবংসাব
পরকৌশলীর
নিচতলায
বিশবযদধ
টাকাপয
##মদদিন
চরমে
উচিযে
ইবাদতের
##ভিনন
ওযাশ
বদধপরিকর
সেনাপতি
মনতরীকে
পরযোগে
পিসিবি
ভবিষযদবাণী
##চিল
সবলপোননত
সকরিনে
করিশচিযানো
মঘল
মহাতমা
বরষী
ভেবেছিল
##বিরা
গজরাট
which
তাহমিনা
পরসকারে
ان
কিনলে
ছবিই
এসকল
##সেবার
গাফফার
জলপর
উৎকরষ
উইকেটরকষক
##িনাল
ঝলছে
করছিলো
মনোভাবের
যাহোক
কাঠি
পানতা
হরাযরা
call
অঙগল
##গহ
##দেখ
##ফাকে
বেবী
##কাশনের
##ালযে
তোড
সদরশন
সটীল
মহাবিদযাল
অবিচল
কলমবো
বরহম
ঘটলেও
এডওযারড
পিতাকে
books
ছাউনি
ছাতরসংগঠ
বিসমযের
##graph
অবাসতব
সবচে
সনতর
মাছরাঙা
শরাবনতী
চমত
চিরনতন
গতিরোধ
খাশোগি
সিপিএমের
রাখাইনের
বোনদের
should
ঝলসে
কতিতবের
জামাকাপড
alo
পরসারে
পোলাও
জাহাজটি
উললাহর
পরযটকরা
ঘটিযেছেন
সিডির
সনামগঞজে
সোনাগাজী
শমসের
অগনিসংযোগের
##মিলিযে
কষধারত
শসা
দইযের
##ানতরিক
হসেন
আদমদীঘি
চটি
বাৎসরিক
নামবেন
ধরমপর
মছা
খেলেও
উততরবঙগের
বযথায
##াধার
ভালবাসেন
যগানতরকে
publish
মনোনযনপরতযাশী
ভেষজ
ma
##টোন
পাতরী
গেজে
##ody
পাঠযবই
সাপা
বেকায
করমকরতাগণ
কানায
চেমবারে
এককে
ওরাল
রিপোরটঃ
লারনিং
##ীনসতনী
মেগাপিকসেলের
গাথা
হাতটা
দনিযাতে
দশচিনতার
##nd
জনত
চৌগাছা
techn
det
ওযারকিং
টেম
আকরষ
একদলীয
ইযেমেনে
ফনট
অংশকে
কলসম
ভেদে
ভিডের
বিকষোভকারীরা
পিকচার
সোল
সেকযলার
ram
গরিল
##ওযারী
ধরছে
##টিভাইর
##এলসি
কিসতিতে
চডি
ভব
##সিকিউ
##ংলগন
##ভাষয
গরিজ
##jee
আপযাযন
মতত
সরবশকতি
১৫৫
মেরদণড
নিশচিনতে
##নযতম
তওবা
80
আতত
রমযান
মযাট
গনধে
সোহেলের
দখলমকত
চাপাইনবাবগঞজে
ঘটিকায
##াৎ
##পীয
##porn
সাঈদী
মধসদন
##জিযান
পডেই
ফলমল
মাওলা
ঊরধবমখী
বিষণণ
##ঢালা
সেইসাথে
শতরদের
ঝামেলার
বযাচেলর
নিরপায
লিবিযার
মাঠেই
পরবেশা
বিবিএস
সৈনযদের
ফেভারিট
চডাই
নের
##েত
##লযে
সনধি
জিভ
পরোটিযা
##েনসিযাল
লিখলেন
##াকষি
##বরিজ
##ডারিং
তারকাকে
সেটিংস
ছাযান
লকা
সবিচার
সলমন
বিএসইসির
##বিদেরা
আইওএস
ওযাহেদ
তিলাওযাত
উৎপল
রতনা
নকআউট
সশঙখল
জানাননি
ছাডিযেছে
ছডতে
উদদীনের
করিনা
সিও
বযাকআপ
ফটবলাররা
মোজাহ
ধরবেন
সকরিযভাবে
মোছাঃ
অঙগসংগঠনের
med
টলি
##ron
##দওযান
##44
হালদা
অনতরায
অনতরঙগ
চাঞচলয
অসহনীয
বহমাতরিক
তিনশ
নিভ
করবানীর
পেনড
রজার
##বাইল
মাইকে
বোলিংযের
জরডান
ওসমানীনগর
বরগফট
গরভপাত
##ডিএ
১৯৫৬
##vel
##ঘোনা
শককর
##পরকরিযা
ফাযারফ
কালামের
সাশরয
লিপসটিক
##90
আনান
চরচায
জামাতা
##owgirl
জীবনযাপনের
সনমান
পটভমি
মাহফজল
##কষীদের
##পনগর
জিএসপি
মরগী
##চরযের
এসিআই
টরফিতে
##সানের
##ভালে
বাদীর
সফরকারী
অরথনীতিকে
নোটিশে
বরেনডন
fin
ধপ
বাধাক
বরষাকালে
কযলাভিততিক
movie
ঝিনাইগাতী
দেখতেন
টাঙগাইলে
অননযা
পাতাল
জবালাও
সটের
##নস
তাবলীগ
১২১
লডাইটা
৯৯৯
পরবেশাধিকার
ছদমন
হাসিল
শীতলকষযা
পটাশিযাম
হিলার
টাটা
বিশেষজঞের
মসতাফিজের
এসইও
শঙকায
হোসে
আশঙকার
পলযানট
##দতের
##চম
##ীনগরে
রাখছি
চাচার
মলম
এবারো
গিরি
লঠ
##গাছি
অপরাহ
অপরাধমলক
##বারথে
##থিও
সৌমিতর
বাছাইপরবে
ডিসপলের
মিডিযাম
বিরদধেই
সাদামাটা
সংযত
গজরা
হেনরি
মিঠা
##িকাঠ
ঘনতব
অশিকষিত
##ildo
জভেনটাসের
দলি
হাসনা
##বহারা
বাসতবিক
টেলিটক
এডিবি
বরষণে
bjp
বাডেনি
33
যবসম
লিলি
##জবল
মেহন
ঘটান
লাগলেও
বানায
১৯৪৫
সরিষাবাডী
নাদাল
এরও
আবত
মানবজাতির
রোববারের
বাণীতে
অসহয
সবারথেই
জিহাদি
লাইবরেরী
অসনতষট
চমতকার
ঝোক
##aut
##ভযে
সীমানায
জীবনা
তিনজনই
জাগরণ
background
আগৈলঝাডা
অনাসথা
শণয
##সপন
পরখর
##ডাও
##সিবি
১৩২
পোকামাক
ডাযনাম
অহরহ
file
কমানডের
অলিমপিকের
টযরিজম
পতেঙগা
ধবংসাবশেষ
রযেছে৷
সাইকেলের
সবাভাবিকের
পেরেরা
জাকাত
রপতানিকারক
নিরলজজ
আযত
##এফআই
হোছ
সিলেবাস
ইহরাম
##াললাহ
এরিক
ভালবাসে
ধারক
তিউন
ইউনিসেফ
ভই
সিনা
##দেয
অভিযোগপতরে
চাইলড
##বাবধান
১৬৫
পঞচাযেতের
উততরপরদেশের
গীত
##িকরণ
মাওবাদী
##umb
বানিযেছে
সবাকষরের
মযেশচার
ইভা
ইনটারফেস
১৯৩০
একচেটিযা
সামগরীর
##ভারড
নিরদেশিত
১৭৬
টোযেনটির
ফসফস
ঝডি
##নটে
রেসপন
মোরচা
বরষীযান
##hy
লাও
জানালো
হামিদর
শহরগলোতে
বাকযে
কবিরাজ
তেজপাতা
পচাত
আমারই
মারি
মযানফ
বৈশিষটযের
ঢালী
##িনহোর
হতযাচ
বরাহম
বিটকযেন
##তিকের
অবলো
হচছে৷
মাহাম
##বিলি
মেরেছে
বেগনি
এহসানল
এপার
##৩২
পরণিমার
শরীদেবীর
কিশোরীদের
bar
অসহি
দেওযাল
##জীবি
গাজায
##ষধি
রাউ
রেবে
গরহী
##কতামলক
ঘটলো
চারজার
পাশব
৩৬টি
ফরাসী
ইনোভেশন
bet
ছতে
##যমান
##যযাল
অনদিত
এরআগে
অবসাদ
ডাকেন
অপেকষমাণ
লেবানন
##কারজনক
পরথমটি
চাউল
##গডার
তাইলে
থরিজি
গণধরষণ
ভগে
পরসবের
অযাডাম
ফরমযাট
ফেনীতে
সটিকার
পলযাটফরমে
খিচডি
করিকইনফো
শরতি
পরোফাই
১৭৭
##সঠিক
##ta
সবীর
গলিসহ
মাইকরোবাসের
পরাইভেটকার
থেরেসা
national
##কানত
নিহিত
দৈতয
মঠোফোনের
ছতরাক
পাযেল
কাজীর
বারনিকাট
eur
কারত
রাখলেও
সরবদলীয
অকষণ
উবন
রিনা
ফলযাগ
সপতাহবযাপী
রাববানী
person
সলিম
বাটিতে
##পরাপতির
বিহারী
ছাপানো
লাঠিসোটা
##পরেশন
ধরলাম
অরথদণড
এনআরবি
##পরাণী
নযাটো
শবশরবাডি
ফিরেই
হাতডি
গিন
রমর
পাটা
##ওযাদ
টাকাটা
বইমেলার
শরীফে
জাকজমক
তাজমহল
##নিরবাচন
চবি
##িনকে
##িসচালন
হাইপার
অধিদপতরে
পরতিবেদকের
বসতবাডি
সিডিএ
##মনদ
৭০টি
সমতলয
food
অসঙগ
লালচে
ডাকাতেরা
উনমাদনা
বাগমারা
বারতার
চারট
ভাঙে
মনোজঞ
খননের
বিবির
পিং
ডাকাতের
পরাককল
পাশবিক
বিআইডবলিউটিএ
##নিশ
##শিকষিত
শিলিগডি
কারডে
গাঙগল
অযামনেস
পরভাত
নিশচিনত
##দারন
হোসটেল
অটোরিকশায
election
##ense
গলিসতান
সংসথান
বিনিরমাণ
বাঘাইছডি
আডি
##জক
দলটা
বরাউজ
করিকেটকে
ঔপন
টটেন
পারছিল
এনআরসি
উৎসক
দলাভাই
শবনম
বাইবেল
উরগযের
##45
বেসরকারিভাবে
সেচছাসে
দেখতেই
##দিকের
উপদরব
##ডিএস
##শিলপীদের
গফরগাও
পরেসার
ডেকেছে
গিযার
মেনড
হতেও
বাডান
বঙগবীর
আধনিকতার
khobor
করতারা
##িকন
মালবাহী
জেনারেলের
হবিগঞজে
সকাউ
অধযযনরত
সিটে
চাকায
সেকশন
ফোরকান
একরাম
বডাইগরাম
ইনিযে
১৪তম
সথাপনার
অযাথলে
সাইকেলে
হচছিলো
পথচারীরা
ইবি
ভেলা
উততরাঞচলে
রসিকতা
ভিলিযারস
গাওযার
হসপিটাল
বাকারা
সরবহারা
এফএ
##ামনতরীর
##com
##টাস
##বাসথযের
বাইশ
মাইনাস
news24
নিমনতরণ
দবিতীযারধের
মকসদ
##ren
একসমযের
গণডি
জাদে
##জেনসি
পিএসজির
ননযতম
গোমস
মিলটন
ঘাটতির
সিলক
চৌমহনী
##ডেনে
তিনদিনের
##টকও
হেভি
পাযখানা
অযালারজি
কিমবা
##ষটরি
ডিমলা
সথগিতের
ফকিরের
তামাননা
সালোযার
আরটিভি
##কাউনট
পরবাভাসে
ডিএসসিসির
অনিশচযতার
গতকালই
চাইলাম
মিথযার
টাওযারে
আইসলযানড
##চকরের
পাউর
##োসিন
নাইম
ext
লৌহজং
বাকর
##পরভ
নওশা
সঃ
সলাম
##ধাপ
আসানস
উঠছেন
রপানতরের
গিফট
জিহবা
গং
##মানড
সবতব
খেযেছেন
ইনসাফ
হনীলা
দটোর
পোকার
বরাঞচ
নেটওযারকিং
##рж╛рж░
pla
পারলার
যোগী
মরমা
##মতযর
শৈলপ
নেপালি
দীঘিনালা
##ডিআর
বনজ
##ani
সকানত
গহহীন
রাজীবের
টযরিসট
ইদরের
জোযা
ভায
সডকপথে
তাহেরের
গাণিতিক
পারটিকে
ছবিসহ
পরবলেম
লযাঙগ
সানির
লকষযবসত
ইটপাট
সাদশয
পিতাম
হোযাটসঅযা
দিনকষণ
##ely
মিউজিযাম
সামরাজযবাদী
শিউলি
সমযকাল
মৌচাক
ভাবছিলাম
মোরা
অভযার
শিকষাক
মালয
দাযিতবও
জাতিকার
পরতযযন
রাঙগনিযা
##বিশেষে
আলহাম
উদঘাট
দাডালো
সানরাইজারস
ঊন
##লিমি
##দিঘ
গণক
করিবে
##বেশী
ঢকছে
নহ
##বাকয
মাসেও
লেখে
তৎকষণ
শবশরবাডির
lsquo
আগযের
রপপর
পরাইস
পরোগরামার
ইপিজেড
মসললিরা
অসতরশসতর
নিশবাস
পথিম
নিরাপততাবযবসথা
কযটা
langu
dur
ভাষযমতে
থিযেটারে
সনিগধ
##জারভেটিভ
পঃ
##মালের
মাছে
হলদে
উপভোগয
মফসবল
nar
কাজা
##যাশনালের
অতযাবশয
ছটফট
পরটো
মহিবল
জরাজ
কোচবিহার
থরিডি
নমর
সদীপ
পরাধীন
জামালের
পাটকেল
গেমটি
সবলপদৈরঘয
উইমেনস
##বোনের
পরামাণিক
##টিপি
মঙগলবারের
গোসবামী
অসাধারন
cal
ple
##bal
গণযোগাযোগ
করমকরতাবনদ
##ধারে
পথসভায
গোলাবার
করণের
##iver
নেটওযারকে
বযাকতিগত
##পদী
পাচলাই
##ফেট
অযাপোলো
পিলারের
ডযাল
কাধের
বোরকা
অঙগনের
আবিসকার
নিযতি
পরিসংখযানে
মগবাজার
ডাইরেকটর
বেকে
ভোদা
গোলদাতা
সহজাত
হাতিযা
price
সেরনিযা
তেজস
সযট
##লাইজেশন
আচল
##সিও
ডিসটরিক
অসাং
উদাহর
লকষমীপরে
শোভাযাতরার
##বিজঞানে
লটারি
রাইডারস
উনারা
ধমকে
তৈর
পরতিবেশি
টরেজার
রেশিও
অযানটিঅকসিডেনট
##আউ
##হীদ
হদরোগের
অযাশ
পথসভা
পলাটন
সাকষাতে
চেতনাকে
সবাগতিকরা
রিযেলিটি
কনটরাক
অসামাজিক
কঙকাল
তোদের
মলিন
হলদের
সংগঠনে
পশচা
সাঈদীর
মালাই
চালিযেছিল
বীজের
ভযাবহতা
সনদবীপ
সাফারি
৯৯০
হাবীবললাহ
##ef
##বাহিক
জীবনমান
৩১টি
বযানডে
গভরনিং
গোছানো
ছলে
আরাক
জিবর
ডাকাতরা
সবমিলিযে
জেটি
##ets
হযামিল
কারচপির
ভেদাভেদ
বথা
পানথ
টরাকটর
পযাকেজিং
সিরাজদিখান
cour
##বিনিউজ
আনসারী
এযাস
দীকষিত
আইআই
অপরাধীর
অযালাযেনস
পেশী
চাকরিচযত
আদরশিক
টিউশন
খরীষট
##রেখা
১৪৭
পাহাডতলী
ফযাটি
ঘোরাফেরা
##uc
##শাযার
##ডাউন
নথিভকত
উদযাপনে
মফিজল
ঠাসা
দাল
পজির
##কষিক
##বাসনে
##োযাই
সটোন
খেলাটি
পরেরণের
সহজভাবে
মাপকাঠি
অগণতানতরিক
কোতযালী
country
##যেও
##মাঠ
সহেল
নিরবাচনি
পরেছে
রামগঞজ
বিবরণে
গবেষনা
pornstars
ইনা
তনর
পানে
জানতো
##ৎসনা
বকতবযকে
##নাথপর
বাহাউদদিন
ঘোরাঘরি
বিপণিবিত
গরাফ
১৫৪
বামে
পডছিল
২৮০
সততরের
##বাগানের
##পরকাশের
##গযা
##লাপর
অলংকার
আগনেয
prof
বাসসটযানডে
মাযানমারের
কফর
মিকস
##সেস
সবাসথযসমমত
উততেজনায
কেরি
সারজিও
টাইমসের
জবি
টং
যাওযাটা
মযানডে
পেরো
কাযদা
লবণাকত
নযসত
জযামি
ইউএসএ
লাকি
রেলমনতরী
তললাশী
পরতিহিংসা
নিঃসরণ
great
আলীকদম
বিমস
##বিযায
##মিযার
আপলত
বিচারবহিরভত
ঘষের
সারজার
উঠানে
মযানফযাকচার
win
##লাভের
##জনম
সথাবর
অগনিদগধ
অগরহ
নামাতে
##ঞজক
যৌগ
উডনত
##শরেণির
নেহা
বহরে
জেএসডি
রোনালদোকে
সহকরমীরা
জনসভার
রাজেশ
কনটরো
আমদানী
টরানসপারেনসি
সংয
মহাদেশের
হালিশহর
ততবাবধ
রাখেননি
উচতে
আতমসমরপণের
লমব
দেবর
##ঙগলি
জাযেজ
ভেজ
কালজযী
##amm
##ওযেট
рж╕
মরমাহত
dildo
##সবাসথয
জিমি
দিললী
গোসলের
নিরৎসাহিত
নেছার
##সারী
বিনতে
##phone
দামডহদা
aug
##70
গেটস
গণতনতরে
##ললাহি
লেবাননের
##পরসত
হোলি
আহসানল
কঙগ
নবে
বশর
হাবিল
উজজবলতা
windows
উপকমি
খাও
আজমের
পরবীন
শীরষসথান
এডানোর
সবরণভমি
দরযোগে
##সমহকে
লজজিত
সচিন
সরগরম
জনমসথান
গাডীর
পরামাণযচিতর
নেহর
মহাপরি
বালির
যৌনতার
অসথিরতার
বরাহমণবাডিযায
সটেইনলেস
ডযেল
ধেযে
##ting
আকরষণের
আবহাওযায
অসবসতিকর
said
শবাসরোধে
ডালের
হাফি
গণশন
অযাশে
এমএম
পোলা
করমচারীকে
ইউনসের
জিনিষ
লাকসাম
নিরমানের
পযাটারন
সিএসইতে
চনন
##পণে
দাডাই
##লাইজড
আটকানো
জাযেয
website
ডযার
সমাহিত
মানষটিকে
দরশানোর
রামচনদর
বরেকিং
##ible
##ডিনেটর
পরটোকল
49
di
##ns
বদধদেব
হাবিবললাহ
ফাহমিদা
air
৭নং
আঙিনায
ঢেউযের
##দিস
সহমরম
কতবার
নেতারাও
বাপপা
ঝলিতে
৫ই
##ভাতে
সপেনে
বাধায
ইতোপরবে
সেমাই
অনপসথিতি
বেকাযদায
চেরা
দাবিও
চিব
দানব
কোমরের
##ock
##াতীত
অপরণ
মহাবিশবের
অসি
২০তম
বিশেষতব
শাহবাগের
বেঞচের
দেউলিযা
আরতনাদ
অসহিষণ
মানয
সরকারপরধান
২১শে
পজিশনে
ডাযাবেটিসের
জলোচছ
মাতাম
ভারতী
সষটিকরতা
ভযসী
একদিনে
অভিষিকত
মচকি
জারনালিসট
গরীষমকালীন
গিযেছিলো
১৯৫৩
এমবিএ
গরযাজযেট
##পাথ
ডরেজার
##টাফ
সংকলপ
কষানত
আতমনি
জমিজমা
যেকোনও
দরঘটনাটি
##শাসতর
##সতে
##ডিজ
উপকারি
আপার
ডিঙ
নতনতব
খেললে
উদদীপনার
কষণাঙগ
পীনসতনী
একখানা
গোপী
সিকরেট
সিকত
##লিট
##ওযালের
সৌভাগ
##জনেরা
কনসটরাকশন
সেনটমারটিন
খেসার
লযাট
সপরিয
বিঘ
মনসতা
মযাচই
যোগাযোগপরযকতি
সিলেকশন
সমযটাতে
আইভি
সারকলার
##ফরাস
বঝায
খেজরের
বযাডমিনটন
জনজীবন
পরথমদিকে
টি২০
##ara
করাটাই
সাবরাং
##কণঠা
শিরক
মাংসপেশ
ডেনিম
গণমানষের
##তরাতে
পদারথবিজঞান
সবাযততশাসিত
টলারেনস
১৯৬৩
আডাইহাজার
ধনেপাতা
##we
##লোল
লোকেশন
দৌডাতে
মনছর
টেকনোলজির
ঘটক
সমসযাও
জাকের
ধবংসাতমক
##দষণ
উৎকষট
চারিতরিক
লজজাজনক
##cess
##লাসে
##মিতে
তাপমাতরার
জডেই
বযেটের
আবরণ
নশংসভাবে
রাশেদা
গোযাইনঘাট
রমরমা
##সই
১৬৬
বিনোদ
বাঙগাল
##যাই
বরাজিলে
##মভব
শোচনীয
নডেচডে
ret
ভগরভ
রাজপর
টিফিন
গহে
সিজি
বরের
মহিমা
বিশলেষণের
একানতই
আরটিসট
একেকটা
উললাসে
বাহরাইন
দেবহা
কোযানটাম
কযাসিনো
##যাকস
##াকারা
অপরটি
##বোধক
অভিজঞতায
চরমোন
কলারক
##সঙ
সিরীয
সসমিতা
পরিপকব
অযাফেযার
##ঙকশ
পযানে
বিচারকাজ
০০০০
কদমতলী
অঙগলিসচালন
ফজর
সপি
##টেশন
এইচএস
অযালকোহল
##েজের
কষা
##সেদ
বিমানবাহিনীর
অসতরধারী
এডমিন
পরথমারধ
যাপনের
বেটে
হারিযেছিল
কবতর
রিলি
বলটি
কষোভে
অবতরণের
শকতিমান
শরদধাশীল
ফযানট
দরবরতী
আমিষ
পরকরিযাকরণ
আমদানিকারক
আবেগে
সদান
পাভেল
ইনপট
তততবাবধান
were
ডবরি
ভনড
সংবাদটি
lez
অকালে
গলিবরষণ
congress
নাচতে
ষটেশন
cur
##he
##ংগে
ফটপাতের
তাবলিগ
অপবয
##ng
কোলাহ
করমদিবস
অযাডি
পারবেনা
def
তদারক
চটটোপাধযাযের
আপততির
শিখন
সোফিযা
সচিতর
জানন
বরাযান
হামাস
ঢকেছে
নিমেষ
সরবাধনিক
eb
বদলায
বকশী
হযাকাররা
##োধয
আতমপকষ
##ions
নকলা
ঘোরে
উললাপাডা
অঙকে
৮নং
বকশ
পাঠিযেছিলেন
পরতিহিংসার
mobile
আদার
এযাম
##চকা
##ভারের
গোলমাল
খললেন
দিকটি
সীমানার
span
চৌদদগরাম
করানতি
সবটক
##থিলা
সমিত
##পাডের
আনীত
তথযই
জীবননগর
ডাযে
১৪৩
পলেস
উপকারে
অবজঞা
বিলিযে
লিখবেন
গতিপথ
তরটিপরণ
হেপাটাইটিস
চনড
ভন
মোহনা
ভাববেন
গরেফতারকতরা
পাঠাবে
আযশা
বযসততম
কাদানে
জলপাইগডি
##ষঠা
হামজা
৪৩তম
বঙগোপসাগরের
পারফেকট
সগম
##ালম
রাতর
মারিও
পরিদরশনকালে
ভোটাভ
মভমেনট
ওযানডের
চাইব
গোলাগলি
গরজ
##মলযে
আধিক
নিরভরতা
আডডার
সটযামপ
গঙগ
বাংলাদেশও
কিছতে
পরধানদের
রোশন
জাহেদল
##চরিত
সনধে
সবরাষটরমনতরীর
##রাইভ
হিমালয
ঝিকর
জনমায
ডিভিশনের
নিরবিকার
##মণডলে
পাইকগাছা
##োসটে
দোতলায
বিচকষণ
ইলা
ঠক
হেনে
চালাই
দাডিযেছিল
অধিবাসীদের
আটো
##ভালের
বিকির
মহাদ
চযামপিযনরা
১৯৪৯
##ences
##রিজার
সমযটায
ফাউল
##হীনভাবে
অহং
বসের
##কবি
##ما
জনবহল
উদবতত
হোসেইন
##lah
সানিযা
রিকো
টমাস
##নদা
দইযে
##কষেতরের
গোলশনয
এলিট
নিরঙকশ
হিসাবর
বোঝাপডা
বদনাম
##ধোলাই
##াকাদ
ওযাইল
তাআলার
এলিজাবেথ
##¤œ
রকষণাবেকষণের
অনষঠানটির
ভগনি
যনতরটি
লাইসেনসের
উদভিদের
এদেশ
দরবযের
বযাযামের
লোকটার
অপশকতি
ফরেসট
arch
রাগীব
জিএসটি
পাহারায
বসি
সাকি
৯নং
নাগাল
সঙগীয
পরতিকরিযাশীল
ইউস
##এফএল
তথাপি
সিলিং
লডছেন
prem
মচলে
আতমগোপনে
মশাল
লটারির
##ওযালার
সবটাই
আপনে
১৫৩
টরাযাল
পরথমারধের
হাইসকলের
ইসমাঈল
ইথিও
##iness
১৪৮
##শাললাহ
উদবোধনকালে
আঙগলের
##জরে
শেষকত
নিযোগপরাপত
মোকতা
##সিএল
বরাদদকত
মিশরণটি
চেলসির
থাকাই
কলস
১৫৮
than
১৪৬
মতযদনড
বিদযাপীঠ
ইজারাদার
##পরাপতরা
##েষঠ
পডাতে
শানতন
মদযপ
চকোলেট
এমসিকিউ
পদাযন
বেচারা
উততরবঙগ
হাইকমিশনের
জোকো
সথায
##ঙখলার
নকষতরের
mp3
রদরি
##বিহ
পরতিবারের
থামে
পজাম
##িদে
গোলাপী
শেযারদর
মাজারে
অকারণে
পরভাবের
লাইনচযত
ইতালীয
রাঙামাটিতে
নিতযপরযোজনীয
আগারগাওযে
উফ
খাটের
ঘাটাইল
চিকিৎসককে
indian
দিও
##জাদা
কোমপান
বিপরী
সিকানদার
কিউবার
disc
water
জোস
##াইশ
দেশটা
রিকশার
এমপিওভকতির
কাচামরিচ
তারেকের
ইশারায
##োগরা
বরাক
##দখল
২০২২
নামলে
##ভিষ
মাহফজা
সেঞচরিতে
দষটিভঙগির
ঘিরেই
##সরো
চালকরা
অধযাযে
ঋণখেলা
ভেসতে
জীবদদশায
জোনাল
রসি
##বাদাম
সদসযরাও
দিযেছিলো
পরবরতিতে
নেদারলযানডসের
খটির
সরষটার
জীবনধ
সদসযবিশিষট
##ীকষণের
১৫৯
রানওযে
ভারজিনি
পারিপার
রামপর
নিষকাশন
আখডা
ডোবা
পরসাধনী
clo
ডাকার
মোহর
সখকর
ইনটারনযাশনালের
আহর
পরসরা
কবিকে
গতিবিধি
শৈশবের
গমব
বিপথ
গানটা
জিতেছিলেন
##বীকারয
কাজেও
শরীরচরচা
রসনের
নিষঠার
উষণতা
মাকসদ
ahmed
##চযামপিযন
রানীর
নাজিমদদিন
sal
বিশববাসীর
সৈনযরা
bir
সমানতর
সংসকারে
আসাদের
গোযেনদাদের
শরীলঙকাকে
colle
মনতরনালয
মযালেরিযা
ty
মানদ
##দাওযা
বাডিঘরে
১৭৯
চানস
অলপের
সহোদর
পাঠালেন
অশানত
নিমনোকত
মদরিত
ছটছে
##66
হাতবদল
ঘাটিতে
সাধক
আসামীর
গোদাগাডী
আপেকষিক
উপেকষিত
বরাদারহ
##তনতরী
করমজীবন
সননা
##ঘরিযা
জননির
সবক
ভারে
পরীকষিত
আওতাভকত
পরতিযোগীতা
গিরজা
ইমারত
লেল
অনেকগলি
জামদানি
একসকলসিভ
ঢোকা
##work
তৎকষণাৎ
ডক
##ious
ধারাভাষয
দৈনিকে
পাঠাও
আশচরযজনক
রাজপরিবারের
লত
বযাংকক
রপতানী
##ne
বিষাদ
দেখাচছেন
সরবদাই
চিরপরতিদবনদ
ইটপাটকেল
ছাল
জিনে
রচয
##মোর
বৈর
##arch
বঝাতে
শততম
নিরমলে
videos
সামঞজসযপরণ
নিশচপ
##পারক
আজমির
##বোধয
##ities
অনবাদক
ধরষিতা
এজাহারভকত
log
মোসা
stat
মেডেল
##তিন
খাচা
বিপদস
নিশচিতভাবেই
বজরপাতের
মতযদণডাদেশ
বিউ
দবিতীযটি
ধরমগর
আধনিকাযন
বাপপি
পসরা
##সালের
উঠেই
##হাইড
সকটলযানড
জরাজীরণ
যজঞ
##ভাঙ
##পিণড
ইউরোর
##গেটের
লেদার
আইসলযানডের
বততির
বিশবর
ওযাকি
উলি
##ওযাতের
##লপতর
সটরাক
মহেশখালীর
গহিণী
##সমে
##لي
সবের
পেজের
##জিকে
কোনায
##সিকে
##হাবের
আশংক
অবাঞছিত
সমতিতে
দীরঘশবাস
ভাবলে
গরীষমের
mah
তলোযার
ভষণ
মাধরী
সথিতি
মাসাকাদ
আমাকেও
আযোজকরা
ঘনফট
রেফরিজার
গজরাটের
সঞজীব
many
শশা
##াহে
কযাম
জডিস
অধীনেই
ইলেভেন
রাণীনগর
##পনথীরা
চালিকা
##িলিযন
সঙকটের
অপটিম
রোগটি
সেকেনডার
শতরতার
মীরসরাই
মকা
##তোনিও
১৫১
অনসবীকারয
বাডাবে
রীত
##োকের
মানোনন
কষণে
বাসতবের
মকতমনা
##পটটি
আউলিযা
ওভেন
সাবর
যেগলোর
অবযব
##ফিযার
style
groupsex
এএইচএম
##বষটি
তাবি
দঃসহ
apps
যথাসমভব
এভিযে
বিবাদী
জনকের
বযাজ
পডতেই
পদকষেপে
এনসিটি
শনলেই
ডেড
##ঙগিকে
হইনি
এনেছি
কওমী
মভিজ
হোমিওপযা
##ware
সহসা
ফেনসিডিলসহ
থাবা
বযাঙ
রাযান
২১১
জাদকর
নিযমন
ফজিল
সযানডেল
পাণডলিপি
বনদকের
বিকলপধারার
সঞচযপতর
রেফারির
এবিনিউজ
##ইডির
##শরের
সিপিডি
শেষদিকে
ফেরানোর
লিখেছিলাম
অসটরেলিযাকে
রেলসটেশনে
দটিই
##ites
পরবেশপতর
আইএসআই
সোমবারের
ডেনমারকের
লাইলাতল
অপের
বীরা
##পলিশ
টরিক
সতরটি
চকরটি
নামমাতর
বিলকিস
মাশরম
বাফফের
জযনতী
সটযারট
পষট
##ডিকে
lead
মঙগলের
অনদর
ভারতবরষ
##োদযের
সাযমা
view
মাহাববর
ফলকপি
mam
উচচা
ইউএনএইচসি
এককথায
জমানো
বোযালখালী
##ress
নতনদের
ভরিযে
পরণয
গাছটি
ঝরিযে
জঙগীবাদ
##কিযার
##োটিন
হচছেনা
বনদীদের
ফারমগেট
বারোটা
ঔপনযাসিক
আটে
##ধম
##ণযে
আহাজ
ছাডছে
ছৈযদ
রাজবং
আলির
বিবেচয
করিযেটিভ
##ussy
##যগের
সেদেশের
করাউন
কাউনসিলরদের
পরসেসিং
ইজজত
যিশ
##но
মোহামমদপরের
##ames
ফোনা
মহললা
টাকাই
নডাইলে
বলটথ
উহ
##জিতে
সথলা
শেষপরযনত
##বীহ
##এসএফ
ওযাহাব
খারাপের
পছনদমতো
পরতযকষদরশীদের
##পরতিবনধী
জেতেন
সটেজ
কনযাকে
লোকেদের
সাকষাতকার
পীডা
আরোগয
কারস
গণড
বৈষণ
##ীরাও
পরতিষঠানগলোকে
জনমগত
ঘমে
গোবর
তথযও
চৌহ
পরাণীদের
ржм
টরনটো
মষটি
##32
সটযান
জনমভমি
##ages
১৯৪৬
বরবরোচিত
কাযেদার
ছাতরাবাস
##দই
নেভ
আইরিন
ইকযেড
বিশববাজারে
১৪ই
only
৮০টি
চিতা
করমকষম
লকষী
মরশ
আককাস
##পরতিম
পজিশন
বরমন
জঙগিগোষঠী
নকশায
বউকে
ইনডাসটরিজের
কারনি
বরিফ
সটরাইক
অপমানিত
হাইডরোজেন
ফাতিমা
দিদির
লাইভে
##কোরস
share
১৯৫৫
need
অসভয
মারছে
২১০
মডেলিং
বদলী
অরথাযনের
পরিলিম
কনসযলেট
বিত
অফর
মরতির
একসপারট
দীনেশ
মনিকা
মনগডা
কষমতাসমপনন
থরিলার
টকটাক
অপারগতা
রাজর
কেনদরটি
শৌচাগার
কিনডারগার
education
কালিহাতী
##চকতি
কষতব
জাবালে
নিরযাতি
আইএসপি
বরেসট
il
##জমের
বডজোর
বসলে
১৫৭
see
কলোনির
টেকটিউনস
##style
গোলাকার
জগদীশ
চদে
শনা
পরর
##মিঃ
##চকরে
মোকাবিলার
আরএম
##সথার
ছোটবেলার
##ধারীর
নাজে
কষককে
হাতাহাতি
##কোজ
##ral
মহরম
সহসর
##াহা
দেওযাই
বারড
##ঘাটি
অবিসমরণীয
সরমার
আছে৷
##হাড
পডছি
অপসার
##পোকত
পযারেড
সমাধিতে
##দটো
##হাটা
পরসারের
##তললাহ
ডিসিপল
বিআরটিসি
পরিশরমী
বোযালিযা
কষতবিকষত
শোষিত
উৎকণঠা
জডিসিযাল
ঋষ
সতের
সবকীয
ডিবে
##শরমে
বিরোধিতার
পারছিনা
পরবেশে
ওপেনের
তালাবদধ
নিরলসভাবে
শৈলপিক
আলার
এমও
খালার
কোটচাদ
ডিফল
বাডিটির
সাংবাদিকতায
জেফ
কোটিপতি
১২তম
ইনডাসটরিতে
ওযারকশপ
সারিযাকানদি
##ৈকয
নিসা
##গাথা
অরথবহ
##ভারতী
গতকালও
কাটেনি
টাকাপযসা
##get
##বরতনে
বিনীত
বসতনিষঠ
টরযাজে
বালিযাকানদি
শৈলকপা
##led
সেটের
দিনেশ
মেঘে
##কাজডে
দবনদবে
মহারাষটরের
নবানন
##তমা
##বারগে
তাবে
পরশনও
বিভরানতিকর
##লোকে
##কসর
কলেজছাতরী
দরনীতিবিরোধী
কতোটা
দরশনারথী
কনডিশন
কডাকডি
সমানতরাল
##াপটি
মাহাত
সিরাজগঞজে
পলেযিং
পরযালোচনায
অপারেটরের
হিটলার
আজিমপর
পথিমধযে
##84
জনপদে
গণভবন
পরবব
হাইক
কালচে
ভাবীর
মাসটারের
কানাডিযান
নীতিনিরধারণী
লাফা
কোনোটাই
জাভা
সাতজনের
রাইজিং
##এইড
ফলাইটের
##ঞছার
পরিমিত
মোদিকে
দেশগলোকে
মশরিক
উদভাস
##বহীন
الا
মযানেজমেনটের
দমে
##যাকে
মারস
উতসব
অপরতির
উঠতেই
রোনালডো
ফতললার
dif
##পজা
##৮৮
রাখেনি
১৫২
ইনজরিতে
পাচলাইশ
বেষট
##মহিলা
করসে
আনোযারের
রাশিতে
##ought
did
##জাজ
একারণ
##কারদের
রহিত
সাকষাৎকারের
পোডানোর
মদযপান
কালেকশন
নেছা
হযাজার
##ures
##ডোনার
গরিড
ছাতার
সফিক
নিশাত
১৫৬
রপকলপ
মকতিযোদধ
বামফর
শীতাত
##মঞচে
ফরমা
টাটকা
গলাকাটা
##পদধতি
##ра
আরপিও
পরতিনিযতই
চাটমোহর
sn
বপন
আইএল
##এমএ
গহিনী
নসি
বিরামপর
আইনসটাইন
ওযেজ
ফোলা
অধিভকত
সৌনদরযয
সকারট
অনতরালে
চাদন
##ালিযার
কতকষণ
যতগলো
কষিতে
জিমবাবযেকে
বাচে
অনিন
মততিকা
##পততিতে
মখোপাধযাযের
ফাইলের
##ঞজারস
কনসারটে
শীতাতপ
চের
একপরকার
খাটে
পিউ
কমপানি
পারিবারিকভাবে
এতোদিন
নিশি
ফিশ
পরিমাণও
কষমতাবান
##বিদযার
বদিউজজামান
মাসদের
পরিণাম
adv
নিকোলাস
তমাল
নিমনা
দলনেতা
ভিটা
লাগতো
২০১৮ইং
বাকযের
ইলেকশন
yah
দীরঘতম
পরসকারপরাপত
সঙগতি
বাচবে
অতির
##গব
সেপ
রাজেনদর
করিডোর
এইচপি
পরগনার
##tain
আলবানী
মেঘালয
সহিদল
বরিগেড
নওযাব
মলনীতি
জেমি
করাইশ
নৈকট
মডারন
পরফলল
মানহানি
আলগা
চিশ
ফরিডম
তাজউদদিন
সমপকততার
ভগরভসথ
তীকষণ
মেজাজে
বনযপরাণী
পরিকলপনাকারী
##হারড
##গণকে
ঢিল
##শংক
আপনাদেরকে
সেজনযই
##তালিকায
যোগসাজশে
language
চাহিদ
৪শ
##পাখি
পরবাল
রইলাম
টিআইবির
গাফিলতি
ঢকল
দোযারা
##হিতার
পডলেই
মালটা
##হেড
বিবিএ
৫০০০
৮৮০
রাউজানের
খামারি
অরিজিন
হযরানী
মাইনল
মিটিংযে
বিই
কাদে
জানাব
দীপত
চতবরের
রোকসানা
হলফনামা
পাবলি
২৯টি
ওযযারলেস
বঙকিম
ভাসা
##ডিযায
বহনের
ততটাই
আসামীরা
শিকল
যনতরণার
কোটালী
লঘচাপ
হলফনামায
ছডার
কাভ
##টেডে
অংশবিশেষ
বোটা
চিঠিটি
resp
এলাকাজডে
হওযাই
বানচাল
ঘাডের
ঢালাও
ইরি
লেখো
পোলার
রকষী
তালাকের
##বাংলা২৪
নডবডে
কাওছার
১৪৪০
##পাখ
##ওযারি
১৯২০
সপটে
উপরই
সমারটফোনটি
বযতযয
##ীতলা
2008
বৈচিতরযময
milf
data
দস
জনকলযাণ
বরেনদর
হরদ
##ভরি
##াজজ
##ork
১৬ই
জনমনি
বাগবিত
তাপমাতরায
সালাতের
খরিঃ
##কযের
আসীন
জযকে
রকতন
চাদপরে
রোজিনা
অযাথলেট
মাদকসেবী
lt
ছোপ
##শীদের
##সথলের
##বালার
৪২টি
কলামিসট
গেঞজি
বনটন
পরাবনধ
##উজের
রাষটরদতের
বহসপতিবারের
ধরমপাশা
টেকনি
নওগায
শিকষানবিশ
hu
জানাজায
দৈরঘযের
##ভাত
অবদি
১৬৭
সবরাজ
সখি
##জযনতী
নবেমবর
##দাত
##জাস
দাদি
শোযার
ভমধয
দশযত
জমতে
ডাইনিং
সদিচছা
##বাবের
##বিও
পডানোর
আবহমান
সোনাম
উক
টযাল
দিস
##দকষ
##িযাং
বাইকের
নিমনলিখিত
কাসটমাইজড
power
জডা
পারের
লোকটির
শাবান
ইমামতি
হেডফোন
পদাতিক
don
ঘষি
##খাসতের
উডি
একঝ
এতিমখানা
ʱʱ
যমনার
বাঞছার
গোপ
##ali
যাইনি
মোসতফার
খাদেম
সেশনের
##টিনের
দিনগত
##হিদা
পরসততকার
##ober
টিপতে
code
##ডীর
সটেপ
দেডশ
পেইজে
delhi
ইননালিললাহি
ভণড
চালকসহ
খশিতে
program
জনদর
##দিযায
কাজির
নেমেই
টানাটানি
টেরি
##বনা
মখিযে
৩০০০
এনেছিলেন
ওযালী
সরযাসত
cowgirl
##সস
সেগলোতে
কষকলীগের
আজান
এমনটিই
বিষযগলোর
ভরতা
কনজারভেটিভ
সহিষণ
কারাদণডাদেশ
##mm
##যাযনে
বধবারের
অপো
কষমতাকে
মৌলবাদ
press
মভির
মারকার
জেলখানায
##рззрж░
বরীজের
##ধাম
দেখলো
##বদধভাবে
ফলাওযার
টিকতে
ভঙগর
নাডাচাডা
বিমোচন
সরতহাল
##ভিষিকত
১২২
রিযাদে
গাযেব
বরেইন
সাইফজজামান
নিউট
করেসপন
গেছিল
চোপ
জেনারেটর
বেনজির
শরেনী
কলিম
ভলেও
বকততার
পরিসীমা
ফাসিতে
জেসন
cam
নাদিম
তারার
কাঠা
ছোযায
সপারিশের
রফতানির
নঈম
##টটি
##ফড
জিগ
##িনীতি
মাঝেমধযেই
মচডে
ফরাঙক
##বিচছিনন
মিটে
তোযালে
কেট
অংশটক
বলবৎ
টেলিফিলম
মীম
মসার
সামপরদাযিকতার
বযানডউই
উমমাহ
একটিভ
তথযগলো
অপরাজ
সাববিরের
নিতযদিনের
ভটটাচারযয
পরহরে
হকারদের
34
এএন
বহষ
উদদেশযেই
family
মানচিতরে
অধরা
২৫৬
এলবিড
আফরিন
##els
লাঙগল
মাঝখান
তলবেন
##als
শিকারে
নিরপেকষতা
আকরষনীয
##mp
মানেন
চরিত
##হরতে
মেইলের
গরামাঞচলে
অসাংবিধানিক
মবিন
অধিকত
ফলোযার
পরকতিতে
##মিজ
পরথমবারতা
রিজি
##দীপের
##দাযি
পরিনটার
##সতরের
পৌছেন
শিলপীকে
বরষবরণ
রাজাকারদের
##সাকে
পেতেই
ভাদর
##ছেদ
নিভে
মোহা
দলীল
চিরকট
গরিবের
মিনহাজল
পরতিকরিযার
##বততিক
মতিঝিলে
শরাব
সানতাহার
পণড
পদিনা
##দষটিতে
##োনে
পানিবনদী
রামদা
শাজাহানপর
##বসথান
শরদধ
সহবাস
trick
পিটিশন
চাচ
নিযমকানন
দাসী
ষডযনতরমলক
আঙলে
history
##লাতের
কালকে
রাজনীতিকদের
কারিক
জাবি
##গারডের
বাঙগালি
45
কেমবরিজ
সামার
মযাসে
শাসতরী
গোপালগঞজে
ইনডোর
তিরিশ
সামিউল
অনিনদয
নদে
##গরাফি
বিযোগ
পাইযে
হরন
৩৩টি
হেরেছিল
ইবরাহিমের
সাঙগাকারা
##এবং
অনবাদের
##বরিযেল
সনদে
এমদাদ
যতবার
ফেলছেন
এইচআর
ভোকতাদের
শিকাগো
সতার
কলমের
পরনের
গতের
পরাদর
উলঙগ
পাঠককে
পারলামেনটারি
ডালপালা
ভিকষক
ইজিবাই
অরাজনৈতিক
আমরণ
##তনগর
##ারিং
জেপি
জেদদা
গডেছে
মিযানমারকে
দেবতার
বেনজে
সরবসা
ফিকশন
url
ঝপ
সমাহার
দরতবের
দারস
আঙগিকে
অবকষয
##গোলা
খলেছেন
দজনেরই
ফটেজে
সযপ
লৌহ
সেরনিযাবাত
শেযারে
জীববৈচিতরয
পরাবনধিক
ডিযে
অনযন
##াপেকষ
just
##জিকযাল
পিরামি
বিআইডবলিউটি
ফেঞচগঞজ
মগা
বযথিত
কমডা
##শিপের
বারল
মহিউদদীন
বিশবাসে
আতশ
বসতায
পাপডি
জেনিফার
গডফাদার
অপরতিরোধয
ডয
কমপন
সেমিফাইনালের
##কাহিনী
##ঝাপ
##সেপট
ভেডামারা
উইক
যাওযাই
বযরথতায
মজাহিদের
হজযাতরীদের
desh
লরি
##নিযকত
গরিসের
আলজের
সষটিকরতার
শিকষারথীসহ
পরকলপগলো
রবীনদরসংগীত
মণির
খিদে
মরককো
##৪৭
সমাজকরমী
কতই
হতভ
নাগরিকেরা
তাকান
বিধানসভার
পাটগরাম
তথযানযাযী
বযাকগরাউনড
পরতিবছরের
ইউনিটি
কাউনটি
##рзл
টেলিস
সরযোদয
জাদর
সবযসা
ওসির
বাজনা
গেমের
সোডিযাম
wik
আলেকস
জটে
##যেপ
##লেটর
পাপন
পরতিমাসে
ইসযর
১৯৫৭
নেতরীকে
ফজিলাতননেছা
অনষটানে
##টিভাইরাস
পাবনায
আকবার
পরারথনার
আনসারললাহ
পলাশবাডী
সারভিসে
মানলে
দাগন
##old
মযাজিসটরেটের
চিলির
##টেলের
আটজনকে
হাদীছ
একাউনটে
ইনশাললাহ
বাজারমলয
উৎসে
সিআইপি
কীরতন
থালা
রাননাঘরের
ঘনিষট
ইতিহাসকে
##গানডা
কাকরাইল
ইকর
কাড
কাবাডি
ইনদো
মাদরিদে
রামগড
##শিশদের
শরেণিককষে
নবি
##ka
করলা
বযাখযায
সমযোপযোগী
কযালোর
মাহির
জাহানের
আকন
আরসেনিক
পং
##বাকে
লকষযের
##ids
এরকমই
কোহিনর
##শরেণীর
মহারাষটর
সিপাহী
রাতেও
হেডে
লিখলে
arr
##জোরে
পেইড
আরতি
##দললাহ
পোলযানড
কদদ
এতেও
ভোগে
ওখানেই
ছোটাছটি
সথলাভিষিকত
অফরনত
শশর
##াসনে
কোযেল
সাহসের
লেপ
state
বরষপরতি
পরবাঞচলে
দততক
আলেমদের
##ছনা
কিযামতের
ভারতবরষে
গোলকিপার
ফিগার
its
কসমে
চারটারড
পাশববরতী
##শোধ
ছিলই
রিলাযেনস
দাবিগলো
অপরকাশ
##সটান
১৩তম
রাসতাঘাটে
নতযশিলপী
সযানি
##বট
##িনদার
একনিষঠ
সমভরানত
অনযানযরা
দিকগলো
সবাধীনতাবিরোধী
রেকরডে
ফোরবস
ইচছাকতভাবে
অনমতির
ঘনী
আরশাদ
মলযাযনের
পিছে
পোদের
কাউছার
পেনটা
গণমাধযমকরমীদের
আশরযের
হাতিরঝিল
##বসমমত
আহামমেদ
সেবামলক
কোকো
গাডিগলো
পরতিশরতির
তনমধযে
##oney
ইযরকে
খডগ
চদতে
পবালী
কেজরিওযাল
জিননা
সাইটটি
ফলোরিডার
অলিমপিযাড
কেকে
হেরি
##াযণের
সডঙগ
শমশান
অনচছেদের
দেখাও
মেমবারের
নিমিততে
আছো
দেহর
নোটিফিকেশন
বাযোস
লাঠিপেটা
এলজিইডির
মোহামেডানের
yahoo
যবর
##পেই
##রাহক
মাইযা
করীতদাস
কারযকরমকে
জাকিযা
শাওমি
সটডিওতে
october
মৌমাছি
রেবেকা
##হযাম
ভিভি
ca
test
##ডিবি
বনভমি
মোটেল
জারী
টারম
হনমান
long
মরিনহো
##বযাধি
সোযেটার
খপপরে
হাতীবানধা
##ফিরে
third
মালিবাগ
অসবসতিতে
two
রদবদল
দীরঘকাল
কাউখালী
কিনেছে
পাউবোর
want
নিরীকষিত
##াপদ
রাখলাম
খবরও
শাফা
দঃসংবাদ
মরতজার
বহিরঙগন
উদভাবনের
কেরানীগঞজের
তোডজোড
dom
##খলি
গরাজযে
পরতযাবাসনের
এমপিদের
পরসততকারী
কলাবটির
চিরনি
বটতলা
sexy
অযানিমেশন
নেতানিযাহ
পরসভার
আতমবিশবাসের
##যকতরা
কিনছেন
##িজাত
লোমশ
এফএম
মেরেছেন
সালাদ
আরাধ
leave
তষণা
সোডা
সতরকবারতা
যকতিতে
##কিংস
জযদেব
মযলার
চিনতাধারা
দাসতব
##গপতের
বিজন
আইবি
বোম
লালিত
রপকথা
পরতনতততব
খেসারত
##িযামে
##দলিললাহ
পিডিতে
২৬০
মিসতরি
বাবলের
বিশলেষকদের
টানাপোডেন
মোকতাদির
তরান
অকথয
গইমারা
সধ
##দরনাথ
বযাপি
হাতেখডি
ততদিনে
বলিতে
ভিকটি
##ices
জিতল
ly
নিরপণ
##গরসর
বাংলাদেশিকে
আশেক
মেথড
মঈনদ
কিঃ
শিকারি
হমকিতে
নিঃশেষ
##জজার
মাহী
বরণমালা
আবদললাহর
##গাছায
ভেনযতে
লংগদ
upd
অযামনেসটি
##বিযাললাহ
এসবি
মামলাগলো
বযসকদের
##সঙগীত
again
অগনিকানডের
##ole
মেডিকেলের
সিআইএ
বারধকযজনিত
অনানষঠানিক
নিব
বিশবচযামপিযন
ছেলেটার
লিখতেন
ছিলে
che
##জাহানের
apr
জেরজালেম
মজাহিদল
ফতেহ
বিরদধ
বঝার
শাসকের
পরিবারটি
বিবেকের
দষটিশকতি
দবাইযের
নোক
থাকে৷
কলাবকে
##শরীরে
২১তম
অঙগন
নলছি
tam
জগল
একনায
##মিউনি
দোযেল
##রদধ
পরভর
বযাকতির
তোতা
উপদেষটার
অভিষেকে
সবাদমতো
ঘনিষঠতা
এটআই
##াসমপনন
##বিবর
##সেই
সমদরস
শৈতয
এরপরেই
জনমাষটমী
খরিষটাবদে
পিরিযড
খোস
রেজার
নিচছিলেন
ভিজিএফ
##গডির
ওবাযদর
কাকি
##দব
দরগার
চালে
পরযটনের
২২৫
অযাডভেঞচার
খাতনকে
যাদবপর
দাগনভ
এএ
##জলের
পারসন
##িযাছে
জেনেই
বিসততি
দপাশে
রাগের
আইলযানড
বেডান
70
##কালিন
পরণালী
গানটিতে
০১৯
টমটম
ভোটকেনদরের
##পরেমীরা
কপো
##hat
##কাফ
সমভবনা
ভোজন
আযি
পনরবিবেচনার
##পাতির
ফিরি
ডাবের
হাইটেক
##ржд
করমপরিবেশ
বারেক
বেরোতে
##outh
কাহিনীর
কানেকটি
পারিপারশবিক
##লেটরি
017
##25
##36
রামগতি
হতাশাজনক
ঝাপসা
ইলম
ইওরো
ঢিলে
ভস
মিহির
বদলেছে
দশেক
হানাহানি
cut
শমভ
নাঙগল
ইরাকি
এডিট
উপতযকা
##নাটক
ধরষন
মহাসথান
##urb
পযানটের
সংসকারকাজ
রিজারভের
রযাঙকিংযের
তেহরান
আটলানটিক
আপরাণ
##ববির
টরলি
বালখালী
ধৈরযয
হাইকমিশন
সৌহারদয
nor
জিআর
জারনালে
চকতিটি
মিনিসটার
পাকিসতানিদের
ইহসানল
মহোদযের
লিগার
তলসী
পলাজায
বিবাহবি
মেটানো
মিলাদননবী
চিলডরেন
বাধাকপি
ge
land
শেকস
শনিনি
রকষক
আরিফের
বকষের
##হহহহ
নিরধারন
##৪৯
##তমীয
চাইতেন
শনযের
মহাসমাবেশ
বিদযাসাগর
শিকষানীতি
##যেতর
আনজ
চাষীরা
কানেকশন
শহিদললাহ
আগাছা
পগ
নিও
সোনাত
বাসতবসমমত
পরহসন
polit
মনতাস
ইসত
বরিটিশদের
সকটলযানডের
তাজিক
বিশববিদযালযগলোর
উচচবিদযালযে
গেলা
কেনই
ছবিকে
সবিধাভোগী
অযাডভানস
আলিঙগন
জিলহজ
ছোযার
নযানো
পলের
কলামে
সহজতর
##কানী
বাছাইযে
লযাটিন
font
এগরো
আমাজন
##রেটর
সহদ
দবারপরানতে
চিরিরবনদর
সপা
গলকোজ
##কষেপণ
গহনা
ডিভিডি
ডিএনসিসির
hand
জবরের
##কিনের
ইউনিফরম
উততরটা
উডছে
সানী
৮ই
##পানে
##ংকায
##াইজের
##শিলপে
খোরাক
বিজযনগর
বারনা
##বযঞজক
বৈপল
চাষীদের
ইলেকটরো
খসডায
ফোস
বিলো
দিলর
ফারমারস
##বাগানে
দণডবিধির
নটর
বাদর
অনিম
দিনটিতে
পদমায
##সংগত
অপমতয
অলং
##কষিন
খেলন
নিশচিতকরণ
##idd
গরভধারণ
ফযেল
নিধনের
বাসকেট
রেণ
বাডিটা
কণঠের
মাহমদউললাহর
##তমখী
দলমত
কামান
মিসাইল
জিমমায
কাযেদা
পযাভিলিযন
পালনকালে
সাদাসিধা
চিরা
কারবো
২৫শে
ফিফ
ঐকযজোটের
উভযপকষের
সসথয
জলাধার
কলপনাও
ফলোরিডা
##সাহিত
পরীকষারথীরা
পাইপলাইন
জনসমরথন
লবণের
আভা
গডের
##ون
আশাশনি
আবেদনকারীদের
বেধেছে
শরিযত
হারাবে
ইহদিদের
চানদগাও
বযভি
দাফনের
টেকসটাই
সটারলিং
পিপিপি
আপর
ইনডা
##lex
পরতিবেদকঃ
product
bel
ওহাব
সমযকালে
মামী
বিসতারকে
পাওযারের
উপরেই
information
খয
তফা
গরীক
বিলপতির
০১৮
বীজতলা
জোযারে
women
তানড
##ро
##ush
থযা
বাসি
শোবিজ
fre
কাশিযান
ভাইবোনের
ওযাকার
##চছার
##বাডীযা
১৯৫৯
ইনডাসটরিযাল
ইজতেমায
##ীকা
তাযালার
নেম
##টেকশন
বযাপতি
পাহাডধ
লাগালে
উঠত
তাকওযা
মাতভমি
দঢতা
অটোমো
তালেবানের
পিডিবি
##নেও
একটিই
টিজার
খরশিদ
অশানতির
##uter
sept
সাদাত
শরোতারা
অবমানন
বৈপলবিক
##ীগোষঠ
করেছে৷
খাদযশসয
বেশে
তালিম
##ister
##তাসমপনন
questions
সাথিযা
পাংশা
ভালোর
ধানমণ
টেকনোলজিস
উঠক
##নগরের
তদারকির
রৌপয
90
বযাটার
আলীসহ
রাষটরবিজঞান
##মিরাল
টেইলর
বহষপতিবার
আলটরা
আনটি
ইনিংসটি
image
কযালালামপর
##টিকাল
নিদা
সিজন
রোমের
আডাইটায
গালাগাল
করেসপনডেনট
টাইল
##যস
##ষান
পাতরের
শনযে
বরণবাদী
সবিধাও
ধরেননি
contain
উভযে
সপীড
থিত
লযান
##hom
আদরে
বযাংকগলোকে
সেতটির
কমানডো
সামযবাদী
জাগানো
open
পরাদরভাব
pa
বযপার
লোকসভার
বাকবিত
চিডিযাখানা
উদযেগে
উবনট
রিজিও
বিষযেই
কলাশ
##পরাচীর
বাকশাল
পশচিমাঞচলীয
চেষটাই
অকসিজেনের
পললি
নিরাপততাহীনতায
একবারই
কষটসাধয
ইসরাফ
হেডকোযার
রইলেন
জমিন
##গেল
##পীর
##ফস
নাইটর
কোচকে
ফারনিচার
সনদি
##পোলি
আশঙকাও
জাতীযতাবাদের
ভৌত
রেসটরেনটের
অযো
##েরও
কাণডে
চতরথা
সজনশীলতা
opt
এনি
##সজজা
##াজান
কিনবেন
আপীল
পলানট
মিশকাত
সঙগীতশিলপী
টরিপ
বিপথগামী
টেকনিশিযান
ফোযারা
রাজপত
বাহবলী
১৩১
লাগেজ
চরমভাবে
নাশতা
limited
থাইর
##ium
##৬৯
##বযকত
আইনপরণে
অপহরণকারীরা
পরতিমরতি
এসএন
ছাপার
অববাহ
##খযাতি
ওযাহিদল
সাহেদ
সেরার
ঠকে
সনো
আববাসের
নোটের
সথাযিতব
কটিযা
জিযান
জাহাঙগীরের
ফাইলটি
লবঙগ
সকলারশিপ
ধলে
মীরা
সযে
কোনভাবে
বৈকি
চিতরের
ওযাইন
খেলব
করমসচীতে
যোদধাদের
ইইউর
নেবো
##াতাম
##এফসি
public
##ric
##জরী
##ধরে
##মিসট
১৯তম
জডান
গলজার
বীরগঞজ
দাডাচছে
ডরেজিং
টেলিকমিউনি
উততরটি
সযোগই
##পাতার
পাইকারী
নিশান
উৎকণঠ
শভাকাঙ
ছিনতাইকারীরা
##গই
তারতময
রিভল
সীতার
গরেফতারে
যাচছিলাম
does
বাংলানিউজকে
কোষঠকাঠিনয
বিশবন
লিগা
হারিযেছি
বদধিবততিক
খরচও
তিলে
পঞচাশের
##চনদরের
govern
##ভরমণ
নামধারী
ঠিকাদারের
শঙখলার
##lim
অবজার
মানষেরই
নযাযের
##সটরি
নিজেকেই
ভোররাত
মালিকপকষ
টেলিগরাফ
যকতিযকত
গযালারির
মহযা
##read
শভান
জেনেটিক
বদধিজী
রেগলেটরি
নিতযনতন
দীকষা
নিকষ
##দেজ
ওযাসি
কাপিযে
দবীপপঞজ
অমা
বেকসর
##রাহাম
ভিলেন
##খরি
বিষযটিতে
##ভোজে
ঢকতেই
গোলাবারদ
মথ
##ঝিলের
##কাঠামো
ইযরকের
ঘনীভত
##rib
উপনিরবাচন
কষমার
রসদ
অসথাযীভাবে
পীরের
##ship
অডিটরিযা
following
পরির
জিৎ
শালা
##ope
আশরিত
doggy
হারডডিসক
##বাজী
সবোধ
##নীল
আশলিযায
কলেজকে
আউটপট
নজিবর
ডিফলট
##yc
মেদিনী
##েসি
অবশ
রমান
##িকলের
চলছেন
অকতরিম
মিঠাপ
পরিমাণের
বযাকটেরিযার
সসংহত
আরমির
উইমবল
##কক
মরনিং
মখেও
ডিপারটমেনটের
এফবিসিসিআইযের
অতন
এযাল
তজ
মরগ
শাডী
chr
সেনানিবাস
আশংকাজনক
নৈকটয
চেষট
তাহসান
চানদিনা
কবিরা
তোরণ
পোডাও
div
খযের
পরানা
ঢাকাকে
##ভারে
সরবকষেতরে
শোবার
পরিতযা
ফেরিঘাট
direct
মালের
করমযজঞ
তথযটি
science
বেঙগালরর
গভরনমেনট
খটিযে
লগে
##ামযের
দাগের
মিশি
জোনে
বিতরণে
হিমালযের
কারসাজি
##من
##লিকেশন
পিপাস
অকসিডেনট
গডলেন
char
বিজেপিতে
জনসবারথে
একেই
ফিদ
##দীঘি
কযাকা
অসবিধার
##ীগন
##বীপের
বেনজীর
ফযাশনে
পরাচীনতম
বরাজিলকে
ভদরলোকের
মজলিস
চিকনগনিযা
আটি
করতাদের
গণগরাহী
চিতরে
মশাই
গরনথমে
ফালগন
সরবসমমত
##পলেস
পরতীকষিত
উপজেলাধীন
কারোরই
care
ভিনে
মিরা
লডাক
আমডা
নিরকষর
##angbad
২৭০
বনাঞচল
ডমরিযা
কেমনে
অরকষিত
পরকাশনার
পাচছিলাম
ভোলায
বীভ
সটিলের
লাইবরেরির
গণাবলী
কডে
টিএস
ততীযত
পোসটারে
মজলিশ
##শিলপীর
উমমতের
মিতা
আরথার
সোশাল
পদবী
মরযাদাপরণ
হিলারির
ঝাকে
##বেষটিত
গাদা
রকন
১৯৪০
মছতে
শইযে
তাতী
পাচবারের
কষেতের
##ঘাতিক
নাইকো
জলসা
পরতযাশায
পযাকেজের
নিশা
সরস
সইফট
বিকিনি
আঙকার
উটের
সজোরে
হাসিব
রিমোট
খাদযাভযাস
মদধে
আশচরযের
নাজিল
head
mother
##জট
সমারথ
কাজকরমে
মহায
হারদিক
offers
সৈনিকদের
যকষমা
ear
নযাক
করবানি
মৎসযজীবী
মতযদণডপরাপত
commun
বিশরামে
ওরি
দোযার
##পলেকস
##থিক
পরিকাঠ
পাকিযে
শকরিযা
ant
ভেঙেছে
##দৌল
ভৌগল
উইলিযামসন
অঙগরাজযে
পদারপণ
হযাওযের
অফারটি
বদধিমততার
সেবাদান
glo
##যাপর
মরগীর
##আরএ
টানটান
ফেলায
মমবইযের
থবডে
পরথার
বযাকল
দাতে
##ীগের
ডিজে
একাগর
ওঠানো
খোকনের
উপনযাসটি
গণাগণ
অনেকাংশ
a7
আপামর
রোহ
কালর
পরবাঞচল
উজবেক
ওযাইলড
##জিক
হারভারড
মাঝির
কাপতে
শবেতাঙগ
##িসটের
এসটি
এবিসি
বিশরামের
পরমোশন
happ
পরাণনাশের
পারশবপরতি
এভারেসট
ভখণডে
পতরপতরিকায
ডিগরির
মধযযগ
সাদমান
রঃ
##সবি
গেইম
দোলন
পতিতা
tips
সহচর
রেহান
১৪২
আতমীযদের
তললাশির
সীতাকণডের
মহাসাগরের
লযাঙগযেজ
বিলাল
একশত
কারে
গহযদধ
সাবসকরাই
মওকফ
রচযিতা
মহববত
পিই
বাঙালীর
টরাকচালক
অরাজকতা
অসথা
গণআ
নিরাশ
শনছি
১৯৫১
শোরগোল
ইউনিসেফের
ঘরা
তানোর
নিনদ
##৬৫
খেলোযার
সলোগানকে
নোটিশের
ফারমাসিউটিকযালস
development
সানস
জানবে
নিরণযের
বিভোর
##ery
বদধার
জেদ
চিকিতসক
নজরদারিতে
সংকরামক
বরষণের
চিরদিন
##টিসটিক
spec
ফাযারফকস
na
শাযিত
##ij
##পডে
বেদম
খাচায
পৌষ
দীরঘাযিত
##উদদীনের
সোনাইম
বিরোধীতা
##ভোগীদের
short
আলেকজানডার
ধিককার
রাকষ
ধরপাক
আটজনের
অতীব
হাফিজল
সতযেন
খাসির
হালের
একটায
দরনীতিতে
বিচারপতিদের
ধমপানের
গৌরবময
জডাতে
##মপর
পিএম
ফরাজী
সমতিশকতি
##ging
আনলেন
চারজিং
উততরঃ
১৮তম
সমপদে
পতরিকাটির
অতযাচারে
নগণয
অগরহণ
নিঝম
আতমতযাগ
লিখব
নোটিস
আদরশকে
বিএসটিআই
নসযাৎ
রজত
আতমগোপন
নিযামক
সদরপরসারী
শিকষাকষেতরে
পারদ
মলধনের
শরীমঙগলে
পরিবারগলো
গলপকার
এডিসি
chand
##াবধান
##ঙকরের
##পরমাণ
ইনতি
মসর
##গরিকাল
সবারথপর
বলী
রাখাই
শাহানা
অবিভকত
ইউটিউবের
হাসন
পডতাম
চালাতেন
লাইনস
শেহ
number
might
##িযাখালী
অপারেটিভ
ডিযেগো
নভ
অসাবধান
##াকারে
দরততার
কাটাতারের
আখির
##সটি
সনতরাসবাদী
জামালগঞজ
আতিযার
তাওযাফ
লণঠন
##ভাণডার
মিনারেল
কাতালো
মাডাই
কারডিও
##পাকে
পরিকর
রাজযপাল
মীরজা
##সাধন
magaz
##ping
##ঊদ
##যেশন
##াকাটির
আগমনে
বেটা
মেশান
##মিশরণ
সেকেনডারি
##তেশ
ফলোরে
ফরফরে
আবাসসথল
গেইলের
ইলেকট
মযারাডোনার
ওলি
##ভিসি
##৬৭
দিনশেষে
সামলা
ভরতিচছ
নিরমলেনদ
199
অপত
কফির
##বযসক
কমারসের
অফিসারকে
উডোজাহাজের
গলযামার
চেচামে
তষ
সযানডার
##ধনে
কাযা
##পারথ
তৈয
ধারাকে
##ামারির
তিতমীর
গবাদিপশ
ঔষধি
##ভঙগের
আমজন
তাগাদা
##পেকট
নিজেরই
আকতে
ডরামা
বোলারের
বরণনাকারী
দদকে
##ru
বেতা
বোনা
##করিযায
কালিকা
অধিগরহণের
বযারাক
রাজাকারের
পনঃনির
ইংরেজদের
পডিযা
একসিম
##পরীতি
গরেডে
অতিমাতরায
আবরজনার
টারমিনালের
সবেচছাচার
##ডেক
##দিগকে
হাযে
ফরমান
হতাহতদের
শলোগানকে
অাম
কাকত
করেছেন৷
দমডে
star
মানিকের
হংকংযের
পমপে
মফি
অরনত
ভযাকসিন
বিসিএসে
##শাযী
জানবেন
চাঙা
মসনা
দশজন
জমায
মঞজরী
হোযাইকয
##মনসক
বিনযী
মালিকানার
পলিটিকযাল
এনটারটেইন
উততরাধিকারী
পরলেপ
বাজাতে
আহাজারি
তরে
##ফাযেড
আযোজকেরা
পলটনে
##ঘটনের
শবদগলো
##পোডা
জিতলেন
এজাজ
খনী
কাফর
মাসউদ
এনভায
পযানেলে
হতভমব
##শানের
কোলক
##টেকার
তাহমি
পরচারা
##গীতের
থামানো
হোছাইন
অসথাবর
##ঠো
##ঞজয
চীনকে
ইচছেমতো
টেরোর
নথিতে
গযারেথ
নাবিল
##িসতি
উপমা
সনদীপ
রাসলে
মরজিনা
১৬৯
পরিসথিতিকে
ফযজর
মজলিসের
নেকসট
আলহামদলিললাহ
ফটের
##ডাস
লেযার
উৎসবকে
১৩৩
মাঠপরযাযে
কৌশলী
learn
অযাপারটমেনট
ফিনযানসিযাল
ja
দহন
কোনোমতে
অরথো
রাষটরপতিকে
পরতনতাততবিক
নপর
##৪৮
##চেতনা
then
উততরাঞচলীয
পরবনধের
কাদছে
ইনদোনেশিযায
ভারসামযহীন
গণভোটের
কফিল
নিকার
তেই
উপরয
অযানট
পিসির
বনদকযদধ
ফযাশনের
আমদানিকার
পনরবিবেচনা
কৎসিত
ডযচে
দেশটিকে
বযাতি
অসটরিযা
ইনধন
ডানহাতি
##াকানদি
বাকসবাধীন
নাগালের
অযাফেযারস
ভেলে
আরন
মতপরকাশের
অধিকারিনী
বাদযযনতর
মসিউর
##মগধকর
জেলি
##টাপনন
অভিবাদন
##টমেনটে
তেরো
বালযবিবাহের
শাসতরীয
brow
ce
##35
##do
##তরার
##াকাটা
বনানীতে
একটখানি
##চরচায
##iter
বযবসাপরতিষঠান
ফযাদ
কোরবানীর
জযটা
হাটছে
##emb
ভটভ
তফান
কারতজ
মানছেন
কোনোটি
##ছাড
তলল
অনরোধের
অলিখিত
গোলাপের
##উপকরণ
অচলাবসথা
september
est
ঢের
শেখায
লেহন
ইশতেহারে
অবলী
কবা
শালি
খাব
এনেছিল
ফারমেসি
##mission
##de
গরিস
মানদা
চালকেরা
সারকাস
বেসিসের
দঢতার
##ৎসি
রেসট
সিলগালা
হইতেছে
##ency
সিপাহি
উজিরপর
জনপরতিনিধিরা
ঢাকাটাইমস
দরনীতিমকত
পেটেনট
হাঙগেরি
ঝোলানো
ঋতর
ফিকস
##ization
শেকড
মিউনিখ
জানমালের
জিকির
বীভৎস
##টাবদ
অভর
আনলে
নরওযের
হাসানজজামান
দাসকে
##মালয
নডলস
##iel
অনগরসর
বনদসয
বাডল
নিশানা
সিলিকন
ঈদগাহে
বিদযৎকেনদরের
গিনি
##ito
ফরেমে
##বৈষ
##এমে
বাসচালক
##ature
জেত
পররাষটরসচিব
মরাদনগর
ডিভাইসটি
বৈষমযমলক
ইনসলিন
##be
সমিথের
শতবরষ
দোষের
ঈশবরগঞজ
বদরগঞজ
বানধবীর
পরগনা
কিট
উইংযের
বাবলা
##িনসন
chann
মেহজা
ফলাইওভারের
মকেশ
উততরপতর
তরৈ
এরশাদকে
info
লংকা
শঙক
১৪১
পরাণঘাতী
টথপ
শফী
##ih
গাট
##রমায
##কণঠে
নাবযতা
##কেড
আইনকে
রেকরডটি
অগতযা
কংগরেসকে
sport
কডিগরামে
কষিযে
শেড
##িসটদের
##рж▓
সিরিযালের
ভাসকরযের
বেদনাদাযক
বাজিমাত
ve
উথ
আনলিমি
নেতাসহ
চলাফের
দরশনে
হাতাহা
বহিসকার
পরথমা
শারা
##াযকো
রসগোল
বেলকচি
vir
পাইন
যি
##নযা
##ানগর
ভাযা
ইউছ
লিউ
##গরহন
মোহাম
অপদ
##ржо
৪৫টি
বাযর
পরবণতায
##গিজ
ঘরেফিরে
সবেচছাসেবকলীগের
লিভারের
mom
কফল
চেরি
খোলে
##শরেণী
ডিরেক
আযরবেদ
আইএমএফ
বিদরপ
##টিসে
খেলি
ওযারল
এলাকাগলোতে
জনযেও
উরদধ
টেলিকমিউনিকেশন
দবায
নছি
বিদেহী
রহমাত
জোহরের
যকতিসঙগত
পারসোনাল
আইসিইউতে
ইনভেসটিগেশন
cle
##োগরাফ
লেই
ভেবেছেন
পরদকষিন
internet
অকতকারয
পাবলিকেশন
তলেন
উপযোগ
সহসমপাদক
গলানি
আওলাদ
বযাটসমযানকে
শটার
সংমিশরণ
করিলে
বৈঠকটি
ржк
বিধিবিধান
পরিচালনাকারী
সনানে
জাবির
##িটাস
কাঠমানড
##ux
বিদরোহীরা
মরণোততর
পরসিকিউশন
ছাযার
ঝরা
ডেক
অথরিটি
সপরীম
রেডকর
তেহরিক
একসটরা
সমতিসৌধে
চপি
মরশিদা
পরতিষঠাবারষিকীর
পোযা
হাসযর
ইনদরি
সটকে
শেযারবারতা
সবরগীয
রাখো
দেওযালে
নদীগরভে
কেরামত
মনোরঞজন
ওযাটসন
নেলসন
ওগলো
##ণত
##পরারথীদের
##টেকের
গরযা
দাহ
শেষবার
##পেট
মচলেকা
email
##ঙকো
##পঞজি
হাঙগের
কমলার
খেললেও
কারাভোগ
দরতগামী
তরিপরায
নেতবনদকে
মৌখিকভাবে
##টনির
##সমাজের
ইংরেজির
টানার
মদীনা
##রিযায
বাংলালিং
গণনার
বাছাইপরবের
মানববনধনের
বিবেকাননদ
write
অগরহণযোগয
ছততি
লবি
##কাসহ
মোডা
মধযবিততের
ঘাযেল
ইনটারনাল
পনরদধারের
children
নাদ
##করসিং
##রিযাল
কনফে
লেখককে
সবীকতিসবরপ
exp
পিযাজ
ডবো
লাভে
বরণনার
সেলফ
উদভাসিত
কষণের
হাদি
সইসাইড
তানভির
পাওলো
ডরেসিংরমে
বঞচনা
কেমো
মতভেদ
১৬৮
ওঠেছে
নিকষেপের
টকটকে
অগনিকানডে
fore
hub
নিথর
দেখিযা
কেনিযার
চলতেই
##পেতে
লেবেল
সমসযাকে
##ভোকে
পদমাসে
##khobor
একসটেন
উপপরধান
সিএইচ
আইইউ
অপরণা
উইকেটকিপার
cons
বখাটের
আভযন
পবা
হেক
##ববা
##জলাই
শাসনে
বিমানটির
তাকাই
পেশাজীবীদের
বিদবেষী
##ভোজের
সচিকিৎসার
tem
ভাউ
গাউন
মকতিপরাপত
রপকার
পরযোজনীযতার
নিরমাতার
পীডন
হেলপফল
শযন
নিযামত
সেচের
সমযমত
বনদা
##টকো
মরদেহটি
টরলারের
আযনার
পাতে
##oth
মালেকের
##চযা
##ঝন
##াতম
##ভিলা
কোরিও
##0000
কলযাণকর
কারযকলাপের
অডিটরিযামে
আবাদি
নম
##তলি
##রাশ
##হাউস
##ভেজের
ভোগের
বাযোপ
তাফসীর
কমপা
দলবল
১৯৪২
জননিরাপততা
সহিদ
##রোচক
হযতোবা
অরণব
magazine
অঘোষিত
বাঞছ
কলিনটনের
মরববি
সিযা
খবরা
কলেজছাতর
##গণিত
চরিতরহীন
মনসতাততবিক
আধিকয
কসট
ধৈর
বিশঙখল
আলোকস
আতমতযাগের
বিলট
##কোনায
করাইসিস
চলনবিল
take
একধাপ
আলটর
জিদানের
দাবিকে
##reen
words
হাথরসিংহে
সাপাহার
ববলী
গাও
নারকীয
পরিষকারভাবে
গিগাহার
পরীমনি
ডলি
ভক
পালায
করমবযসত
হজরের
উমমত
নবাযনযোগয
mr
চযেট
ফেক
উপবততি
বিষযভিততিক
সটান
সডকগলো
বাদামী
##োজন
##তারি
উতথানের
নিশচিতে
নাটোরে
হাজারীবাগ
লাঘব
হিত
পালনকারী
অরডারে
বরডবযানড
por
অখণড
উমা
##বাকষর
সমতিক
##পরীত
সংহতির
আনল
ইনক
ওযাইড
মগজ
লাহোরে
55
অদয
##মানষ
কষীর
কনসোর
সকলছাতরীকে
কেরালা
du
##াননদের
নেযামত
##সতকে
ডিসিসি
টরানসমিশন
পললীতে
খতবা
তারলয
##বরতি
হাসের
##erjee
অপটিকযাল
হরদের
গাইডলাইন
social
দঃসবপন
মাসাকাদজা
##ny
রিপলে
সহযোগি
আলাপে
নমবরটি
tele
ঈগল
মৎ
##দনত
হোসটেলে
মখরোচক
জিপিএস
মযাচটিতে
জেরজালেমকে
39
ip
nob
##চেনা
##থনে
নিরযাস
রেখো
manag
উডোজাহাজটি
হারিছ
পজে
##সতন
মাথ
রাজাপ
চাদে
ওযালা
মনোনিত
নিযমিতই
শাখাওযাত
বাগদান
রাঙা
শোভাযাতরাটি
পরতিকলতা
চরমোনাই
46
টলস
##শযা
##যবশত
নিজেরাও
মেটরোরেল
এমবাপপে
চৌধরি
সালিস
##চালনা
ইরানকে
একসপরেসের
দটিকে
ডেবিট
গহকর
ভলিউম
অসঙগতি
পযো
শোনাল
সংগত
অরডিনেটর
রেডিযে
উঠছিল
সইং
##সযজঞ
ডিসটরিকট
অনাথ
নি¤œ
##ানাশক
কীবোরড
শাবানা
বঝানো
হোমস
রকমারি
##বিধবসত
ককষপথে
##ized
ent
ডরাইভারের
গরনথাগারের
##সনধান
টরাইবন
ধাওযার
সবগলোই
হেনসথা
অমিয
পডতো
মিটারে
বালাগঞজ
এনটারপরাইজের
থাপপড
পরিযন
অনতরভকতির
##udd
দিছে
অযাসি
কনভার
পরিচালককে
দাডালে
সবযসাচী
তলানিতে
২২তম
দশযটি
আনলিমিটেড
les
উনের
##যীর
##ৈনিক
##েনদরে
সাতদিন
ফোনটা
পরতিরোধী
৩৪টি
বিডালের
কচছপ
অভযা
রাজপতর
শানতা
select
import
march
house
ওনাকে
জবস
বারথ
সাযন
##চলে
বাজিত
করাচি
সনধায
পজিবাদ
নযাপাডা
vol
রাহি
একেকজন
গযারি
বযঃ
উপড
##মনাই
পরশর
লাখে
যতনের
নিকটা
ধবংসযজঞ
বাযনা
নিরদবিধায
অনভিজঞ
##নীতে
তলতেই
মহালছডি
নিদাহাস
জীবের
##বিলমবে
ডরযিং
বোরডকে
ভোগয
পষটিগণ
মালালা
অদি
##৭৫
বাউন
নাচে
তনশরী
সাননিধয
ধনকবের
ওমে
কারাম
শিলং
এলাকাকে
পিএইচপি
আরোহণ
অলী
পনে
##ফিনের
বাহরাই
##মাধযম
##ote
গরাউনডে
prothom
নিযমানযাযী
কদদছ
দলগত
শকতিধর
জমিযতে
রামোস
ভেবেছি
মোকাবেলার
ছেকে
কারণের
কেনিযা
চাইতেও
মামনল
নাযার
রোপা
আনাচে
অগনিনির
শাহরাস
মহাকাবয
খোদাই
মরশিদাবাদ
খাসোগি
ধবন
##গাই
##তাকারী
বিচযতি
বাকে
অরিনদ
লোকসভায
রেখার
ফলবাডিযা
##াজাতে
নিউজিলযানডে
টাসকফোরস
অগরহাযণ
জিনেদিন
ওক
করমজীবনে
পাকসথ
গরহণকারী
মলযবদধির
##ape
যাচছিলো
ফারি
করাবেন
দরজি
ভোলেন
হইলো
সপরতি
এটে
হাযার
##পরতয
আমলেই
বিষযাদি
এমিরে
পৈতরিক
বাটলার
কেললা
আরমড
কচকাওযাজ
##শংকৈল
মেকার
সবারথান
কেরোসিন
তিবব
ভকতভোগীরা
খানাখন
শিউরে
ঢকেই
শঙখল
সমভরম
কাদি
সংগীতে
পারটনারশিপ
কনসালটেনট
ফেনা
বেনার
নিভিযে
বোতলে
নিউরো
নরমাল
ভগনিপতি
নোভ
##ভেনের
তেডে
শনির
১৬১
উনমতত
ঐসব
লোকজ
##সীমায
কষমতাযনের
পাঠিযেছি
মাতভাষার
ঘরণিঝডের
অযামবলেনসে
শারিরীক
по
উবায
বরখাসতের
সহকরমীর
সারিযে
##পণযে
পাটকল
অরডারের
কককট
আলটিমে
মেপে
তোডা
খানসহ
সবাইকেই
##মাংসিত
মাধর
সবিশাল
রেলপথে
টারগেটে
টযাবলে
সাহাবাযে
যনতরপাতির
conf
##মিনিটে
অবযহত
মকতাদির
কলেজটি
jo
জৌ
চমকি
মোরচার
পরমানিত
পরতিপাদযকে
মষ
একবিংশ
##ঙগর
পেপারে
সিফাত
সোমা
বিপকষ
কলাউ
জীববিজঞান
ডিজিএম
ওরাও
দরশককে
এমএনএ
সেলিবরেটি
জনদরভোগ
দাদী
##ভাগা
পনরগঠনের
সেলিবরিটি
চোপডার
pu
ঘামা
ডবর
মারণ
মাগীর
##পাতিক
ধরনা
##erc
##হতযায
শিশবিষযক
শধরে
আকমল
শরীরাম
সেগলোও
##শবদে
অংকে
আরাফাতের
দেবদাস
##iety
কাপা
রাজবাডি
গরহে
পরাণকেনদর
rob
গোছা
বারডেম
১২ই
শেঠি
উৎপাত
ভাসানীর
মারকসবাদী
সামরথযের
মাগরিবের
করনিক
আমঝ
বলেড
পরসনন
লকষমণ
পরেসিডেনটকে
মহাপর
নওশাদ
কষদরঋণ
দরিদরদের
##রনমেনট
##সপর
##কাডা
দেশটাকে
পলিশী
শরমিকলীগের
রাশিযাকে
পাচেক
পরবশরত
da
খটা
হটিযে
##iy
নাভ
##ওযারডের
পরেমী
##সটাইনের
নদীভাঙ
বরবরতা
পরবরতিত
হটট
এইরপ
আহছান
##াইনড
১৬২
উততরাঞচল
টেমপার
গমবজ
##কেজি
বছরখানেক
রিজেনট
যোগাড
জেএস
দশযপট
চরমপনথী
##ভেশন
বিটা
পরতিষেধ
মোকষম
##বীকষণ
শোভ
পরিবরতনশীল
ডিজেলের
সালমানকে
মাতামহরী
ঢলের
পরষা
##টাকেই
নেতাই
নবনিযকত
ভটটাচারযের
অনিরাপদ
মালিশ
জনসাধারণকে
নিউকলিযার
শরীবরদী
অগোচরে
dem
ঝন
বদৌল
##৬৮
##সংযোগ
পিছলে
বিজযা
সবখানেই
চিরপরতিদবনদবী
38
64
nbs
আরএস
##বরিক
##কলয
আমিনকে
অসসথয
অধিকাংশের
অপতৎ
লালনের
যনতরে
search
অনপরবেশকারী
থমাস
##েশাই
##নেতাদের
দরবেশ
কানদি
চাকরিজীবীদের
কাউনসিলরের
বযাংকিংযের
কযেতের
গেইনারের
জোহরা
কনফেডার
pak
ডোপ
ধক
নাডিযে
চাবক
##োলিক
লোপ
মালযেশিযান
৩৯তম
টিউলিপ
##অরডার
যবরাজের
চিরে
জালের
পযর
##নাধীন
দরপতন
জিব
উততরসর
এযারপোরটে
পদধতিটি
ভৌগলিক
চসিক
লাজক
আইযের
অপরাধীকে
বিধানসভায
সপিকারের
গযারেজ
করবানির
আরেকজনকে
500
আণ
চেনার
##কমে
##েলী
যেদিকে
মতপারথ
আজাহার
ইনফো
বাবাও
কিশোরগঞজে
পরিযাংকা
অটোমেটিক
khan
নাজেহাল
##রতা
তিনতলা
##পনথা
বারমা
করতোযা
নাগালে
মযানডেলা
##এনের
সংঘাতে
শিকষামনতরীর
ভাবতাম
বিচারপতিকে
লনডারিং
সহমরমিতা
বাঞছারামপর
last
কানিজ
অযাসে
কযাট
মাথাচাডা
টযাং
হরিযানা
শবাসরদধ
হিনদধ
আচরন
result
দেবহাটা
অনিমেষ
cu
##বরপ
ডিসকাউনট
ইসতামবলে
আলটিমেটাম
জীরণ
কাথা
দাঙগার
##ita
ফেললো
কচরি
look
অচিন
ষাড
হটা
২রা
##72
নিচছিল
এজলাসে
banerjee
please
ইসরাফিল
নযাট
৬শ
ফরিকো
ইচছামতো
কোহলিকে
চরিতারথ
##ঝকি
একাক
আগেকার
তিনবারের
##icket
ঘোষণাকে
অবলীলায
ইলি
##চৈ
দিগ
শতশত
কেরালার
exam
এমার
দযারে
সজি
##ple
করিজে
পাচবিবি
পরশিকষণপরাপত
৪২০
জববারের
been
করদাতাদের
কোলাহল
আসস
শেখে
অপরাস
মিললাত
##iting
prov
চিংডির
lib
site
কোঠায
##েনটাইল
পাচছিলেন
পদবি
সসজজিত
অনাহারে
হদযনতরের
পাঠালে
##বিষহ
গযন
##খণডের
##রাশি
টরিলিযন
পিযের
মৌন
সিসটেমস
অমানষিক
##my
পরিপাটি
আইক
সামছ
শোষণের
নিউটন
##শিযে
নিযমতানতরিক
দরদশার
সভানেতরীর
কেনদরবিনদতে
পরিমার
সটরা
ওযেলিং
হিডিক
সমারথক
fire
##نا
কারডি
বাসভবনের
##খাদয
ইতযাদিতে
গতিবেগ
হলিউডে
সওজের
ফখরলের
সাহসিকতার
চযে
থো
##নিহিত
দরবিষহ
বিশবাযনের
সরবরা
সংবাদকরমী
বকসিং
জেনেছেন
সঞচিত
৩৭টি
এলিফ
কোতথেকে
মযানড
ষটাফ
সামির
ইমেল
নাজমন
দজনকেই
বাকডা
থামানোর
সমতিসৌধ
##মনতরণালয
august
সমহে
সিধ
হারলেও
পরিণতির
জিতলেও
অনতিবিলমবে
##হলে
##াজির
আমদের
সইট
সসপষটভাবে
দআ
বডদিন
পরবধ
পোদদার
শিকষানরাগী
টট
থযালা
গাদদা
সকষমতার
তথযাদি
টরিটমেনট
ভাঙাচোরা
বাঞছনীয
দদিনের
##নামা
১৫তম
ঝরঝ
আললা
অবজেকট
অযাচিত
৩০শে
ডেমরা
##মবনা
##কানদার
হিটলারের
চৈতনয
বিএফইউজে
elect
টঙগিপাডা
কনফিগার
হালযাঘাট
চারের
চোষা
করিযেছে
সরবসতরে
বিআরটিসির
কারযাদেশ
পরাতয
পলযাকারড
july
##টিলা
বিশেষণ
হলদিযা
সবরগে
পযাথ
করণার
মেরাজ
ফরিদগঞজ
সনধানী
রণজিৎ
লযাপটপে
জাদেজা
978
পরোভাই
খেদ
আরাফাহ
##par
এইটক
আলসার
অসচছল
##ভাগেই
পথভরষট
##ama
চলকানি
কষেপে
মযদানের
শনেছিলাম
যাইবে
শরণখোলা
মিশরীয
মাইনড
রোমাঞচিত
টেনডলকারের
ওভালে
৩রা
কারলাই
চিহ
বিশববিদযালযকে
সঙগীকে
ধরমানতরিত
দাবার
ছেলেটিকে
যকতরাষটরভিততিক
ধনীদের
করিসমাস
color
হেরিটেজ
channel
pussy
ফাহি
করই
অসমযে
৩৮টি
পারছেনা
##িওর
ঠিকাদারী
বোঝাবঝি
জানোযার
দইটায
সোমাল
ভযালি
আসবেই
পালিযেছে
আখযান
পরিশোধে
মোটরসাইকেলটি
সমভাবনাই
অবতারণা
কলঙকিত
কলকারখানা
##িনেট
##তমানে
বিদযালযটির
বিবতির
##বযবসথাপনা
মিলনমেলা
অনরপভাবে
কৌতহলী
##াবলী
তাচছিল
বিষযা
খেলাঘর
##ident
শমশের
বিচছিননতাবাদী
সরমপকে
ছদমনাম
##ility
শীতকাল
ঐতিহযকে
শামীমের
ফিচারটি
গরতবর
সবাচছনদ
সমীচীন
সমকালের
##পিতে
মহডায
হারাল
বেলচ
সরবরাহে
ঋতবিক
##যাড
সবদিক
শেখাতে
চাইনা
শভশরী
ডাকাতকে
নেভিগেশন
ঝিকরগাছা
হোযাইকযং
##ет
চারতলা
পাঠদানের
জিনপিং
হোপ
নিমনরপ
কামারজজামান
অপেরা
এমা
লপ
শভাগ
##জকে
##তরীন
সনাক
##লাইনার
হাতকে
চরমসার
দকষিণাঞচলে
ভিননভাবে
মহিতের
নওযাজের
ফারাহ
##বডি
##আলা
##আরএল
সবসতিতে
কনডিশনার
সননযাসী
ওযেন
##খলা
পরীর
আমবর
ধরছেন
দকষিণব
মানবজমিন
পযালেস
জেনেভা
চিরাযত
অবকাঠামোর
পডযাদের
যোন
২জন
##পপো
দেদার
গরামবাসীরা
এমাজ
নিশচই
কাউনস
কাউনিযা
ভাসান
বঞচনার
fish
আসো
অভিস
গাভী
যৌবনের
##লীলা
শারটের
কাটাচছে
সিপিবির
আরামবাগ
উপসাগরীয
##75
সিউ
##সতমভ
আযব
নদীকে
বিবরতনের
সংবাদদাতাঃ
ইলেকটরন
law
##ডং
##মভর
##খায
##play
সংকো
অরপন
##গাডী
##সটোন
রেখেছিলাম
উৎসের
দবারাই
ইউএনওর
আগরাসনের
ফজিলত
চাদনী
ইছা
গতা
নানিযার
কিমের
সেইটা
টিআর
বসির
আকলিমা
ভবনেশবর
দকষতায
অবযাহতভাবে
##নিউজঃ
dep
বারানদার
মণডপে
জেটলি
ধৈরযের
son
যাত
##ইনে
##বিচারের
কিছকে
শনেছে
##lap
helpful
পরাতযহিক
##হরে
বাধাই
সটরোকের
টানেল
৬৪টি
চোরাকারবার
48
mess
##ка
পরতিক
আপডে
লিওনার
রেডিওতে
user
উপরযপরি
নখের
বেলের
##গাছার
##িসিং
##নযনে
ছককার
##ডাপ
অসমের
কনডম
ফেরানো
নিউটর
সমভাবনাকে
অযালেন
অনতিম
সেসবের
নিরামি
কযানডি
কানাচে
##যালিটি
জানাজার
##খারা
সামিযা
নারভাস
ফোটে
মোটরযান
টারকি
সিকদারের
সটেটমেনট
মনডপ
শারমীন
চকরিযার
তদান
##িকারা
মযাটরিক
ইতিহাসবিদ
আউটের
মলের
##জিরা
পরিজাই
খেলাম
ঘাটা
দীপতি
ঠাকরগাওযে
ঝাঝ
44
##যেতে
একসেল
রেলকরসিং
গোলাগলিতে
ডাইং
গেরযা
শঙকার
মিযাসহ
নিকটসথ
বাগেরহাটে
আভি
##দষটি
##টিযাম
##িকালে
##যোজনের
সবিধে
তৎসংলগন
থমথমে
cop
dar
সমির
তাতি
পরিভাষায
গণভোট
আরোও
ফলতলা
আযহার
ফাটানো
নিমনমখী
উরধ
শরেষঠতবের
ফলিপ
উঠেছি
অভিনেতরীদের
ভলিবল
গাডিটির
সংশলিষটতার
বদরজজামান
ধোলাই
রাইডারসের
একচছ
##াজকে
##াসতরের
##দসতি
গণঅ
সারটি
দরনীতিগরসত
মনোবিজঞান
রোডসথ
dev
সমভাবযতা
কোষাগারে
টঙগিপাডায
একসপলোর
##বিখযাত
##লিঙগ
হারার
পাকের
হেমন
ফারমের
মাদকমকত
হরহাম
অটিসটিক
রচন
##েসতা
ভাওযাল
##বনধনে
বিসমযে
নাচোল
সতমভিত
আঠার
super
তাইওযানের
সটেরযেড
##fr
করিল
এককালীন
অভিযকতরা
সোলে
সতরধর
পেশি
##কেশনাল
পরবরতক
##রতন
আসবো
হারিকেন
শেখানোর
পদদল
বরোকারে
নাফিস
ইনাযেতর
##পযাক
##চিকিৎস
দাযদাযিতব
এনটিভির
মারকেনটাইল
মযানেজারের
খালাসের
বযাবসাযী
আঞজমান
জলপরপাত
main
আফি
তীকষ
##সারা
একবারের
বযলার
সচিবকে
মঞচাযন
ফযসালা
spe
rom
আশতোষ
রেজাউর
নৌকাটি
##soft
card
ওজনে
দযে
##را
লিথ
চালনা
ডরেনেজ
হযাশট
index
নীলফামারীতে
কালবৈশাখী
ভলেই
রবাই
৮শ
বিঃ
##নাথে
বলেনড
অরডিন
অসদা
রিপরে
তৈল
হেনসতা
##নিযাম
তরণীরা
ফিলডার
বেকারতবের
তারপরেই
শযালক
গোমসতাপর
লাইল
রাননায
বিমানবাহিনী
আবরতিত
43
73
moh
লজারের
মোনাল
##ডারি
পালট
মালিকানায
##ott
##কৌশলে
ফাইলে
##নেসিযাম
নশংসতা
বিপরীতমখী
##ен
আরবান
করাত
##তিরেকে
পরতিযোগীদের
সংগতি
ste
সৌনদরযে
উমম
##পরবাহের
সলেমান
রটির
##মকতির
পাকে
মানবেন
ছিল৷
ভাড
##বনধিত
মনোমগধকর
লংঘন
রেই
ছবিতেই
##যমকত
ধরমমনতরী
usd
রেষটর
একচছতর
জোক
##ঙগীতে
বাংলাদেশেই
চাদরে
মাধযমকে
রিটে
খলবে
report
যবকেরা
গমনের
design
কলাকশল
বিমসটেক
##bi
##বীপে
নারীই
পদমাবতী
শলীলতাহানির
গরদাসপর
99
sat
কাসতর
##74
বযবসাযের
##শিলপীরা
##অযাক
উপকরণের
হামিদা
পেরেক
চিততর
পেশাজী
কোসটগারডের
ltd
টনের
থেকেঃ
বরকল
ফিলমের
##াসথলে
ইংলিশদের
মাযাবী
ইবতেদাযি
ফিঙগারপরিনট
পাউরটি
mast
পারমান
সাংঘাতিক
##নদোল
সাইমম
মানবদেহের
ধারণাকে
আবেদনকারীকে
নযাচারাল
বঝেছি
নিসতবধ
সোজাস
অনিযনতরিত
রমাল
সঞচালক
##োরি
##পিপি
কিনন
অভিপরায
অসিত
জাতীর
উতসাহ
সারাদিনের
খলশী
খোকসা
ইফতারে
##সংগঠিত
somoy
cp
mal
##ানীতি
গরান
করমকষেতর
##সাট
ভলিযে
মহাদেব
কাপছে
সিরিজটি
বিশবকাপজযী
সসথতার
সিমফ
ফরিকোযেন
শঙগ
##কমারী
##হম
##আআ
একতলা
নাউ
অনরাগী
সিটের
বসায
আলহাজ¦
ভাবলেন
মাসি
আফরিদির
pc
সকরি
দাওযার
৩০২
##চালা
সাডাশি
offic
সাদি
কিনারা
হাপানি
হাজেরা
অযাঞজে
সারতে
বিপরযযে
শফিউললাহ
দষকর
নেটে
জলিলের
##াসথল
জটলা
লাযনস
কজ
##লামের
জানাবো
তালতলী
ঘটনাসথলের
তরিভবন
দরশনারথীরা
পরিজাইডিং
অযন
মননি
চৌকস
অভযনগর
জনসমমখে
মাগরিব
আতমরকষারথে
জাতিসততার
মোরেলগঞজ
ইসতফা
সকিম
সদীপত
##no
দাপিযে
কলেজিযেট
উইঙগার
সনতষটির
ঐশবরয
গভরণ
অাস
##ইই
জযাকলিন
নিবেদনের
অসটরিযার
রফি
রাদ
সমপাদকসহ
গানধ
সতরীদের
১৭ই
ঘরটি
শহরেই
কানেক
business
অগা
বোকো
লম
##ки
ভাবের
বিযেটা
রিসক
বিডমবনা
ভীষণভাবে
কেনাকাটায
সরবসাধারণের
ওএস
##ঢা
পোশাকশরমিক
##ury
লেখকঃ
আশরযকেনদর
ржи
গরনথটি
students
jp
##শানে
##wood
দেখিতে
উৎপাদক
করমচারি
ঘমায
ইমেই
আযাদ
কযালোরি
গোধ
##গরতবপরণ
মাননার
হাসা
##দারক
বাইশারী
খলেছে
পরবাসীকলযাণ
করতাবযকতি
ভীতিকর
চরফযাশন
well
তলো
##হক
সিডিতে
উদযত
দিনগলোর
সঞচযের
পরযটনমনতরী
তাসনিম
উদাহরন
নিকটাতমীয
##শেন
##মেরিটাস
দাডিযেছিলেন
যদধজাহ
পরানতরে
৮৫০
রাজারহাট
girls
কাটিং
হোসাইনের
অরথই
এগতে
টেলিছবি
তেজসকরিয
হযামিলটন
আছর
চিজ
অনশনে
মারশা
অভিযোগকারী
বাহবা
একঝাক
##থেয
##কসং
মযাজজ
দেখেছিল
ইউসফের
ইবো
সীল
##সতরী
ডিউ
আতমিক
রানাকে
আরত
বারলিন
মহানাযক
জলীয
মজহার
আতকে
পরতিশরতিবদধ
নরদমা
গনযমানয
mamata
find
নতনের
দেখছিল
শিকষাস
সদসযগণ
ins
##দৌলা
সলতানার
সটিযারিং
চযাডাঙগায
মেনডিস
কোটচাদপর
জিকা
তপতির
ধকল
##মানবিত
পানড
মজাস
##চিনতার
অঙকন
বদৌলতে
আমিনা
##বিপল
শেষেই
বিশবসাহিতয
##прж╝
নিদারণ
ইউএনএইচসিআর
কবারী
কিযা
বযাসত
তোপের
লোকই
গোলযোগ
কাটাকাটির
চিরাচরিত
##যল
##দাতারা
##নাগার
হাসিতে
লাভল
পরতিরোধক
জামালপরে
সাকষীদের
গালাগালি
রযাংকিংযে
##দফা
কিবোরড
আলমারি
চাবিকা
কষমতাও
উখিযায
ধরষনের
aff
মানষটার
ওরিযেনট
কিলার
সনিরদিষটভাবে
পৈশা
##word
লেভেলে
অবযবহত
পরলয
একটিমাতর
বহকাল
##rop
computer
rest
run
সওযা
##মাট
রাজের
আবছা
তললে
শোকর
পরিবারগলোর
দিবালো
শিলপাঞচল
হচছিলেন
##যলার
নযনা
চাদার
কোযারটারে
বানদাদের
মাগরায
মদিনার
বীরাঙগনা
জানেনা
বাসটির
জিমন
দীরঘসতর
ধরমভিততিক
বকতার
হারালে
পরদিনই
protect
কেলেঙকারিতে
phoneky
থযালাসে
mach
এদিনের
তদর
শহি
তোডে
এনডিটিভির
ইযামিন
##সনত
##সনদর
##ржм
##জডেই
এযান
লিমা
দইশ
বসলো
ঢাকারখবর
দখলদারদের
dhakarkhobor
এফআইআর
বাছর
হাতেও
বঝেই
অভিযানকালে
ভোলাহা
সানতি
##ীস
##চাষি
জাতিসঙ
কাঠামোতে
মৌজা
হাইড
পরষতানতরিক
আওর
মিনায
সদবযবহার
মোহনবাগান
মহেশখালীতে
বচচনের
ফালি
##ংগা
##মিণী
[...]
